#version: 0.2 - Trained by `huggingface/tokenizers`
< |
<| /
| >
Ġ Ġ
ĠĠ ĠĠ
ĠĠĠĠ ĠĠĠĠ
i n
, Ġ
s e
r e
o n
= Ġ
a t
e r
\ x
Ġ =Ġ
o r
e Ġ
s t
e n
t h
a l
a r
d e
Ċ Ċ
a n
s Ġ
t Ġ
ĠĠĠĠĠĠĠĠ ĠĠĠĠĠĠĠĠ
t i
l e
f Ġ
ĠĠĠĠĠĠĠĠ ĠĠĠĠ
se l
ĉ ĉ
sel f
r o
- -
m e
: Ġ
t e
d Ġ
a s
c o
u r
self .
t o
) Ġ
in g
g e
l i
c h
l o
t _
m p
s .
c e
u n
ti on
d i
f i
s i
_ _
r a
th eĠ
c t
p e
f or
r i
at e
e l
c on
a d
u e
( )
i fĠ
" "
re t
# Ġ
u l
a me
u t
en t
ur n
i d
e x
) :
y Ġ
c l
-- --
c k
ĠĠĠĠ ĉ
at i
č Ċ
= "
ĠĠĠĠĉ a
ret urn
m a
t er
m o
a b
0 0
n o
) ;
t y
u m
in Ġ
at a
# #
c tion
s p
i sĠ
return Ġ
Ġ *
se r
m Ġ
v al
t r
to Ġ
' ,Ġ
de fĠ
a Ġ
cl as
ati on
= =
< /
s _
d ata
d _
( '
s h
ing Ġ
n ame
for Ġ
p y
p ro
i mp
l a
i l
o l
u p
d o
n e
a p
in t
on e
i t
s Ġ=Ġ
o fĠ
" Ġ
st r
q u
o p
) )
)Ġ {
/ /
p ar
imp or
ĠĠĠĠ ĠĠ
se Ġ
v er
v e
x _
h t
f ro
p o
impor tĠ
Ġ (
re s
i s
= =Ġ
a m
k e
" >
ĠĠĠĠĠĠĠĠ self.
"" "
+ Ġ
se t
( self
Ġ=Ġ 3
' )
ar g
b o
clas s
f un
al l
ĉĉ ĉĉ
er Ġ
( "
' ,
at h
ĠĠĠĠĉa 1
b j
ge t
v i
an dĠ
ĠĠĠĠĠĠĠĠĠĠĠĠĠĠĠĠ ĠĠĠĠ
Ġ ;
ĠĠĠĠ defĠ
ty pe
* *
e t
f a
s ,Ġ
in e
m at
fro mĠ
l en
z e
b u
i g
i th
---- ----
re n
Ġ* Ġ
N one
h e
v ar
co l
s c
I n
fun ction
de l
p a
s (
or Ġ
st Ġ
" ,Ġ
## ##
',Ġ '
re Ġ
s o
t a
f f
o ut
class ="
an Ġ
1 0
' ]
en d
[ '
p u
ĠĠ Ġ
p er
s a
b a
x t
val ue
p re
no tĠ
" ,
2 0
> Ġ
e d
st _
si on
\x 3
p ath
ul t
p .
o u
R e
" )
w ith
l eĠ
. Ġ
fi le
or d
a sĠ
' :Ġ
ab le
\x 7
f o
1 2
bj e
\x 0
ĊĊ Ċ
y _
an d
0 .
\x 9
s u
- Ġ
\x e
( (
a c
0 ,Ġ
' Ġ
ch e
\x 8
T r
m ent
p r
\x 6
\x c
T h
\x f
s [
r or
1 ,Ġ
\x d
t ra
\x b
ĠĠĠĠĠĠĠĠ ifĠ
lo g
n um
c i
\x 4
p ut
ti me
mo del
\x 5
1 6
i c
I N
w Ġ
re f
w e
as ser
ĉĉ ĉ
si ze
ap p
< <
== ==
at Ġ
te xt
\x 2
fi g
s )
0 ]
t .
s :
(self ,Ġ
= '
\x 1
in i
var Ġ
ĠĠĠĠĠĠĠĠ returnĠ
" :Ġ
py x_
E R
al se
. .
i s.
P y
__ pyx_
co m
ke y
c eĠ
ge t_
d u
3 2
Ġ inĠ
er .
ce s
b e
\x a
Tr ue
d ate
// Ġ
a v
th is.
c a
l Ġ
with Ġ
C o
ifĠ (
l ine
li st
ĠĠĠĠĠĠĠĠĠĠĠĠĠĠĠĠ ĠĠĠĠĠĠĠĠ
Ġ ==Ġ
_ in
al Ġ
r an
h o
C on
O N
1 1
co mp
i m
) ,Ġ
d a
n p.
ad d
en Ġ
1 ]
p h
de x
i st
c ur
q ue
at eĠ
co de
s /
w h
c _
s =
1 4
i te
at ch
on Ġ
* Ġ
ct or
& &
p tion
ĠĠĠĠĠĠĠĠ #Ġ
f lo
) ,
m b
er _
st an
b eĠ
for mat
m _
t en
i tĠ
bje ct
s y
la y
( self.
) .
6 4
R E
ab el
E r
c al
c tĠ
con fig
} Ġ
m l
F alse
u re
S T
1 5
t ri
te st
d .
as k
w or
f in
el se
(self ):
; Ġ
ĠĠĠĠĠĠĠĠĠĠĠĠĠĠĠĠ ĠĠĠĠĠĠĠĠĠĠĠĠĠĠĠĠ
2 5
co d
s or
st ar
g ra
",Ġ "
t p
1 .
mp le
D e
#### ####
S e
p or
" ]
[ 0]
un d
in _
tr an
Ġ=Ġ self.
c Ġ
ra y
re ad
a g
ĠĠĠĠ #Ġ
w _
Th eĠ
th isĠ
u ser
c re
th e
ba ck
l abel
l in
an g
ĠĠĠĠĠĠĠĠ """
for m
A T
in ter
9 9
ma ge
Er ror
pr int
E x
ch Ġ
x Ġ
res ult
y pe
3 3
clas sĠ
a u
-------- --------
th atĠ
k en
P ro
i z
f e
g th
de fa
st e
m en
ĠĠĠĠĠĠĠĠ ĠĠ
sh a
,Ġ '
g ro
ĠĠĠĠ """
ofĠ theĠ
a ge
else :
sc ri
su b
o d
u se
w n
1 8
con t
i e
am eĠ
lo ad
1 3
i re
te st_
l l
st ate
1 Ġ
e v
ation Ġ
p l
at or
co un
di v
ig ht
u s
1 7
s pe
ht tp
E _
ĠĠĠĠĠĠĠĠĠĠĠĠ self.
li b
ĠĠĠĠ Ġ
t (
si g
y .
pu t_
[ ]
f .
O R
c all
len gth
M o
se n
3 4
S t
N o
m in
di ct
al _
w a
2 4
app end
I Ġ
str ing
c .
| Ġ
E N
m .
s ()
% Ġ
c li
sh o
ur l
stan ce
[ "
Ġ +Ġ
me th
in dex
ĠĠĠĠ returnĠ
um ent
T o
w ri
h ref
1 9
2 .
re e
ĠĠĠĠ '
qu al
L o
in tĠ
ĠĠĠĠ }
op tion
p _
Ġ=Ġ3 3
i f
a se
on g
di r
i mage
5 4
sha pe
Ġ=Ġ33 Ġ;
a x
si tion
lo ck
wor k
2 ,Ġ
ht ml
S tr
no de
d (
g en
n _
col or
\ n
to ken
w id
he ad
sp an
T _
j o
s sa
8 0
che ck
href ="
Ġ class="
_ id
N ame
er (
sp on
le ment
ou Ġ
p i
T ype
ul l
{ }
c u
/ Ġ
o ur
" :
ĠĠĠĠĠĠĠĠ '
. get
5 0
</ a
que st
A r
ti l
2 9
o bj
er ror
\ u
num b
1 )
ex t
1 ,
p t
< aĠ
V al
==== ====
len (
function Ġ(
] Ġ=Ġ
v eĠ
u b
ch an
&& Ġ
F i
8 8
ar ray
u eĠ
re qu
D E
st ri
f ra
] )
</a >
a reĠ
li c
t ar
fi el
par am
A R
ite m
Ġ=Ġ '
n el
e dĠ
P ar
j s
to _
v o
flo at
ĠĠĠĠĠĠĠĠĠĠĠĠ ifĠ
G L
":Ġ "
o bject
Ġ isĠ
c te
ro w
S E
l yĠ
a mĠ
ex ce
A N
p la
5 7
` `
ini t_
ch ar
d en
Ġ* /
a ct
I T
du le
m ar
6 7
a k
se t_
e ren
: :
<< <<
append (
vi e
cur ren
1 00
t or
2 7
p as
ssa ge
i s_
m on
o k
D ata
< Ġ
čĊ čĊ
in put
ĠĠĠĠ ifĠ
} ,
w .
asser tĠ
da y
6 9
x .
_ b
Ġ=Ġ 0
wid th
ĠĠĠĠĠĠĠĠĠĠĠĠĠĠĠĠ ĠĠĠĠĠĠĠĠĠĠĠĠ
c t_
out put
i dĠ
() ;
s co
g o
_ name
el seĠ
</ span
w ar
sp anĠ
i ze
2 2
r un
3 9
ba se
cl u
ra i
Ġ=Ġ3 2
ran ge
< spanĠ
requ ire
defa ult
[ 1]
function Ġ
m ask
u seĠ
te mp
** **
0 Ġ
gro up
pa ck
Ġ=Ġ32 Ġ;
] Ġ
re spon
o s.
5 5
T e
s :Ġ
ame ter
b yĠ
ate _
ri g
ing _
ing .
] ,Ġ
ce _
3 7
d er
d ,Ġ
in stance
8 4
6 0
<spanĠ class="
tr y
Ġ*Ġ @
x ,Ġ
8 7
li >
p Ġ
= True
do c
A L
':Ġ '
i r
ty p
m eĠ
ab leĠ
)Ġ +Ġ
so ur
lo w
star t
f t
e li
o Ġ
asser t
qual (
i Ġ
p tĠ
ĉĉĉĉ ĉ
self. _
P o
ne wĠ
1 Ġ=Ġ
de f
S Ġ
m s
00 00
op en
sĠ toĠ
re g
8 9
_ C
} ;
y (
s s
tr ue
ul dĠ
st o
d eĠ
ĠĠĠĠĠĠĠĠĠĠĠĠ returnĠ
w ord
il lĠ
re d
or m
y ouĠ
bu il
o th
ma x
bu te
( [
Ġ=Ġ "
on eĠ
t le
ver sion
E n
D ate
tran s
C h
__pyx_ t_
+ =Ġ
u til
s up
g .
d >
0 ,
ord er
pu tĠ
ex p
ĠĠ #Ġ
eli fĠ
s ):
' :
val id
init_ _
n Ġ
l ate
I D
mo dule
] ,
m i
fi r
__ init__
n ameĠ
por t
in fo
st ati
ĠĠĠĠĠĠĠĠ "
di re
() .
par amĠ
up date
T H
st at
k w
lin k
str u
wri te
v _
ad d_
d Ġ=Ġ
U n
en tĠ
log g
4 4
d b
</span >
ch .
th is
at tr
Str ing
sĠ theĠ
th on
me ssage
' '
num _
t able
Val ue
ĠĠĠĠĠĠĠĠ forĠ
pro ces
c or
p ri
3 0
Ġ=Ġ3 4
5 9
h as
fi l
c ation
2 00
i p
3 6
n al
all Ġ
o t
3 .
M e
ma in
mo ve
g _
s ,
ti al
ma p
se tĠ
L E
T i
se le
com m
bje ctĠ
Ġ=Ġ34 Ġ;
0 )
None :
ref eren
n .
c anĠ
tra in
Ġ toĠ
p lo
meth od
re quest
w illĠ
b atch
pro per
s um
= None
( )Ġ
3 ,Ġ
ĠĠĠĠĠĠĠĠĠĠĠĠ #Ġ
par se
_ size
sp li
b lock
f _
F F
js on
L ist
Ġ '
:Ġ '
2 Ġ
0 x
av eĠ
u te
ig h
e ar
ev ent
pla ce
data _
h and
s r
</ li>
b in
R O
st y
__ Py
- >
c le
a mple
[ i
T Ġ
__Py x_
fe at
path .
sĠ importĠ
.. /
rai seĠ
h el
kw arg
val ueĠ
te x
. format
2 Ġ=Ġ
"Ġ href="
Ti me
to p
U L
,Ġ "
== =Ġ
I ON
ut t
i ter
a dĠ
:Ġ "
ti tle
po int
Th isĠ
inĠ theĠ
j e
g eĠ
> >
\x 00
ĠĠĠĠ @
gen er
con ta
typ eĠ
qu en
( a
/ *Ġ
respon se
c lo
coun t
######## ########
qu er
fra me
dĠ toĠ
y ,Ġ
M E
en se
var i
3 5
col um
lo b
spe ci
di m
in put_
vi ce
O bject
d d
e s
jo in
A C
pas s
arg ument
ti ve
a y
h aveĠ
chan nel
t d>
m ul
fiel d
S _
cont ent
bo x
A n
u g
s: //
sp a
sc al
ĠĠĠĠ "
R et
' );
b y
http s://
fi leĠ
5 ,Ġ
D i
6 6
n ull
ĠĠĠĠĠĠĠĠĠĠĠĠ Ġ
t f.
4 9
I fĠ
` Ġ
tar get
pa ren
ĠĠĠĠĠĠ Ġ
. re
{ Ġ
s k
b le
er Ġ=Ġ
i on
( f
L ic
= False
ar ch
! =Ġ
ĠĠĠĠĠĠĠĠ }
pa ge
8 6
e lement
se con
in do
. p
e k
fil ter
ĠĠ }
\u 0
sty le
we b
A Ġ
Ret urn
N um
o ff
cod eĠ
C ol
<aĠ class="
n u
K e
m an
on t
e a
re .
y n
fin eĠ
a ction
function (
tor ch.
&& Ġ(
7 9
e p
_ S
fi len
% s
data .
str (
ĉ f
k eĠ
do wn
range (
ĠĠĠĠĠĠĠĠ Ġ
isĠ notĠ
') ,
o ver
c an
wh i
d f
par ameter
referen ceĠ
ran do
ma x_
arg s.
t ing
4 0
up le
Ġ=Ġ (
I C
par ser
py thon
st a
v el
Ġ importĠ
/ **
F or
A P
gra ph
- l
() :
inter nal
Ġ=Ġ np.
lo cal
re l
exce ptĠ
U R
try :
.format (
ne w
la g
- 1
vie w
k er
model .
a re
se s
>> >Ġ
mat ch
_ t
\ 2
u stĠ
utt on
de fineĠ
con stĠ
or g
sa mple
ul tĠ
ex pe
w eĠ
| |Ġ
f ol
_ P
] .
e sĠ
lo s
l ong
tri bute
lay er
8 5
mon th
to m
2 )
er r
ne t
o .
po sition
g i
au th
? Ġ
1 _
' sĠ
g g
l y
en ti
( r
l as
ĠĠĠĠĠĠĠĠself. assert
or y
T E
V ie
ĠĠĠĠĠĠĠĠ else:
data set
ĠĠĠĠĠĠĠĠĠĠĠĠ '
n orm
m m
< li
b i
os. path.
p x
ation .
so Ġ
c ate
B o
ou tĠ
filen ame
s ol
men tĠ
f fi
T O
def ine
{ '
ex e
in clu
we ight
re am
- >Ġ
M M
div >
ĠĠĠĠĠĠĠĠĠĠĠĠ ĠĠ
b ar
scri ption
ingĠ theĠ
c f
' tĠ
Ġ andĠ
Mo del
<li Ġclass="
t eĠ
er ,Ġ
</ td>
di sp
pro to
Ġ -Ġ
conta in
con text
ca seĠ
out put_
---------------- ----------------
he ight
<aĠclass=" referenceĠ
ĠĠĠĠ forĠ
cre ate
A c
un i
con ne
f alse
. com
internal "Ġhref="
. html
X _
_ tĠ
Ġ=Ġ3 6
c s
ta g
7 7
nu mp
sour ce
Te st
o b
<aĠclass="referenceĠ internal"Ġhref="
sa ve
ce ption
ĠĠĠĠ <
c ent
</ div>
Ġ=Ġ3 5
" );
le te
spa ce
s. append(
Ġ forĠ
whi chĠ
: //
# defineĠ
( x
Ġ=Ġ36 Ġ;
ĠĠĠĠĠĠĠĠĠĠĠĠĠĠĠĠ ĠĠ
_ de
ge tĠ
0 :
D I
_ path
)Ġ -Ġ
Ġ=Ġ35 Ġ;
L O
li stĠ
ap i
2 8
numb erĠ
sho uldĠ
f l
A S
ter Ġ
v ent
b .
p add
ne w_
im g
ĠĠĠĠĉa1 9
to ct
int (
A G
,Ġ self.
.. .
E qual(
en cod
m is
T R
n g
toct ree
Fi le
Co mp
sĠ forĠ
sĠ (
toctree -l
di ction
is instance
l ang
<liĠclass=" toctree-l
bo d
z er
our Ġ
[ :
il d
_in ter
I d
s w
b re
ra p
( __
f lag
ex ample
S et
ĠĠĠĠĠĠĠĠĠĠĠĠ "
} )
ĠĠĠĠĠĠĠĠ :
)Ġ ==Ġ
head er
en t_
ĠĠĠĠ assertĠ
bu tĠ
6 ;
colum n
A D
bu ff
(( ((
ser ver
sĠ andĠ
spli t
rig ht
e val
co py
bo t
secon d
ĠĠĠĠĠĠĠĠĠĠĠĠĠĠĠĠ ifĠ
'Ġ +Ġ
Ex ception
IN G
clo se
W e
7 5
3 8
h id
2 6
7 4
m it
Num b
sĠ inĠ
\ \
ste p
B u
or t
type =
in putĠ
s ['
D O
t yĠ
ĠĠĠĠĠĠĠĠself. _
l _
() )
w he
1 :
l .
mul ti
Ke y
ty .
O ption
y ear
http ://
e le
( c
A l
pu b
A t
me an
}Ġ elseĠ
U p
fro m_
il eĠ
ar d
s[ 0]
ĠĠĠĠdefĠ test_
a st
+ +
D Ġ
Ġ=Ġ None
mo de
U N
te g
C O
); Ġ
cli ent
E S
numb er
======== ========
Ġ=Ġ [
_ re
speci fi
ĠĠĠĠdefĠ __init__
D o
un it
ten sor
0 4
data Ġ
et a
ĠinĠ range(
fun c
E Ġ
ms g
isinstance (
d ro
Ar ray
* /
le vel
on _
ĠĠĠĠĠĠĠĠĠĠĠĠĠĠĠĠ Ġ
ĉ Ġ*Ġ
di ff
al f
c r
p >
a f
bo ol
le ft
wh enĠ
. _
e mb
< div
name ,Ġ
() ,Ġ
C T
lo c
dĠ byĠ
_ M
F un
ig n
print ("
mb ol
g lob
x Ġ=Ġ
join (
i ty
. set
at ten
con v
o f
"Ġ +Ġ
sĠ areĠ
{ "
ti m
: `
C las
I S
G et
t uple
lin eĠ
se ri
sĠ=Ġ [
stati cĠ
_ type
av a
con ver
si te
s. Ġ
. add_
n ing
( Ġ
<aĠ href="
**** ****
S er
_ F
sr c
expe cte
P ath
time .
en v
toĠ theĠ
s li
sĠ ofĠ
cont ro
ou t_
org /
sig n
ter n
P Y
Lic ense
ĠĠĠĠ #
po st
scal e
s ing
I te
o g
s q
f ont
Tr an
3 Ġ
me m
&&Ġ a
Ġ theĠ
re move
che ma
ca che
pro du
te d
)Ġ ->Ġ
w indo
None ,Ġ
E X
u '
b order
Ar g
ĉf ĉf
n n.
dĠ inĠ
Q u
on lyĠ
ĠĠĠĠĠĠĠĠĠĠĠĠĠĠĠĠ self.
c at
util s.
H T
< t
st ream
mar k
op er
ic Ġ
se quen
vi de
hid den
print (
re _
C H
10 ;
7 ;
y Ġ=Ġ
( 0,Ġ
to ol
ti v
u le
ation _
sĠ=Ġ []
se arch
scri pt
N O
4 5
hel p
T ext
S y
ĠĠĠĠ ifĠ(
si z
)) )
6 Ġ=Ġ
di tion
trans form
U T
w w
ĠĠ returnĠ
B ase
d ateĠ
d at
zer o
str ingĠ
all _
w i
4 ,Ġ
or ig
bre ak
. h
ce ll
fi x
C re
e qual(
call back
2 ,
o bjectĠ
T I
0 ;
to t
- 8
test .
ex tra
P O
us ingĠ
] ;
" ;
9 ;
m t
h tĠ
me t
2 ">
feat ure
en er
pro je
Fi el
ĠĠĠĠĠĠĠĠ ĠĠĠ
8 ;
st ra
)Ġ *Ġ
H e
Ġ ofĠ
6 5
M atch
N A
we ek
pack age
) :Ġ
} );
b _
ti meĠ
', '
in t_
sĠ aĠ
s -
Con t
A B
ma il
tra in_
St ate
Py O
A d
t ask
7 0
bu g
b r
ar y
by te
Con fig
0. 0
di s
stat u
ati ve
M P
1 ;
no Ġ
en um
st d
le ction
In dex
3 ,
_ p
chan ge
M on
T ra
set ting
te dĠ
V ER
** kwarg
act .
comm and
pr intĠ
u int
config .
=True )
ĠĠĠĠĠĠĠĠ assertĠ
e m
ex ist
c ul
M ak
A u
u i
res sion
t ,Ġ
ol d
de p
ho st
ar i
vari able
asser t_
on ent
E lement
6 8
doc ument
as h
ĠĠĠĠĉa 4
alf red
a _
Value Error
) )Ġ
proper ty
I L
alfred 3
y ourĠ
In fo
ĠĠĠĠĠĠĠĠifĠ self.
// //
/ >
p p
sco pe
N e
ĠĠĠĠĉa1 0
==Ġ '
alfred3 _inter
se q
y y
ve ctor
'] Ġ=Ġ
ĠĠĠĠĠĠĠĠ )
l er
do Ġ
> =Ġ
al iz
h asĠ
ĠĠĠĠĠĠĠĠĠĠĠĠ forĠ
i le
2 3
off set
r on
s[ i
= >Ġ
at tribute
emb ed
- 1]
alfred3_inter act.
siz eĠ
' ))
L Ġ
2 ]
m d
F ra
No de
mo d
_ c
gro und
ar ra
p ol
po s
le .
T ER
wh ileĠ
ĠĠĠĠdefĠ _
la st
de scription
pre sen
ea chĠ
Ġ=Ġ0 ;
L I
sig ne
ĠĠĠĠdefĠ__init__ (self,Ġ
4 ;
ke yĠ
n ext
2 _
ct orĠ
5 ;
D _
g l
ĉĉĉĉ ĉĉ
m y
an ce
)Ġ asĠ
ag eĠ
mat ri
sho w
ses sion
Ite m
ck et
E vent
a in
ut f
<liĠclass="toctree-l 2">
<<<< <<<<
functionĠ( )Ġ{
in d
ä ¸
load _
t s
ar yĠ
fro m
RE F
_ f
g ri
% }
meth o
b utton
ra w
C ON
e .
ma ke
p xĠ
C li
Vie w
ces s
t Ġ=Ġ
di stri
' ;
buil t
ini tial
an ge
.com /
S S
t mp
le _
<div Ġclass="
12 8
he ck
5 8
I G
__ p
th ro
a .
di f
b t
ax is
i ,Ġ
n ex
V er
{ %Ġ
be fo
px ;
pub li
forĠ theĠ
w rap
dire ctor
de d
o le
sco re
model _
U ser
6 2
w o
al ize
Date .
pl t.
al ign
_ s
ww w.
c ord
ĠĠĠĠ varĠ
W id
3 Ġ=Ġ
ĠĠĠĠĠĠĠĠ #
ĠĠĠĠĉa 9
ex ten
<aĠclass="referenceĠinternal"Ġhref=" alfred3_interact.
vo idĠ
y p
erĠ theĠ
e mp
ĠĠĠĠ </a>
ar Ġ
c ap
O p
u reĠ
b l
an d_
T en
ĠĠĠ </li>
n on
Par ameter
ed ge
sy s.
gi v
\2 \2
ĠĠĠ <liĠclass="toctree-l2">
Pro per
c y
_ list
padd ing
:Ġ {
d )
ĠĠĠĠĠĠĠĠifĠ (
an yĠ
O F
ĠĠĠĠdefĠ __
defa ultĠ
as yn
ad ata
data Ġ=Ġ
O ut
rig htĠ
H o
no t
cre ate_
_in fo
. append(
ct (
our ce
Y P
O f
lib .
6 ,Ġ
withĠ theĠ
ĠĠĠĠĠĠĠĠĠĠĠĠ }
ul t_
co ord
print ('
S o
U S
e d_
w an
all yĠ
Y Ġ
ma yĠ
o m
.html ">
star t_
)Ġ forĠ
__pyx_ v_
ch o
r .
do ub
H and
c v
g or
m ustĠ
ate dĠ
__ __
$ {
this. _
la mb
ut eĠ
ĠĠĠĠ <aĠclass="referenceĠinternal"Ġhref="alfred3_interact.
e tĠ
ro ll
m er
p op
pre diction
G ro
in k
atten tion
Ġ==Ġ '
C heck
ti e
__ ret
an k
</span> <spanĠclass="
a seĠ
<t dĠ
bjectĠ *
oth er
logg er.
z one
e po
P re
_ file
dict (
ĠĠĠĠĠĠĠĠ elifĠ
ĠĠĠĠĠĠĠĠĠĠĠĠĠĠĠĠ '
4 8
fir stĠ
plo t
add res
= self.
)Ġ /Ġ
se _
11 ;
al ph
de vice
curren t_
ĠĠĠĠĠĠĠĠself.assert Equal(
=None ,Ġ
lang u
app lic
4 Ġ
0 1
} }
â Ģ
ro ot
ĠĠĠĠ :
li keĠ
% Ġ(
Ġ=Ġ []
(r '
ate (
ĠĠĠĠ >>>Ġ
ex port
Ġ*Ġ@ paramĠ
ig no
'] )
cli ck
u tion
}ĠelseĠ {
sta ck
_in dex
paren t
in di
OR Ġ
ĠĠĠĠĠĠĠĠĠĠĠĠĠĠĠĠ #Ġ
ĠĠĠĠĉa 2
as _
curren t
0,Ġ 0,Ġ
G E
Con text
fir st
& Ġ
1, "
ĠĠĠĠĠĠĠĠifĠ notĠ
tran sition
st op
l at
impor t
de bug
mo ment
li g
6 3
P er
:Ġ str
tex t_
F a
": 1,"
clas se
name __
Match Mak
Gro up
war d
ur ation
k no
numberĠ ofĠ
O r
defĠ test_
re sh
ho ur
stri de
stati c
sĠ thatĠ
ĉĉĉ }
th enĠ
au to
Ġ "
De fa
sy ste
inclu de
. get_
fa ctor
Se quen
name ="
0 -
utf -8
s )Ġ{
o s
/ *
cu sto
ĠĠĠĠĠĠĠĠĠĠĠĠ else:
pu sh
back ground
a i
ĉ ĠĠĠĠĠĠĠĠ
oth erĠ
r _
Ten sor
A dd
' .
] [
en dĠ
mis sion
c ri
Ġ {
S h
Y ouĠ
por tĠ
ker nel
data ,Ġ
j ang
id x
willĠ beĠ
temp late
lib ci
H O
tex tĠ
Fun ction
" .format(
id ="
( 1,Ġ
R o
ĠĠĠĠĉa 20
0 Ġ=Ġ
sy mbol
In ter
f ull
ĠĠĠĠĠĠĠĠĠĠĠĠ raiseĠ
Ġ=Ġ {
exce ption
me tri
ct .
en seĠ
ĠĠĠĠĠĠĠĠreturnĠ self.
4 .
m yĠ
F ro
m arg
disp lay
ĠĠĠĠĉa1 5
W h
arg s,Ġ
PyO bjectĠ*
x ml
s m
0 );
../ ../
re dĠ
ĠĠĠĠĠĠĠĠĠĠĠĠĠĠĠĠ ĠĠĠĠĠĠ
orig in
fa ce
se ction
curren tĠ
i ma
I P
en code
I mage
ch ild
listĠ ofĠ
data -
n p
) ?
m ath
ĠĠĠĠĠĠĠĠĠĠĠĠĠĠĠĠ "
le x
)Ġ %Ġ
Ġ*Ġ@paramĠ {
mo ck
id _
file .
P age
ac tive
signe dĠ
ĠĠĠĠĉa 7
s ameĠ
cont in
c c
__ name__
o _
E L
op tim
met adata
ĉĉ returnĠ
da yĠ
ĠĠĠĠĠĠĠĠĠĠĠĠ ĠĠĠ
t ingĠ
bod y
L ine
ĉ };
ent r
n b
ï ¼
s() :
batch _size
/ g
Ġ=Ġ _
'] ,
border -
' >
model s.
0 9
type ="
me mb
color :Ġ
fin d
onĠ theĠ
n av
s );
B y
list (
ĉĉĉ returnĠ
bot tom
an t
ch ed
Ġ=Ġ 10;
a ,Ġ
ĠĠĠĠĠĠĠĠĠĠĠĠĠĠĠĠ returnĠ
ne edĠ
4 7
MatchMak er
_ mask
b et
Fra me
in st
in teg
N UL
s )Ġ
Co de
0. 5
c n
E D
tĠ toĠ
fromĠ theĠ
fa c.
epo ch
_ IN
exe cu
or i
\ 3
& #
O n
D AT
Ġ -
de lete
eĠ theĠ
th onĠ
e mail
L i
,Ġ [
c ro
F o
sy n
r Ġ=Ġ
marg in
A M
i ĠinĠrange(
un dĠ
a wa
al le
ĠĠ <
For mat
u res
s sĠ
has h
lo cation
ti fi
( __pyx_t_
tr >
n ingĠ
g ment
me di
s. get
s[ "
ĠĠĠĠ )
_ B
ta il
ĠĠĠĠĠĠĠĠĠĠĠĠĠĠĠĠ ĠĠĠĠĠĠĠĠĠĠĠĠĠĠĠĠĠĠĠĠ
fol low
] ))
To ken
col lection
ĠĠĠĠĠĠĠĠĠĠĠĠĠĠĠĠ ĠĠĠĠĠĠĠĠĠĠĠĠĠĠĠĠĠĠĠĠĠĠĠĠ
1 );
u id
value ,Ġ
ra di
\x0 1
( -
d ing
ac ces
S ub
ĠĠĠĠ else:
Ex p
i de
m u
quer y
exten sion
it sĠ
.add_ argument
I O
==Ġ "
page .
) )Ġ{
pro b
at tern
built in_
') .
m ,Ġ
fo o
re q
Ġ=Ġ3 ;
w asĠ
Ġ=Ġ 9;
c -
pro p
d jang
################ ################
mp leĠ
st er
t xt
li mit
' ):
S pe
code >
use dĠ
m in_
igh tĠ
None ,
me ta
obj .
g in
le ar
") ,
2 ;
N oneĠ
< =Ġ
s chema
ĉĉ }
Col or
hand le
Ġ=Ġ True
NUL L
isĠ aĠ
T P
reg ist
no w
- 2
v id
i con
in toĠ
sp ac
tar get_
e di
G ener
25 6
p yĠ
asser t.
tra ck
de dĠ
for mĠ
ĠĠĠĠĠĠ }
pri v
col -
n a
t w
n er
" ))
ĠĠĠĠĠĠĠĠ: paramĠ
mo reĠ
3 )
ro o
UR L
und erĠtheĠ
te stĠ
giv enĠ
int ,Ġ
c Ġ=Ġ
d type
In put
Ġ <Ġ
W a
k _
bo ok
Ġ :Ġ
s ;
di st
ati veĠ
</ p>
B e
( i
isĠnotĠ None:
DE F
iz er
. ĠĠ
ith ub
S ize
lo op
i ve
0 7
f n
cor re
flo w
_ state
s ']
sĠ=Ġ self.
P y_
ce (
Ġ=Ġ False
, ĠĠ
buff er
s d
metho dĠ
libci ty.
canĠ beĠ
' .format(
Ġ asĠ
No t
std ::
\x00 \x00
ca se
ĠĠĠĠĉa 5
D ay
out putĠ
ER R
L ay
name )
ifĠ( !
u ff
net work
Ġ=Ġ 8;
notĠ inĠ
f ul
n d
f ini
Up date
ĠĠ Ġ*
set up
\x8 0
__ (
conne ction
: :Ġ
b g
ĉ ĠĠĠĠĠĠĠĠĠĠĠĠ
ĉ t
lib /
Fro m
check _
key ,Ġ
ex pr
=None ):
_ to_
5 .
__ builtin_
C all
A pp
si fi
ul eĠ
s ',
su c
7 ,Ġ
d aĠ
parser .add_argument
auth or
ve ctorĠ
g re
diff eren
si ble
si de
py x
_ value
s in
NA ME
Ġ &&Ġ(
K E
Par ser
k el
Ġ=Ġ 6;
Lic enseĠ
_ r
~ ~
ava il
add (
arra yĠ
fromĠ .
id enti
ho me
00 0
en dif
\x3 0
ar t
) (
a ck
R un
th read
ĉ ĠĠĠĠ
option al
Co un
_ data
Ġ=Ġ 7;
-- -
-- Ġ
t ab
W indo
F orĠ
fi ll
cal cul
,Ġ andĠ
M L
Defa ult
99 9
Ġ >Ġ
t ree
I F
cs v
N et
contin ue
jo b
i o
open (
an ti
C L
gra m
s ))
Proper ty
_ dict
S P
v l
comp onent
ĠĠ varĠ
Ġ=Ġself. _
whe reĠ
eval u
en d_
li kel
write (
c ,Ġ
__pyx_ L
A s
ĉ #Ġ
T he
buil d
C ase
isĠ None:
Re s
ĠĠ //Ġ
M ap
user _
un define
re place
) );
'Ġ %Ġ
set (
os.path. join(
d \
e c
G ra
_ .
war ning
P RO
ĠĠĠĠ //Ġ
po ol
re que
v ol
la st_
on 'tĠ
star tĠ
g res
\xc 0
m il
publi cĠ
[i ]
re d_
array (
so meĠ
rando m.
b it
" .
the reĠ
stan ceĠ
Y _
use _
c er
0 8
M O
S .
bo und
' )Ġ
lo adĠ
ĠĠĠĠĠĠĠĠ try:
j ustĠ
ap eĠ
at orĠ
( p
qu o
u al
g it
de sc
pack _
n 'tĠ
t t
pi ck
al lo
men t_
awa itĠ
dis able
de st
al og
Option al
proto type
. shape
Co py
cle ar
ĠĠĠĠĠĠĠĠĠĠĠĠ (r'
)Ġ &&Ġ(
ne g
Ġ ifĠ
le t
a ch
ke y_
distri bute
2. 0
shouldĠ beĠ
ingĠ toĠ
)Ġ &&Ġa
bt n
Wa it
enum er
th Ġ
\x3 8
\ t
val idĠ
T YP
12 ;
bje ct_
U P
lo ok
res ol
c ar
() ,
un signedĠ
vi ron
At tribute
pass word
I mp
it yĠ
log _
'Ġ inĠ
TH ON
y /
ĠĠĠĠĠĠĠĠ sup
ĠĠĠĠ withĠ
defa ult_
con ten
L IN
. org/
presen t
L e
Di ct
men u
B U
pro ble
tra ffi
color ='
\x0 3
r ule
\x6 0
src ="
L abel
Ġ=Ġ functionĠ(
pi pe
Mo dule
p ad
se dĠ
ĉ varĠ
Ġ=Ġ 4;
\xf 8
\xc f
j u
+=Ġ 1
\xf 2
encod ing
] :
d one
Ġ* ĠĠĠĠĠ
<< Ġ
\x0 2
pl ug
Re quest
ĉĉĉĉ "
\x9 f
ar ti
tr yĠ
E C
Re spon
py test.
Me ssage
A _
en able
Fiel d
al i
ti veĠ
\x1 b
ole an
ac tiv
stru ct
p lay
ĠĠ __Pyx_
exe c
s (self):
g ithub
li st_
J S
cal le
name Ġ=Ġ
B utton
( b
befo reĠ
ĠĠĠĠĠĠĠĠ <
( this
\x0 6
\xf c
F N
\xe 7
\x 20
s ingĠ
isĠ theĠ
i li
M an
di men
or _
\xf 0
__ re
C Y
S p
i ck
. set_
ĠĠ Ġ*Ġ
5 12
'' '
ft wa
m ini
sta mp
ç ļ
St at
ĉ //Ġ
ĠĠĠĠ --------
\x1 8
</ d
cte d
,Ġ 0.
sĠ ofĠtheĠ
html ">
f ut
lamb daĠ
th anĠ
\x0 7
çļ Ħ
V AL
\x3 2
\xf 9
\xb f
fa il
s "]
\x ff
ĠĠĠĠ Ġ*Ġ
ate d
attr (
Windo w
\x3 3
cent er
ĠĠĠĠĠĠĠĠ withĠ
err orĠ
\xf e
y -
\x0 c
S u
se eĠ
\xe 3
ad dĠ
r g
< d
T ex
'] ,Ġ
a -
py .
=False )
pre fix
M ul
` .
( n
.h :
i el
ĠisĠ notĠ
sh uff
M at
\xe f
\xe 5
par t
ĠĠĠĠĠĠĠĠ >>>Ġ
h ist
bo x_
. to
\xe 0
cte dĠ
windo w
\x6 7
\x3 a
I Z
\x3 6
\x ce
dimen sion
stri p
image _
Ġ=Ġ 5;
i .
Ġ=Ġ 11;
re mo
\xd f
\xf b
p ret
\x3 9
option s.
\xa f
\xf 1
tri b
ĠĠĠĠ self.
ĠĠĠĠ<aĠclass="referenceĠinternal"Ġhref="alfred3_interact. page.
ad er
\x7 f
s on
2 :
Numb er
) ]
\x3 1
s ':Ġ
e qu
$ D
con dition
\x2 e
') ,Ġ
.get ('
\xa 7
pro c.
\x9 3
h igh
ti ck
b er
\xf 6
4 3
is o
ul ar
node .
\xc 3
\x3 e
sĠ orĠ
pyx b.
ch il
do esĠ
\x3 c
af terĠ
pa y
ex it
ST R
OF Ġ
r /
g ame
! ==Ġ
\x7 e
\xc 7
ve lo
\xe b
# endif
\x8 c
N E
d ri
\xd 3
\xa 3
l d
le f
/ v
nump yĠ
= 0.
\x0 4
x el
Lo cal
h a
web pack_
\x7 9
cre ateĠ
` ,Ġ
\xb e
\x0 e
\x7 c
\x1 f
\x8 f
i _
z ip
F il
Ġ __
\xf 7
\x9 e
i v
sh ort
it ch
I ter
ap p.
\x3 4
if (
\xd 8
\xd 7
\x ed
Er r
\x8 e
L L
with _
=True ,Ġ
\xe 9
0, 0,
__ webpack_
s (self,Ġ
L ong
ff e
clas s_
\x9 c
op t
per mission
**kwarg s):
\xe c
flo w_
pro vide
Ġ orĠ
s ]
Re g
multi p
. /
</a> </li>
un k
res ource
pa ir
iĠ <Ġ
sour ceĠ
\x6 3
que ue
\xb c
O per
le g
\x7 4
in ser
Sy ste
ca useĠ
di ct_
\xe 4
DI R
s[ 1]
langu age
C REF
7 8
po si
inclu deĠ
el l
name ='
/ ^
de cod
C S
Se le
de code
\x1 c
update _
he re
M A
54 9
par ti
de tail
\x0 f
[0] ,Ġ
m as
false ;
( int
\x4 e
read _
assert. equal(
\x4 f
Au th
M Ġ
\xd a
( *
1. 0
ma keĠ
__webpack_ require
\xc b
O ff
\x3 f
model Ġ
\xc 6
u .
\xc 9
ĠĠĠĠĠĠĠĠĠĠĠĠĠĠĠĠ ĠĠĠ
\x7 6
http:// www.
ï¼ Į
\xb 3
ĊĊ ĊĊ
ĠĠĠĠdefĠ get_
10 ,Ġ
e ver
c m
dro p
an y
\x2 f
7 /
str ,Ġ
T able
h y
\xc a
\xf 3
\x fa
I '
\x1 9
\x8 7
th erĠ
result Ġ=Ġ
style ="
L en
color:Ġ #
\xc 1
f "
ver se
$ P
\x4 0
sy mp
ext end
\x0 5
ug h
sh apeĠ
\x9 7
rai se
\xd b
Ġ ofĠtheĠ
Ch ar
r ate
likel y(
needĠ toĠ
so ci
box e
1 e
scri ptĠ
5 Ġ
\x7 b
stru ctĠ
\x1 e
Error :
per _
L _
Ac tiv
coun tĠ
no te
en viron
.re place
it .
s ',Ġ
\x4 9
\x2 7
inĠ aĠ
Col um
O P
n (
ima geĠ
\x6 9
s l
ĠĠ ifĠ(
\x5 f
re eĠ
\x3 7
\xb 0
n ">
bet we
ĠĠĠĠĠĠĠĠ exceptĠ
\x7 8
\x5 e
mustĠ beĠ
W ith
stat us
Q t
ĠĠĠĠĠĠĠĠĠĠĠĠĠ #Ġ
% sĠ
re cord
</ code>
p erĠ
\x de
.Ġ TheĠ
y )
\xd 9
5 ,
\xf 5
defĠ _
al soĠ
\xe 2
ter m
******** ********
stru ction
dat ab
)Ġ andĠ
sen d
file _
ĠĠĠĠĠĠĠĠ raiseĠ
\xd 2
background -
in form
Ġ=Ġ ((((
\x1 d
3 _
b leĠ
ĠĠĠĠĉa 6
\x9 d
function( )Ġ{
CY THON
n one
feat ures
proto col
dep end
\x1 4
igno re
\x8 3
th at
djang o.
c ab
= (
\xa e
\xb b
Un i
\x7 3
Co mm
Y Y
\xf d
wa y
site -
\xb 7
ct ype
\x4 c
\x3 b
Qu er
di fi
pr int_
\x4 7
sele ct
Ġ* *
a che
å ı
\xb 6
lic ense
ĠĠĠĠĠĠĠĠ varĠ
\x6 f
# 0000
nb sp
char act
\xf 4
execu te
. j
ro id
\x9 b
\x6 c
\xe 1
ed .
\x7 5
wo uldĠ
\x7 1
per i
Respon se
I tĠ
\xb 4
& nbsp
\x9 9
sum mar
3 1
\xd 0
") .
\xd 6
exp ression
\xe 8
} ,Ġ
EN T
.p ng
\x7 2
ho wĠ
\xc 8
tot al_
Ex ample
ty _
time _
this. get
\x0 a
u "
Ġ==Ġ "
de te
&nbsp ;
de v
ro le
\x6 5
float 32
axis =
shuff le
ĠĠĠĠ _
i t_
at ure
width :Ġ
/ us
a pe
\x8 1
Copy rightĠ
\x4 6
c (
\x ab
\x7 7
sh if
\x5 3
c d
\x ba
ate g
\x9 4
\x6 1
None )
D B
con stan
\x0 9
te d_
e ith
\xa 6
< p>
4 6
\x1 a
\x5 7
\x9 5
ang le
9 5
\x6 b
tw oĠ
\xe a
Ver sion
returnĠ {
\x9 2
su reĠ
\x ac
\xe e
re du
\xb 9
/us r/
ser ve
as .
kno wn
( {
We ek
\xc 5
\xd 1
g u
ĠĠ "
M ath
v 2
L E_
\x7 d
\x9 0
y iel
vi ou
ct x
K _
/*Ġ "
sequen ce
du mp
p ">
\x9 8
ti f
Q U
<<<< <<
split ('
it or
<<<<<<<< <<<<<<
L IC
ĠĠĠĠĠĠĠĠĠĠĠĠĠ#Ġ <<<<<<<<<<<<<<
ar dĠ
type ofĠ
8 ,Ġ
E xt
m id
parse _
\x8 6
ĠĠĠĠ: paramĠ
\xb d
min ute
r '
S ER
W AR
\x9 6
\x5 c
C _
caseĠ "
ĠĠĠĠĠĠĠĠĠĠĠĠĠĠĠĠĠĠĠĠ Ġ
Py thonĠ
U M
f on
\x2 3
7 6
pro t.
specifi cĠ
+ Ġ(
logg ing.
\xa 5
do main
"> </
( ?
u ti
ĠĠĠĠĠĠĠĠĠĠĠĠ )
Co m
"Ġ %Ġ
d ra
9 0
\x7 0
> <
\x5 9
module .
\x1 3
ĠĠĠĠĠĠĠĠĠĠĠĠĠĠĠĠĠĠĠĠ ifĠ
GL _
o se
Ġ* ĠĠĠĠĠĠĠĠĠ
alph a
[: ,Ġ
\x8 2
t u
doub le
GL /g
fut ure
\xa 0
\xa 4
S yn
ĠĠĠĠ elifĠ
lib/ python
array ([
- 0
\x3 5
pro x
fe ren
follow ingĠ
s. length
res ultĠ
Wid get
\x ad
ĠĠĠĠĠĠ "
[ 2
g t_
\x2 6
ĠĠĠĠĠĠ returnĠ
o c
F lo
th resh
d on'tĠ
p k
</span >Ġ
AP I
\x1 7
Mul ti
( np.
\x9 1
\xb 1
V ari
\x2 4
data )
ĠĠĠĠĠĠĠĠĠĠĠĠ <
ĠĠĠĠĠĠĠĠĠĠĠĠself. _
ge x
] ]
\xb 2
Op en
ct x.
fin d_
type :Ġ
i ce
pl at
,Ġ _
com ment
site- package
mem ory
c ss
,Ġ theĠ
la stĠ
m al
_C O
distribute dĠ
9 4
coord in
\xc c
d type=
1 ))
time out
clu de
Page .
\xc 4
IN TER
Wait ing
del ta
\xb 5
\x0 d
\xd d
le xt
================ ================
A UL
In teg
ro t
[ 3
\x6 8
() );
true ;
client .
T ag
\x8 b
\xe 6
an ceĠ
los s_
B O
trans late
\xd c
im g_
ing :Ġ
request .
ĠĠĠĠĠĠĠĠĠĠĠĠĠĠĠĠĠĠĠĠ self.
Ġ /Ġ
sĠ asĠ
null ;
\x3 d
b as
} /
s ')
lext .h:
ult ure
A b
\x6 4
\x4 b
\x4 1
Ġ=Ġ newĠ
sĠ=Ġ {
la p
. py
ĠĠĠĠ@ property
\x7 a
ab ili
\xd 5
\x2 8
\x4 3
=True ,
8 2
\x5 8
link Ġ
base _
Ġ ===Ġ
\x8 d
wan tĠtoĠ
JS ON
x 2
\x2 9
9 6
\x2 b
vo cab
l u
oper ator
se c
\x6 d
S ty
Ġ=Ġ tf.
\xc 2
path ,Ġ
\x0 b
DEF AUL
ar r
5 6
Sequen ce
ĠĠĠĠĠĠĠĠ re
Ġ==Ġ 33
\x 12
\x0 8
\xb 8
i ++
sup por
\x6 e
. """
T ":1,"
i ĠinĠ
\x6 6
( t
r and
(self. _
\x5 b
ER _
ro wĠ
mo un
Ġ*Ġ@ returnĠ{
\x2 c
I s
child ren
ĠĠĠĠĠĠĠĠĠĠĠĠ elifĠ
<tdĠ class="
N orm
;Ġ }
po w
G lob
cate gor
id ,Ġ
M in
thro ugh
require d
\x5 1
o wn
\x8 a
C ur
batch _
forĠ (
Mon th
ser vice
We b
\n '
I M
ĉĉĉ ifĠ(
ĉ ĠĠĠĠĠĠĠĠĠĠĠĠĠĠĠĠ
ta x
Type .
po intĠ
le tĠ
ele mentĠ
Re f
sto re
in line
\xa 9
time stamp
fin al_
require ('
qu anti
pol y
1 /
\x5 6
Parameter s
se ed
hand l
S ION
contro l
Waiting Page.
", "
al low
site-package s/
C ulture
mi se
o f_
so li
sli ce
\x4 d
\x4 8
ĠĠĠĠĠĠĠĠ defĠ
metri c
sc re
memb er
sĠ withĠ
ĉĉ "
U B
sĠ=Ġ np.
\x8 9
sa mp
=None ,
ifĠ theĠ
betwe enĠ
:Ġ functionĠ(
A tom
,Ġ b
TO DO
7 2
ch _
"Ġ class="
tran sp
pl an
//// ////
ĉĉĉĉ returnĠ
s ',Ġ'
1 )Ġ
,Ġ butĠ
clas sifi
den tial
ĠĠĠĠĠĠ ifĠ(
reg ion
\x1 5
\x5 d
\x2 d
sen ten
Val id
In i
\x 16
ter min
ĠĠĠĠĉa 80
man ag
ul >
ĠĠĠĠĠĠĠĠĠĠĠĠĠĠĠĠĠĠĠĠĠĠĠĠ ĠĠ
sh or
Ġ=Ġ0 ;Ġ
ite mĠ
Ð °
li ke
\x9 a
ti c
st or
F I
co re.
\x5 a
with outĠ
. 0
R AN
importĠ os
FF FF
<aĠhref=" #
ver bo
ce pt
`` Ġ
A A
com mon
m Ġ=Ġ
toĠ beĠ
cur sor
HT TP
self ).
in stanceĠ
comp lete
\x 10
ri e
ren t
Me m
1 ),Ġ
\x8 5
spac eĠ
4 ,
AT H
W ri
\ s
c tive
% d
Ð µ
"" "Ġ
Te mp
GL/g lext.h:
user Ġ
\x4 a
e ch
3 00
Ġ=Ġ {}
en o
\xc d
u me
row ser
zero s(
W IT
k ,Ġ
dire ction
k .
lig ht
sĠ fromĠ
\x2 5
_in put
\xd 4
ĉĉĉĉ }
5 )
sig -
x 4
,Ġ re
di git
ĠĠĠĠĉa1 7
In Ġ
\xa 1
W or
t ableĠ
\x5 2
n l
Type Error
\x6 2
ord erĠ
vo id
\x2 a
proje ct
G O
S cal
eith erĠ
um Ġ
Ġ=Ġ 1
json .
G etĠ
( d
in it
an im
pre v
( _
an al
be causeĠ
an ch
de g
d ingĠ
ĉĉĉ varĠ
open mt
EN SE
um entĠ
\x5 4
0 )Ġ{
up Ġ
= {
sĠ inĠtheĠ
Q ue
Sy mbol
D ist
log .
le aseĠ
margin -
\ d
A V
s le
an not
sh e
Po int
mat che
\u 00
Cont ent
ge o
t f
Ne w
hidden _state
max (
numpyĠ asĠ
C R
Tran s
ssa geĠ
db .
\x5 5
"> <spanĠclass="
proces s
un likely(
AT TR
sy s
_ key
cle an
x -
st and
. .Ġ
an sw
_ dir
\xa 2
</span>Ġ <spanĠclass="
importĠ numpyĠasĠ
train ing
(x )
ul lĠ
e qual
so cket
s s_
title ="
le ase
s ",
ĠĠĠĠĠĠĠĠ Return
al .
response .
cli ent_
matri x
M ax
l on
In stance
e st
temp l
[ 2]
p d.
Cli ent
\x2 2
H E
ĠĠĠĠ transition
.Ġ IfĠ
le ssĠ
mod uleĠ
ĉ Ġ*/
\x1 1
D ire
ĉĉĉĉĉ returnĠ
importĠnumpyĠasĠ np
in ste
R ai
r st
a w
ver Ġ
plug in
No te
at ingĠ
inĠ self.
__re v
break ;
8 x
:Ġ (
wh atĠ
**kwarg s)
as soci
optim iz
proper tie
ro und
line _
Re ad
\x4 5
re present
D ,Ġ
an n
co pyĠ
line .
rando m_
B lock
"] ,
comp ute
A U
Lo g
Arg s:
\xa a
)Ġ-Ġ -
fi t
__ PY
no deĠ
script >
comp le
ta in
\x5 0
Me th
exce pt
Cre ateĠ
nex t_
F L
\x8 4
r p
13 ;
ĠĠĠĠĠĠĠĠĠĠĠĠĠĠĠĠĠĠĠĠ "
size of
out .
gener ator
" ):
- b
comp ile
=False ,Ġ
y si
re adĠ
C Ġ
9 7
cv 2.
font -
type ,Ġ
e q
{ {Ġ
il l
Len gth
P ri
Se eĠ
dĠ theĠ
value Ġ=Ġ
rando m
date time.
code _
å Ī
coun ter
M _
pre viou
2 1
ĉĉ },
ge st
se d
Bu ff
li second
'] ['
__webpack_require __(
__PY X_
G P
doesĠ notĠ
ĠĠĠĠĠĠĠĠĠĠĠĠ ifĠ(
Ġ*Ġ a
di stance
1,Ġ 1,Ġ
ĉ /**
s ":Ġ
embed ding
p attern
( x,Ġ
s with
\x8 8
Tran sition
<tdĠclass=" col-
al read
Vie w.
for _
Clas s
Y ear
String (
so me
and roid
Atom icĠ
8 22
= [
ser v
con so
\xa 8
)Ġ >Ġ
ĠĠĠĠĠĠĠĠ proc.
conver t_
u d
fir st_
Mon itor
[ key
p pe
ini ti
mer ge
github .com/
"Ġ />
F O
ti vi
defĠ get_
imp le
n ,Ġ
[ Ġ
ca st
return sĠ
text /
1 ">
ĠĠĠĠĉa 3
+Ġ '
Out put
thro wĠ
parser.add_argument ('
wrap per
emp ty
Res ult
pi xel
con stra
IĠ haveĠ
e _
Ð ¾
Te stĠ
gra di
ĠĠĠĠĠĠĠĠreturnĠ self._
applic ation
buil d_
p Ġ=Ġ
ofĠ aĠ
(( a
close ()
\x2 1
result .
In t
ĠĠĠĠĉa1 4
)) ,
ch unk
"Ġ data-
A ction
"] )
dro po
DE CREF
fol der
p ie
re ce
7/ site-packages/
( )Ġ{
Ġ* ĠĠĠĠĠĠĠĠĠĠĠĠĠ
s n
main __
__ s
R A
1_ error
tot al
i )
æ ķ
disp la
}ĠelseĠ ifĠ(
To on
sour ce_
event .
__ main__
frame work
</ tr>
asĠ aĠ
al t
ĠĠĠĠifĠ notĠ
ĠĠĠĠ Return
G _
b '
2 );
fini sh
dire ct
util .
hand ler
undefine d
4 )
-------------------------------- --------------------------------
: 00
Err orĠ
\x6 a
x )
name space
co re
st ateĠ
. length
G C
\x4 4
ho ok
---- -
con cat
ch ang
ba seĠ
at ta
__pyx_L 1_error
be enĠ
k it
norm alize
pro vid
Lo cation
Man ag
yiel dĠ
bu f.
lo ss
default =
class :`
run _
- 1,Ġ
s v
soli dĠ
de d_
ori ent
(( (a
ch eĠ
Sty le
True )
lib r
æ ľ
P a
object ):
syste m
state .
sk ip
se ar
l r
bu tion
help ='
ro l
spe c
make _
n or
G e
7 .
T uple
F e
W eĠ
tĠ theĠ
N N
sol ution
Optional [
dri ver
btn -
( value
low er
o vl
# ĠĠĠĠĠ
f ,Ġ
ation sĠ
size =
à ¤
ovl dĠ
VER SION
enumer ate(
gri d
Con ne
w in
specifi edĠ
License .
'Ġ %Ġ(
__ (self,Ġ
map p
wor dĠ
an el
KE Y
ĠĠĠĠĠĠĠĠĠĠĠĠĠĠĠĠ else:
ĠĠĠĠĠĠĠĠĠĠĠĠ return
h ol
Ch at
// /
fo re
seri aliz
the yĠ
k Ġ
ev entĠ
ĠĠĠĠĠĠĠĠ assert_
p atch
u sh
\x4 2
8 Ġ
m y_
o w
MatchMaker Activ
traffi c_
ĠĠ '
MatchMaker Monitor
logg ing
li m
V e
g t
bin /
ĠĠĠĠĠĠĠĠĠĠĠĠĠĠĠĠĠĠĠĠĠĠĠĠ Ġ
as on
AT ION
for m_
x ĠinĠ
sq r
D is
Glob al
date time
( 1)
f Ġ=Ġ
ic _
En d
contain er
g ui
text -
lib/python 3.
U til
0 )Ġ
8 1
.. ..
) {
A v
n Ġ=Ġ
A RE
. is
path Ġ=Ġ
vi sion
25 5,Ġ
mo difi
se par
5 2
MatchMakerActiv ation.
MatchMakerMonitor ing.
vi ceĠ
ĠĠĠĠĠĠĠĠĠĠĠĠĠĠĠĠ ĠĠĠĠĠĠĠ
_ m
indi ce
ation (
8 3
asyn cĠ
er t
: ,Ġ
str ong
def ini
Par am
. prototype
---- ---
qu ire
k enĠ
TE ST
cl ar
pxĠ solidĠ
de sk
S a
Error (
T T
ĉĉĉĉ ĉĉĉ
stri ct
C E
Fiel d(
Ġ +=Ġ
to on
identi fi
en c
vie w_
< codeĠ
sĠ ==Ġ
__ (self):
m 2
hel per
),Ġ (
s_ to_
DEFAUL T_
dataset .
) ):
a a
g h
ĠĠĠĠ' ''
f :
avail able
me ssageĠ
remove d
si deĠ
0- 9
sum (
expecte d_
X ,Ġ
pre di
RE S
ren der
=False ,
ab sol
ifĠ __name__
:Ġ int
I B
F orm
Mem ory
'] .
differen tĠ
lo a
u alĠ
ra ine
\n "
type (
dep th
config ur
we igh
U TĠ
1 16
Ġ withĠ
ter (
i p_
ĠĠ __ret
T ION
ĉ Ġ*Ġ@returnĠ{
len (self.
Gra ph
fo und
ma g
ä »
er s.
ci r
write ("
____ ____
M IT
con stru
de x_
s ched
ingĠ aĠ
ĉĉ varĠ
f et
Cli ck
M a
yp eĠ
over ri
c atch
m -
d f.
5 00
,Ġ (
ĠĠĠĠĠĠĠĠ (
name =
com /
imp lement
quer y_
produ ct
Data set
wid get
wh ite
back end
R el
Ġ >=Ġ
E SĠ
[ -1]
Ġ=Ġ 12;
Math .
AN YĠ
bin d
non -
logger. info
ab o
verbo se
thatĠ theĠ
proces s_
ĠĠĠĠĉa1 6
g .Ġ
< li>
C D
],Ġ [
ĠĠĠĠĠĠĠĠ x
int 32
Ð ½
// /Ġ
align ='
ph p
M S
block Ġ
</span><spanĠclass=" p">
do es
25 5
er ().
Off set
/ home
ci sion
un d_
path )
LIC ENSE
ite m.
Arg ument
obj :`
===Ġ '
d erĠ
bo ard
wa yĠ
ĠĠĠĠĠĠ varĠ
False )
" )Ġ
i++ )Ġ{
ĠĠĠĠĠĠĠĠ //Ġ
app l
s= [
co e
atĠ theĠ
inter val
fromĠ symp
pre fi
data [
Ġ==Ġ 32
) /
uni que
base dĠ
cri pt
f nĠ
ĠĠĠĠ} );
N ameĠ
sw itch
ol d_
IZ E
"Ġ title="
https:// github.com/
2 34
(c c_
ver ti
St ream
ĠĠĠĠĠĠĠĠ assert.equal(
ea ch
si bleĠ
Vari able
c am
st do
this ;
line ar
ĠĠĠĠĠĠĠĠĠĠĠĠĠĠĠĠ forĠ
"Ġ %Ġ(
at t
https:// www.
1 -
s orĠ
Ġ !=Ġ
label _
param s.
arra y_
"Ġ inĠ
O ver
6 .
s) ,Ġ
9 8
ter .
uti li
cl s.
mo deĠ
sĠ=Ġ {}
data ['
proper tyĠ
ĠĠĠĠĠĠĠĠ pass
sc roll
H el
m ut
: obj:`
ĠinĠ theĠ
9 2
api .
y am
.Ġ ThisĠ
T ,Ġ
# if
defini tion
- *
qu are
ĠĠĠĠ try:
tr ueĠ
ĠĠĠĠĠĠĠĠ _
it 'sĠ
H :
gener ate
P i
c ationĠ
ĠĠĠĠĠĠĠĠĠĠĠĠĠĠĠĠ }
cf ==
= 0
9 ,Ġ
b b
utt onĠ
] +
to day
itĠ isĠ
save _
ĠĠĠĠ-------- --
ĠĠ .
in vo
sc ape
statu s_
\ 7
co uldĠ
coordin ate
ĉfĉf ĉfĉf
: 3
1 20
C lo
x sd
ĠĠĠĠĉa1 8
ac c
er i
ma inĠ
âĢ ¢
tor ch
alread yĠ
| |
so ftwa
libcity. model.
** Ġ
Flo at
â Ķ
youĠ canĠ
s[i ]
ĉĉĉĉ caseĠ"
mat plot
ST AT
plo t_
(f "
ro ute
T im
C F
id Ġ=Ġ
10 .
ĠĠĠĠ Ġ*Ġ@
+Ġ "
"] Ġ=Ġ
glob alĠ
Wid th
:Ġ TheĠ
ĠĠĠĠĠĠĠĠĠĠĠĠĠĠĠĠĠĠĠĠĠĠĠĠ ĠĠĠ
v .
wa it
u sĠ
datab ase
Cre ate
St ar
la ck
Po sition
Rai se
:Ġ 0;
Lo ad
s ")
d ash
E M
re pe
data /
ator (
ent er
down load
su ffi
cf g
n ullĠ
Date. Culture
has _
on ly
Comp onent
O K
whe re
Transition (
example .com
lo wĠ
quest ion
ech oĠ
th en
gor ith
sizeof (
)Ġ%Ġ 14
čĊčĊ čĊ
sing leĠ
del Ġ
model Ġ=Ġ
d :
æķ °
object .
Se con
A ST
(self )
A SĠ
In struction
Comm and
ĠĠĠĠĠĠĠĠĠĠĠĠĠĠĠĠĠĠĠĠ '
py _
ĠĠĠĠ }Ġ
sĠ ifĠ
"Ġ >
)Ġ{ Ġ
A ll
map (
VAL U
m lĠ
p ,Ġ
ation ,Ġ
po int_
PO INTER
Pro to
valid ate
vi g
</ h
# includeĠ
E qual
ĉĉ //Ġ
reg i
con f
TE X
ĉĉ ifĠ(
S ource
s.append( fac.
ĠĠĠĠtransition s.append(fac.
Transition( st_
ĠĠĠĠtransitions.append(fac. Transition(st_
glob al_
M y
i Ġ=Ġ
S chema
3 );
x y
or iz
x :Ġ
format Ġ
: class:`
o seĠ
ĠĠĠĠ (
l lĠ
value .
q _
H t
plo t(
* args,Ġ
D ateĠ
ut or
d uration
size _tĠ
HT ML
: ]
quo te
e :
Bo x
C u
sen d_
2 12
b ,Ġ
ve _
WAR RAN
cr yp
y :
no _
AB LE
( 0)
1 1,Ġ
user name
ĠĠĠĠĠĠĠĠsup er(
plat form
log it
G I
ation s
Ġ+Ġ '
border- bottom
at trib
l ab
\ "
si st
po s_
encod er_
/home /
lay er_
ĠĠĠĠ} ,
und er
sr c_
key word
type ='
ofĠ thisĠ
I E
__ret ;
G o
< !
valid _
pro gres
T ypeĠ
cre dential
nex tĠ
b rowser
)Ġ+Ġ -
Un ion
gra d
W ar
ter _
o bject_
t )
B ack
d raw
0. 0,Ġ
height :Ġ
desk top
2 /
{} ".format(
wor d_
use dĠtoĠ
ĠĠĠĠĠĠĠĠ },
p (
base .
for ward
[0] )
GE T
am ma
-* -Ġ
h it
IN Ġ
suc ces
r l
long Ġ
ĠĠĠĠĠĠĠĠ buf.
I' mĠ
update (
_C ON
Tra ck
= 1,Ġ
Ġ=Ġ torch.
< td>
cu da
pay load
tar getĠ
en g
% (
sele ction
U D
T ask
float (
% ;
is s
element .
she et
cl s,Ġ
bo olean
å ħ
langu ageĠ
s '
80 7
Do c
S O
=>Ġ {
Ġ=Ġ0;Ġ iĠ<Ġ
openmt c-
sq l
LO G
go toĠ
future __
__ future__
file ,Ġ
n ing_
cod ing:Ġ
fiel d_
removed @
-- >
L ink
ab s(
( $
so ck
True ,Ġ
the seĠ
I mple
ĠĠĠĠĠĠĠĠĠĠĠĠĠĠĠĠĠĠĠĠ #Ġ
b Ġ=Ġ
Di sp
Ð ¸
tra ce
error _
X Ġ
si mple
æ ĸ
mem or
pre d
mini m
{ 0
val _
em >
iz eĠ
sample _
ĠĠĠĠĠĠĠĠ' ''
fromĠ __future__
EX T
de velo
an _
[0] .
referen ce
write _
C P
fromĠ__future__ ĠimportĠ
do m
POINTER (
time. time
contro ll
pro gra
seq _
6 14
y ou
Do wn
e mĠ
Mat ri
le a
res our
ex portĠ
14 ;
sa ction
! !
ĠĠĠĠĠĠĠĠĠĠĠĠĠĠĠĠĠĠĠĠĠĠĠĠĠĠĠĠ Ġ
arg s
D D
notĠ beĠ
type _
d le
Ini tial
st .
n i
ĠĠĠĠĠĠĠĠĠĠĠĠ #
IĠ amĠ
( re
S H
a mpleĠ
__ m
self). __init__
FL AG
g pu
except :
ĉĉĉĉ ĉĉĉĉ
fa ile
ir Ġ
ĠĠĠĠĠĠĠĠ return
cte d_
coun t_
ĠĠĠĠ re
scre en
ĠĠĠĠĠĠĠĠ TheĠ
f r
S ta
ro w_
ly ph
,Ġ 0x
EN T_
ke e
ĠĠĠĠ} ;
ĠĠĠĠ fromĠ
url ,Ġ
go og
stdo ut
ati o
Th read
qu ot
h er
Ġ=Ġ get_
sĠ +Ġ
h i
Ñ Ĥ
k i
float ,Ġ
static /
L ev
w er
num er
p g
P l
i o.
s() )
Con ver
self. __
vie w.
_S H
cl one
D F
sin ceĠ
order ="
b y_
Ġ=Ġ 2;
( input
Ad dĠ
sa ge
</ ul>
at che
a Ġ=Ġ
===Ġ "
d ur
U seĠ
nump y.
b ran
sle ep
p res
N V
ĠĠĠĠ {
Hand l
th eta
ĠĠĠĠĠĠĠĠĠĠĠĠifĠ notĠ
â ĸ
anch or
0 _
List [
)) )Ġ{
Mo de
wri teĠ
erĠ ofĠ
api _
me as
director y
Fa ctor
ĠĠĠĠĠĠĠĠ print("
push (
ĉ $P
S Q
glob al
ab outĠ
li ter
help ="
d f_
calcul ate_
"> <
NULL ;
ĠĠĠĠ Ġ*
<tdĠclass="col- desktop
FF '>
scri be
img Ġ
ovldĠ __
parser.add_argument(' --
:Ġ `
v 8
do _
ok ie
fac. Update
Instruction (cc_
fac.Update Instruction(cc_
setting s.
allĠ theĠ
to gg
{ }Ġ
ĠĠĠĠĠĠĠĠĠĠĠĠĠĠĠĠĠĠĠĠĠĠĠĠĠĠĠĠ ĠĠĠ
s ame
ver age
conten tĠ
4 2
OR M
* -
prediction .
tifi cation
Al lĠ
__PYX_ ERR
de re
Ser ver
value )
ç Ķ
pret raine
M as
I V
ti es
be st_
conne ct
&&Ġ !
proces s.
arg v
distri bution
TO Ġ
:Ġ true
ĠĠĠĠĠĠĠĠĠĠĠĠ varĠ
the me
Lev el
self ,Ġ
j av
_t )
':Ġ [
Ch ange
s) .
he reĠ
Se tĠ
mat chĠ
S ho
Lo gg
fiel d.
#Ġ -*-Ġ
f er
B AS
lib/python3. 7/site-packages/
n an
men ted
ĠĠ defĠ
class method
local e
TH EĠ
rel ="
T W
å Ĳ
fra ppe
* )
coding:Ġ utf-8
C C
assert Equal(
th er
p tr
absol ute
ex c
par seĠ
Ġ=Ġ this.
C an
] ).
run Ġ
ite m_
up _
OR _
- 1)
ĉ#Ġ GL/glext.h:
i x
00 ;
An d
ran k
= 1
M ain
r ation
au di
ph ase
Py thon
ffi ci
å ®
No Ġ
B atch
does n'tĠ
t >
th ingĠ
ap ache
ur lĠ
H our
priv ate
d -
windo w.
__Pyx_ Py
Ġ- *-
arg sĠ=Ġ
ev ent_
Pro p
the mĠ
al gorith
obj ,Ġ
id )
Re quire
comm andĠ
up dateĠ
ĠĠĠĠ exceptĠ
Test Case
84 0
0000 0000
wor ld
charact er
Colum n
cor respon
cn fnĠ
ovldĠ__ cnfnĠ
# !
width ="
senten ce
no tif
andĠ theĠ
so meth
ĠĠĠĠĉa1 87
no t_
O D
Meth od
expecte d
+ -
I _
5 3
target ="
colum nĠ
U RE
8 .
[1] ,Ġ
po st_
p end
r ,Ġ
ValueError ("
Imp ort
ĠĠĠĠ ('
6 Ġ
&# 822
<div Ġ
samp l
t x
v is
for war
ad dition
e t_
at ter
removed@ example.com
ĠĠĠĠĠĠĠĠĠĠĠĠifĠ self.
arg s)
0,Ġ '
Ġ&&Ġ( a
( e
state _
ator .
Bu il
en ce
reque st_
2 *
pre d_
bo ot
Str ingĠ
po inter
suc cess
E V
ren d
nd array
re pr
at ar
al o
s ",Ġ
ke ep
db _
week day
g lyph
P as
shuffle vector
Ġ=Ġ get
re shape
caseĠ '
f yĠ
value sĠ
S D
xĠ +Ġ
f c
R .
Wh enĠ
$ (
ĠĠĠ <aĠhref="#
). to
ment .
)Ġ%Ġ14 999
_ SE
__builtin_ shufflevector
ax .
St and
IT ION
de le
2 )Ġ
fin dĠ
model ,Ġ
DAT A
resol ve
ĠĠĠĠ __
---------------------------------------------------------------- --------
Ġ &#822
6; ĠĠĠ<aĠhref="#
Ġ&#822 6;ĠĠĠ<aĠhref="#
\ b
~~ ~~
no wĠ
-2 14
WARRAN TI
Ser vice
tĠ inĠ
ĠĠ #
_ L
norm al
Ñ Ģ
;Ġ i++)Ġ{
ĠĠĠĠ functionĠ
calle dĠ
i mat
s "
ar ange
ĠĠĠĠĠĠĠĠĠĠĠĠ try:
(__ p
20 15
max im
j ava
tri gg
R ange
al way
<liĠclass="toctree-l 1">
EN D
n x.
f '
in_ channel
ta .
å ¤
Fil ter
doub leĠ
iss ue
cur ac
T ":Ġ"
gradi ent
C y
data set_
sĠ -Ġ
[ [
pri mar
check Ġ
ti esĠ
ĠĠĠĠĠĠĠĠĠĠĠĠĠĠĠĠ raiseĠ
&nbsp; </td>
8 00
\ .
ĠĠĠĠ if
imp li
ci ph
name (
By te
U se
Py Long
;Ġ \
util sĠimportĠ
vi ce_
ast ro
import ant
TYP E
data_ format
y e
c pu
b Ġ
% dĠ
- web
. add
pa geĠ
# ĠĠĠĠ
er ):
Name (
m k
Wor k
b uttonĠ
fiel dĠ
a moun
To Ġ
Pro du
10 6
object s.
p and
I R
sp ar
ma in_
d r
ĠĠĠĠ -214
c /
fo undĠ
âĢ¢ âĢ¢
scope .
wi seĠ
O B
ifĠ notĠ
LO C
i fi
ad min
kit -
conten t_
ĠĠĠĠĠĠĠĠ fac.UpdateInstruction(cc_
sĠtoĠ theĠ
G R
' )Ġ{
secon dĠ
M eta
$D .
sĠ=Ġ ['
E le
director yĠ
Ġ P
start swith
corre ct
di sc
multip leĠ
en di
defĠ __
/* !
export s.
withĠ aĠ
Sequence [
ing ,Ġ
time zone
ableĠ toĠ
ĠĠĠĠ< t
1Ġ -Ġ
quer yĠ
f ri
can v
Net work
su chĠ
importĠ sys
O bj
reque stĠ
be gin
class __
user .
sĠ +=Ġ
in dex_
Temp late
sĠ isĠ
size ,Ġ
W _
Object .
_b lock
(self )Ġ->Ġ
$ ('
ne ed
ĠinĠ self.
wi se
call Ġ
#Ġ CopyrightĠ
I den
f ree
lay out
yn am
( 0.
data setĠ
lo t
conso le.
__pyx_L1_error )
E di
ĉ }
ĠĠĠĠĠĠ //Ġ
que e
b eta
vi sible
ifĠ( unlikely(
ver if
Par se
0 5
theĠ "
str ateg
w r
ma p_
h r
z _
ĉ Ġ*
comp o
ĠĠ {
spli t(
29 8
1,Ġ 2,Ġ
),Ġ '
iz er.
Tr ueĠ
loc alĠ
w ,Ġ
J o
+ "
A x
1 }
Dist ri
sequen ce_
re ct
(' /
ast ype
D ER
stra ct
Pro ces
.get (
lamb da
min (
Ġ=Ġ 1;
10 7
ex por
Ġ=Ġ 13;
Data Frame
Call back
g amma
M od
pre pa
0 3
' reĠ
V ar
befo re
coding:Ġutf-8 Ġ-*-
c b
"Ġ id="
=False ):
res ult_
se g
<liĠclass="toctree-l1"> <aĠclass="referenceĠinternal"Ġhref="
PyObjectĠ* __pyx_
ĉ Ġ*Ġ@paramĠ{
ob ta
eval _
wa it_
am il
h ex
2 ))
par tĠ
sĠ :Ġ
Syste m
s ?
ĠtoĠ theĠ
"></ script>
2 87
po lic
ĠĠĠĠ p
è ¿
T op
v ,Ġ
s_ list
ff ff
! important
Ve ctor
bod yĠ
log (
Au to
er )
Trans form
bu f
pipe line
A pa
imgĠ src="
b ad
b ig
(__ m
inste adĠ
2 Ġ*Ġ
ex peri
. e
J ob
y :Ġ
item s():
lef tĠ
form -
value s
ju st
ĠĠĠĠĠĠĠĠ d
.re move
O S
bi as
node _
fromĠsymp y.
de pre
Ġ* Ġ(
, '
Tex t(
Con tain
raise s(
Cu sto
STR ING
al seĠ
ran geĠ
R an
#Ġ-*-Ġ coding:Ġutf-8Ġ-*-
x x
s sion
_M A
action Ġ
ĠĠĠĠĉa1 67
Bo olean
ag g
fon tĠ
# else
ĠĠĠĠĠĠĠĠĠĠĠĠĠĠĠĠĠĠĠĠĠĠĠĠĠĠĠĠ ĠĠ
si mp
Cont roll
vide o
fa ceĠ
message .
na vig
static method
context .
printĠ "
ĠĠĠĠĉa1 2
log in
)ĠasĠ f:
3 ]
sho ul
cu be
.get ("
comp are
t v
' }
vari ableĠ
x4 _tĠ
height ="
4 00
toĠ useĠ
cap tion
34 5
config _
a iĠ
f lex
. name
te d(
mo veĠ
emp tyĠ
regi str
ĉĉ self.
ĠĠĠĠĉa1 99
p t_
CON D
7 32
type=" text/
App lic
u _
ord in
templ ateĠ
_name ,Ġ
paren t_
pre ">
bi li
cf g.
pri ce
Add res
Cont rol
A -
weigh t_
tuple (
ĠisĠnotĠ None:
sor t
P _
0 6
ĠĠĠĠĉa1 88
sĠ onĠ
15 ;
di ctĠ
b ro
sequen ceĠ
Lay out
Ġ=Ġ int(
2 24
kernel _size
vol ume
dĠ underĠtheĠ
version Ġ
gener ate_
re verse
F in
url _
ra w_
up per
Po ol
è ¯
" +
sele ctĠ
"Ġ alt
batch_size ,Ġ
dim =
ĠisĠ None:
A p
input_ id
O wn
h :
Ġ aĠ
um b
mark .
re sp
vie wĠ
link _
WARRANTI ESĠ
fig ure
ASĠ IS
1Ġ +Ġ
S C
AD D
sho w_
forĠ( varĠ
cf Ġ=Ġ0;
sup er
[ j
Ar ti
AC K
fromĠ django.
@ pytest.
-web kit-
newĠ Date
Se ssion
a mp
tivi ty
Se eĠtheĠ
ĉt ĉfĉfĉfĉf
ERR OR
sqr t(
d ge
c md
tool s.
( object):
o ">
re al
arg umentĠ
hol der
ĉĉĉĉ ifĠ(
True :
chang eĠ
mil lisecond
strong >
ord er_
)Ġ/Ġ 5
int 64
(this ,Ġ
K IN
* /Ġ
s sh
the irĠ
. txt
P ATH
mock _
Ar ra
ĠĠĠĠĠĠĠĠ f
col Ġ
wri ter
A nĠ
ĉ ĠĠĠĠĠĠĠĠĠĠĠĠĠĠĠĠĠĠĠĠ
M ar
text >
de ci
Mo ck
Union [
path _
Scal e
wa re
f (
to pĠ
ic ro
A ,Ġ
ĠĠĠĠ plt.
ĠĠĠĠ@ classmethod
parser .
Secon d
Apa cheĠ
image .
u uid
ĠĠĠĠ print("
( __pyx_
anal ysi
forĠ aĠ
10 )
## #
custo m
P AR
feren ce
up leĠ
asĠ theĠ
fa -
dropo ut
An y
rel ative
ction Ġ
math .
col le
bg color='
d t
th ing
M en
ĉĉ this.
ingĠ importĠ
quee ze
#0000 00;
L T
ĠĠĠĠ TheĠ
index ,Ġ
ffe ct
Name .
( 0
display :Ġ
( this.
ac count
L ex
as sign
inform ationĠ
æ ĺ
") ,Ġ
WIT HO
bar -
sco res
name _
useĠ thisĠ
âĶ Ģ
style=" border-bottom
- 0.
ar d_
h ,Ġ
de ep
4 );
AP IĠ
ap pro
pxĠsolidĠ #000000;
:Ġ bool
mo stĠ
L ang
ou se
ar y_
vi si
0 2
pla ceĠ
li p
de cor
ateĠ theĠ
layer s.
priv ateĠ
T F
response Ġ=Ġ
8 20
:3 pxĠsolidĠ#000000;
style="border-bottom :3pxĠsolidĠ#000000;
Inter val
af ter
r c
yy yy
!important ;
& quot
2 17
po se
a ir
ĠĠĠĠĉa1 3
co okie
con v_
_b l
ĠĠĠĠĉa 30
drop down
S A
st ,Ġ
He ad
To ol
" ASĠIS
sa fe
T ar
Fun c
N _
g Ġ
ã Ģ
comp on
set_ input_
field -
remo veĠ
[ 0,Ġ
python /
RE AD
ĠĠĠĠĉa1 12
throwĠ newĠ
,Ġ GL
] );
pro mp
S te
path Ġ
ax e
initial ize
ĠĠĠĠ Parameters
d ar
s ('
\3 \2\2
2 84
inputĠ ==Ġ
scal ar
);Ġ ifĠ(unlikely(
stor age
je ct
i =
/usr/ bin/
attrib uteĠ
F RO
je ctor
20 4
file )
rg ba
spli t_
constra int
c ard
i di
Not Imple
ĠĠĠĠĠĠĠĠĠĠĠĠ (
y =
R ight
iz ation
roo tĠ
Key word
alle l
ac curac
V i
View. Memory
r Ġ
libcity.model. traffic_
to wn
ĠĠĠĠĠĠĠĠĠĠĠĠĠĠĠĠĠĠĠĠĠĠĠĠĠĠĠĠĠĠĠĠ Ġ
call (
Exception ĠasĠ
&quot ;
at _
20 ,Ġ
st der
nameĠ inĠ
Numb erĠofĠ
Z one
C al
ti alĠ
&# x
name .
exp res
Fo und
radi us
# ĠĠĠ
St art
Line ar
Val ueĠ
ã ģ
pre cision
[] ,Ġ
SE LE
Hand ler
N S
us ingĠtheĠ
info .
False ,Ġ
A IN
s ur
comp li
Coun t
Li stĠ
< T
o prot.
s ">
re lease
erĠ importĠ
meas ure
to kenĠ
/*! <Ġ
width ,Ġ
W E
GO T
1 ĠĠ
train ingĠ
ĠĠĠĠĉ cfĠ=Ġ0;
return edĠ
! Ġ
9 34
struct ure
NotImple mented
i a
ĠĠĠĠĠĠĠĠ whileĠ
Version Ġ
N a
ä º
"Ġalt ="
left :Ġ
2,Ġ 1,Ġ
trans l
frappe .
12 ,Ġ
al k
py thonĠ
GOT REF
h ide
file (
sup port
kno wĠ
ing (
1 )Ġ{
ol dĠ
_ string
g r
A Y
"" )
0 'Ġ
ThisĠ isĠ
li mi
H: mm
co g
PO ST
re a
server _
ĠĠĠĠĠĠĠĠĠĠĠĠ assertĠ
g ory
tr u
20 17
" )Ġ{
activ ation
constan t
i Ġ=Ġ0;ĠiĠ<Ġ
ar row
sel fĠ
config uration
out_ channel
theĠ sameĠ
flo atĠ
i prot.
sp h
off setĠ
sĠtoĠ beĠ
sc en
local _
s( )Ġ
sh ip
ex ampleĠ
Error ("
TH ER
size :Ġ
bool Ġ
"Ġ width="
3 :
w el
cate gory
R a
moment ([
flo wĠ
en ci
OR T
r t
lin eno
ĠĠĠĠĠĠĠĠproc. set_input_
Ñ ģ
Se arch
à ¸
TODO :Ġ
{ {
. is_
D a
ad ap
char Ġ*
propertie s.
} "
. value
v en
Me mb
1e -
|Ġ :
P C
ĠĠĠĠ this.
ĠĠĠĠĠĠĠĠifĠ isinstance(
s/ openmtc-
o me
url Ġ=Ġ
ever yĠ
MM MM
u tĠ
4 Ġ=Ġ
ĠĠĠĠĠĠĠĠsup er().
100 0
un itĠ
exist s(
s g
sh ad
War ning
f p
S up
Y ,Ġ
sc an
bl ue
integ er
'] :
< imgĠsrc="
P leaseĠ
( u
Ġ thatĠ
"] ,Ġ
ci ty
s queeze
c )
sĠ anĠ
n n
ĠĠĠĠĠĠĠĠĠĠĠĠĠĠĠĠĠĠĠĠĠĠĠĠĠĠĠĠĠĠĠĠ ĠĠ
haveĠ aĠ
` ĠisĠ
in eĠ
oriz ont
erĠ thanĠ
s.get ('
NoneĠ andĠ
8 _tĠ
WITHO UTĠ
seri alize
ne e
x2 _tĠ
P ol
N UM
sele ctor
so ft
ĠĠĠĠĉa 86
ĠĠĠĠĠĠĠĠ: return
G B
norm aliz
So ftwa
ĉĉĉ this.
W OR
at ing
cho ice
\3 \u0
Ġ* ĠĠĠĠĠĠĠĠĠĠĠĠĠĠĠĠĠ
ĠĠĠĠĠĠĠĠ r
b or
i Ġ+Ġ
filter (
w y-
1 33
con tri
ST AR
l st
ne t_
Ro w
') ,Ġ'
y ()
AL L
v Ġ=Ġ
z z
ĠĠĠĠ@ staticmethod
sear chĠ
sĠ=Ġ (
dir (
. js
origin alĠ
E mp
s che
{} '.format(
M LĠ
TYP E_
ĠĠĠĠ constĠ
month Ġ
size Ġ=Ġ
attention _mask
PyO bject_
di ce
IN SER
cli p
feature _
10 Ġ
: ,
+ '
nl p.
sty leĠ
Qu o
A I
col lap
æ į
sto re_
unit test.
l y_
8 )
ĠĠĠĠĠĠĠĠĠĠĠĠ exceptĠ
in ner
* (
6 22
ful lĠ
3 -
div id
in f
2 D
P R
U SE
_in _
env Ġ
Sequen tial
w ho
c defĠ
s. ĠĠ
4 _
ĠĠĠĠĠĠĠĠ Ġ'
z o
B ar
)Ġ !=Ġ
act u
:Ġ [
he ightĠ
En cod
sig ma
20 18
li t
width =
be ingĠ
jav as
+- +-
Se q
copyĠ ofĠtheĠ
AT E
ĠĠĠĠĠĠĠĠĠĠ '
ou gh
Ġ=Ġ functionĠ()Ġ{
Ġ=Ġ require('
18 7
expecte dĠ
d up
impor t_
value )Ġ{
date _
e scape
`,Ġ `
ĉ ĠĠ
mask _
rel ation
] ['
var _
View ":
no i
mat ch.
/*Ġ" View.Memory
/*Ġ"View.Memory View":
in lineĠ
# ĠĠ
j Quer
"Ġ height="
.. .Ġ
id =
shif t
mas ke
Matri x
[ k
comp res
linkĠ rel="
He ader
6 1
getĠ theĠ
l ar
_name )
( data
SE T
ker as.
IN T
iter ator
',Ġ type=
ac cept
F IG
1. 0,Ġ
pri or
(c )Ġ
entr y
0 /
line -
_in put_
_id ,Ġ
for ce
name ":Ġ"
one _
diction aryĠ
AR B
f req
fromĠ py
s. """
syn c
3 14
e. g.Ġ
nav -
:Ġ string
h old
gra d_
result s/
ĠĠĠĠĠĠĠĠĠĠĠĠĠĠĠĠ )
softwa re
ho ver
_bl ank
fl uid
appl y(
sĠ and
ch ain
ag ain
AN DĠ
list ,Ġ
2 (
Di alog
" },
s ",Ġ"
sto reĠ
S to
_id x
\n ')
\n ")
< h
b box_
fl ush
NO TĠ
L U
dĠtoĠ theĠ
de lay
toĠ aĠ
m g
clu ster
script or
P FN
bo thĠ
Po lic
null ,Ġ
_ RE
position :Ġ
pub lic
thresh old
)Ġ ?Ġ
Doc ument
ĠĠĠĠĠĠĠĠ p
de _
ne igh
6 ,
con text_
sh in
G U
ĠĠĠĠ [
time Ġ=Ġ
se gment
)Ġ inĠ
thisĠ isĠ
__ Ġ=Ġ
mi x
ON G
t z
list .
ĠĠ background-
output .
KIN D,Ġ
printĠ '
Qt Widget
name ,
} ")
ag ree
er -
v ĠinĠ
wri ting
ha vi
ĉ __
st ic
repe at
Py_ s
E ST
p ng
uni code
find ('
ĠĠĠĠĉa1 54
# ifĠ
ĠĠĠĠĉa1 75
go o
ag ent
avail ableĠ
token _
:Ġ %s
Date.Culture Info
C ap
Con v2
head erĠ
Pro mise
ĠĠ |
ĠĠĠĠĠĠĠĠĠĠĠĠ Ġ'
load (
SĠ OFĠ
De vice
fra meĠ
L a
ĠĠĠĠ r
ĠĠĠĠĉa 69
/ Ġ(
php ?
n dim
ationĠ ofĠ
pro te
'] [
R ule
[: ,
er s
abo veĠ
mar ker
go ver
Ht tp
sor ted(
st age
per form
corre ctĠ
Time out
Stat us
ann y
_C H
</ em>
IF T
rel u
return _
log ic
Ref N
16 5
DECREF (__pyx_t_
ĠĠĠĠĠĠĠĠifĠ len(
typeĠ ==Ġ
(f '
app _
dĠbyĠ theĠ
a /
S c
colum n_
I MP
si mul
ht mlĠ
s() ,Ġ
Conne ction
plo tĠ
s quare
use d
cr y
annot ation
add r
spe ct
xt ure
U rl
Exp ression
l Ġ=Ġ
sup portĠ
asyncĠ defĠ
ĠĠĠĠĠĠĠĠĠĠĠĠĠĠĠĠĠĠĠĠ returnĠ
He ight
ĠĠĠĠĠĠĠĠ} );
[ 1:
32 4
YouĠ mayĠ
pro file
. join(
ĠĠĠĠĠĠĠĠ ('
IN TOĠ
gen _
license s/
[ 4
comm it
Hand le
INSER TĠ
aĠ newĠ
X X
cy cle
dir ,Ġ
split ("
c p
useĠ theĠ
uint 32
b "
Ġ=Ġ os.path.join(
final_ update
P r
Â ł
oth er.
search _
TI ME
W H
G G
Re source
su it
w atch
en _
bgcolor=' #0000
de red
#! /usr/bin/
y ,
EX P
35 614
f 0
Integ er
4 59
Bu ild
s() ;
54 8
set ()
to p_
License ,Ġ
ä ½
35614 807
bo xĠ
âĶĢ âĶĢ
ou sĠ
tran saction
- 1Ġ
can ce
ĠĠĠĠĠĠĠĠ t
RefN anny
)? /
Tim eĠ
ĠĠĠĠ __Pyx_
1 ):
i >
youĠ mayĠ
Item (
)Ġ #Ġ
ta ke
ĠĠĠĠĠĠĠĠĠĠĠĠreturnĠ self.
)) ,Ġ
ç »
Sta ck
class=" sig-
Parser .
togg le
co me
body >
i pĠ
GE T_
2 ),Ġ
Ġ==Ġ 34
50 9
null )Ġ{
../ _
au toĠ
Ġ=Ġ __webpack_require__(
random. rand
nor m_
Lang u
D ir
[ self.
in vent
table _
M D
ĠĠĠĠĠĠĠĠĠĠĠĠĠĠĠĠĠĠĠĠĠĠĠĠĠĠĠĠĠĠĠĠ ĠĠĠ
UT C
edi t
fl atten
b n
st ro
O L
int )
.org/ licenses/
tion Ġ
sm all
acces s_
text .
YouĠ canĠ
regist er_
ĠĠĠĠ<t dĠ
ĠĠĠĠĠ WaitingPage.
max_ length
[1] )
)Ġ :Ġ
h _
P Ġ
Set ting
keyĠ inĠ
Spe ci
I X
comp ati
= 0,Ġ
value ="
en sion
Cur rent
sĠforĠ theĠ
3 d
sc i
s. Q
someth ingĠ
calculate_ output
PFN GL
e e
Ġ+Ġ "
rando mĠ
b lack
sĠ {
ve c_
c s.
Un it
ĠĠĠĠĠĠĠĠforĠ iĠinĠrange(
O ne
an otherĠ
Numb erĠ=Ġ
ma pĠ
"Ġ> &nbsp;</td>
style="border-bottom:3pxĠsolidĠ#000000; "Ġ>&nbsp;</td>
IfĠ theĠ
re st
game .
index Ġ
or g.
( 2,Ġ
check point
ac ce
ĠĠĠĠ ]
ac ity
le ad
Buff er
AS S
B in
Co mple
( config
);ĠifĠ(unlikely( !
co ver
url )
respon seĠ
CT YP
deg ree
frame _
flo w.
arg parse
define dĠ
eng ine
W rap
char Ġ
st im
VALU ES
onĠ anĠ
text )
ĠĠĠĠĠĠĠĠ ],
ĠĠĠĠifĠ( !
cli entĠ
with inĠ
se p
ĠĠĠĠĠĠĠĠĠĠĠĠ //Ġ
S co
ĠĠĠĠĠĠĠĠ this.
s "Ġ
è ®
t reeĠ
_b atch
yĠ importĠ
dest in
whe therĠ
hist or
al -
staticĠ __
table .
18 0
En able
at om
transp ose
pyxb. utils.
text Ġ=Ġ
re size
quer y.
utili ty.
sig nal
cap t
Distri bute
__main__ ':
ref resh
T ree
h t_
re late
arti cle
ne s
s( self.
2 11
end point
7 44
F _
inline __
2 14
(' utf-8
ro ut
Str ing.
Tra in
los sĠ=Ġ
,Ġ self).__init__
file _path
n_ s_
At tr
mo vie
type Ġ=Ġ
di alog
y te
Iter ator
"Ġ target="
t wo
block _
*args,Ġ **kwargs):
sho wĠ
ĠĠĠĠ c
)Ġ->Ġ None:
Ġ=Ġ' '
</d t>
3 f
"ASĠIS "Ġ
pa .
custo m_
st er_
matplot lib.
6 00
ĠĠĠĠĉa1 15
.png "Ġwidth="
INSERTĠ INTOĠ
android :
#includeĠ <
2 d
P H
M et
html _
License,Ġ VersionĠ
_SH IFT
3 16
pas se
> >Ġ
Location (
ANYĠ KIND,Ġ
an tĠ
param _
col orĠ
GOTREF (__pyx_t_
Error ('
has attr(
tryĠ {
ĠĠĠĠĉa1 37
ri d
w ra
:Ġstr ,Ġ
Run time
" lib/python3.7/site-packages/
ĉĉĉ //Ġ
logger. debug
ob serv
s/ flag
Clas sifi
mapp ing
inst all
i ,
QtWidget s.Q
w d
);Ġ \
7 Ġ
can di
ĠĠĠĠ publicĠ
initi al_
9 .
v8 ::
lay erĠ
pytest. raises(
en ch
hand leĠ
. ")
br >
1 :Ġ
s[0] .
ĠĠĠĠ $
si mil
inter face
ApacheĠ License,ĠVersionĠ
asyn ci
rece ive
bind ing.
\ r
": "
padding -
ApacheĠLicense,ĠVersionĠ 2.0
ch at
s f
ĠĠĠĠĉa1 64
de cl
ĠĠĠĠ<aĠclass="referenceĠinternal"Ġhref="alfred3_interact.page. WaitingPage.
m )
at er
reg ular
ed ,Ġ
PRO C
ĠĠĠĠĠĠĠĠ [
ĠĠĠĠĠĠĠĠsuper(). __init__
__init__ (self,Ġ
- 2.0
</ font
di ag
__ b
/ shin
in cre
sa veĠ
ĠĠĠĠĠĠĠĠ""" Return
2 f
O UT
Re gex
"Ġtarget=" _blank
Date }
filter _
/ X
Str u
session .
6 )
"Ġdata- order="
Ser ie
ifĠ__name__ Ġ==Ġ'
x ,
True (
s= ['
s- iso
ĠĠĠĠĉa2 14
/shin y/
st re
ĠĠĠĠĠĠĠĠĠĠĠĠĠĠĠĠ <tdĠclass="col-desktop
flag s/flag
<imgĠsrc=" flags/flag
s-iso /shiny/
ĠĠĠĠĠĠĠĠĠĠĠĠĠĠĠĠ<tdĠclass="col-desktop ">
<imgĠsrc="flags/flag s-iso/shiny/
ind ent
ĠĠĠĠĠĠĠĠĠĠĠĠĠĠĠĠ ifĠ(
ĠĠĠĠĠĠ <
da g
âĸ Ī
sele ct_
jo b_
M ix
to ur
2 -
.html #
CT ION
pyxb.utils. utility.
out Ġ=Ġ
DE BU
/v c
em be
run (
å Ĭ
cho i
man age
\d +
r n
</d d>
å Ń
param s['
verti cal
ĠĠĠĠ print(
COND ITION
in ver
displa y_
ari a-
__p 0,Ġ
TestCase ):
calculate_output m
role ="
mid dle
ĉ defĠ
d um
ifĠ__name__Ġ==Ġ' __main__':
ĠĠĠĠĉa 39
Oper ator
fun c_
s. append
</font >
2 67
)Ġ orĠ
d m
Ser i
work er
| Ġ(
language =
;Ġ //Ġ
ex clude
Ð¾ Ð
Men u
ma xĠ
x l
la wĠ
ex p_
_b y_
(self ,
1 99
constru ctor
32 ,Ġ
2 Ġ+Ġ
Ran dom
32 5
oc cur
P h
pro mise
ste dĠ
[ ^
name :Ġ
} ĠĠĠ
com b
regist er
string .
proble mĠ
R _
apache .org/licenses/
T it
over Ġ
None ):
19 4
ong Ġ
apache.org/licenses/ LICENSE
US E_
f u
Or der
require dĠbyĠ
decod er_
fet ch
' +
{} ,Ġ
ma ster
node ,Ġ
su re
çĶ ¨
b box
ĠĠĠĠ whileĠ
no tification
qu eĠ
IN FO
ĠĠĠĠĠĠĠĠ print('
catch Ġ(
P la
act ual
Ch ild
s }
mo use
name ):
:Ġ function(
ING Ġ
applic ableĠ
zip (
D ro
[ -
C A
andĠ notĠ
sub mit
Ġ=Ġ $
ĠĠĠĠ /**
b ra
PyLong _SHIFT
15 9
p layer
ctype s.
as ci
configur ationĠ
time.time ()
ĠĠĠĠĠĠĠĠ {
an ded
c :
ĠĠĠĠĠĠĠĠ """Ġ
( in
20 16
auth enti
% .
= ĠĠ
10 24
s: :
isĠ distributedĠ
top ic
dele teĠ
env .
notĠ useĠthisĠ
shape [0]
Ġ &&Ġ
http://www. apache.org/licenses/LICENSE
W he
_ v
sec ret
D el
F ini
. read
IL IT
(? :
"Ġtarget="_blank ">
d s.
exceptĠ inĠ
_ H
ct ure
0,Ġ "
AU TH
q a
alway sĠ
au tom
Un lessĠ
obta inĠaĠ
C ell
No teĠ
AN D
Ġ fileĠ
ĠĠĠĠĠĠĠĠĠĠĠĠĠĠĠĠĠĠĠĠĠĠĠĠ "
e as
ĉĉ };
'Ġ />
contro l.
si ve
d ":
ĠĠ =Ġ
<aĠhref=" https://www.
3 /
ĠĠĠĠ print('
Ġ=Ġ 14;
3 32
bo x.
start ,Ġ
context .get
syste mĠ
scale _
1 12
flo or
module ,Ġ
#Ġ TheĠ
In clude
disp atch
custo mĠ
1 >
it u
note book
graph _
BAS IS
CO L
ar o
oper ation
ORĠ CONDITION
form .
Raise s(
',Ġ u'
model (
ĠĠĠĠĉa 34
fileĠ exceptĠinĠ
WARRANTIESĠ ORĠCONDITION
staticĠ__ inline__
fileĠexceptĠinĠ compli
s_ per_
sub _
8x 16
valid ate_
"] ["
call _
return ;
ĠĠ """
provide dĠ
ĠĠĠĠĠĠĠĠĠĠĠĠĠĠĠĠĠĠ </td>
eitherĠ expres
languageĠ gover
è ¡
Ġ Ð
sĠorĠ impli
proje ct_
F ull
\2\2 \u0
t upleĠ
server Ġ
__ _
me .
{ :
ĠĠ /**
sy m
ĠĠ };
pos sibleĠ
P S
erĠ toĠ
can 'tĠ
ĠĠĠĠĠĠĠĠ h
neg ative
coun try
languageĠgover ningĠ
U Ġ
rg b
ĠĠĠĠĉa 200
create dĠ
Min ute
8 16
ĠĠĠĠĠĠĠĠ c
t -
importĠ time
e s,Ġ
ĠĠĠĠ< div
2 d(
ren dere
WARRANTIESĠORĠCONDITION SĠOFĠ
V IC
ĠĠĠĠĉa2 13
notĠuseĠthisĠ fileĠexceptĠinĠcompli
=' 0'Ġ
distributedĠ underĠtheĠ
ep iso
Le ft
code ,Ġ
Ġ=Ġ function(
true );
':Ġ 0,Ġ'
document .
License dĠunderĠtheĠ
In validĠ
ĠĠĠĠĠĠĠĠĠĠĠĠĠĠĠĠĠĠĠĠĠĠĠĠĠĠĠĠĠĠĠĠ ĠĠĠĠĠĠĠĠĠĠĠĠĠĠĠĠĠĠĠĠĠĠĠĠĠĠĠĠĠĠĠĠ
pyxb. binding.
B od
strip ()
100 %
met aĠ
0 ),Ġ
] *
"ASĠIS"Ġ BASIS
languageĠgoverningĠ permission
class ='
æ Ī
Tar get
8 64
LIN E
0Ġ 0Ġ
filename Ġ=Ġ
t m
55 6
en cy
text ,Ġ
icon -
data (
bi le
s mo
te _
do c.
20 20
ma j
exp and
16 ;
key Ġ=Ġ
un known
contain sĠ
Dire ctor
fa st
( intĠ
be havi
group _
ine dĠ
eitherĠexpres sĠorĠimpli
ti t
20 19
si ty
Ġ=Ġself. get_
dĠtoĠ inĠ
are a
per .
place holder
k in
http://www.apache.org/licenses/LICENSE -2.0
. i
2 Ġ=Ġ33Ġ;
M ay
ĠĠĠĠĉ Ġ
top :Ġ
specificĠ languageĠgoverningĠpermission
pe d
bl ank
d y
e mit
ĠĠĠĠĠĠ '
copyĠofĠtheĠ LicenseĠ
p ur
,Ġ __pyx_
ĠĠĠĠĠĠĠĠĠĠĠĠ re
Ġ=Ġnp. zeros(
orĠ agree
module. export
requiredĠbyĠ applicableĠ
ĠĠ Ġ*Ġ@
name spaceĠ
dĠtoĠinĠ writing
oprot. write
requiredĠbyĠapplicableĠ lawĠ
p )
,Ġ n
war n
none ;
pyxb.utils.utility. Location(
orĠagree dĠtoĠinĠwriting
UnlessĠ requiredĠbyĠapplicableĠlawĠ
in her
License ");
"Ġ+Ġ str(
UnlessĠrequiredĠbyĠapplicableĠlawĠ orĠagreedĠtoĠinĠwriting
av o
7 3
S oĠ
suffi x
as set
s al
box -
s.get (
ev enĠ
ma y
g a
roo t_
df Ġ=Ġ
T S
N PY
no ti
33 33
underĠtheĠ License.
<codeĠ language=
å Ľ
pro j
Ġ=Ġ true;
one m2
æ Ĺ
ĠĠĠĠĠĠĠĠ n
ĠĠĠĠĠĠĠĠ Args:
distributedĠunderĠtheĠ LicenseĠ
D eta
De clar
ĠĠĠĠĠĠĠĠ <spanĠclass="
(( (
\3\2\2 \2
th >
distributedĠunderĠtheĠLicenseĠ isĠdistributedĠ
ĠĠĠĠdefĠ set
_name Ġ=Ġ
ApacheĠLicense,ĠVersionĠ2.0 Ġ(
the re
2 >
7 ,
associ ation.
[i ].
H ash
ĠĠ__Pyx_ RefNanny
ti ty
output Ġ=Ġ
M il
try ingĠtoĠ
d ynam
an i
5 28
69 4
proces sor
Lo wer
d n
bo t.
classĠ Test
pro gram
re gex
li sh
paren t.
S OF
est imat
> (
P L
" }
copyĠofĠtheĠLicenseĠ at
ĠĠĠĠdefĠ get
.Ġ ItĠ
ng -
all (
ne t.
Ext ra
s )Ġ==Ġ
ta keĠ
properties. Schema
goog le
fe ed
D E_
disable d
Ġ \
**************** ****************
)Ġ ]))
la un
ĠĠĠĠ f
[ 0-9
ĠĠĠĠĉa 88
vi aĠ
:Ġ |Ġ:
"Ġ :Ġ"
IS O
colĠ align='
sele cted
m ightĠ
Pro vid
tĠ ==Ġ
":Ġ [
/** */Ġ
',Ġ functionĠ(
forĠ iĠinĠrange(
length Ġ
M B
'Ġ+Ġ str(
tra jector
javas cript
SeeĠtheĠ LicenseĠ
extra _
bu cket
E num
s 2
RE G
? :Ġ
3,Ġ 2,Ġ1,Ġ
st illĠ
config ure
pla in
world cube
WITHOUTĠ WARRANTIESĠORĠCONDITIONSĠOFĠ
association. org/
worldcube association.org/
<aĠhref="https://www. worldcubeassociation.org/
ĠĠĠĠĠĠĠĠĠĠĠĠ _
inter n
sign ature
Chat .
$ $
g le
r atio
p. php?
B as
it eĠ
key )
call yĠ
p li
<aĠhref="https://www.worldcubeassociation.org/ results/
E ach
g ,Ġ
ac tiveĠ
,Ġ orĠ
sph in
p.php? i=
<aĠhref="https://www.worldcubeassociation.org/results/ p.php?i=
2 37
fa ke
8 ,
Dict [
mo z
byĠ theĠ
5 _
sa mpleĠ
YouĠmayĠ obtainĠaĠ
pre v_
1 ),
get attr(
let ter
ovldĠ__cnfnĠ convert_
Ho wĠ
r al
ĠĠ __pyx_t_
,Ġ soĠ
main .
pre >
p en
value :Ġ
{%Ġ end
G ame
---- --
man yĠ
f amil
run ningĠ
inputĠ type="
proble m
table >
ĠĠĠĠĉa 8
ĠĠĠĠĉa 49
. *
FLAG S.
integ erĠ
s_ dict
ĠĠ Ġ*/
star t.
Date. today
ĠĠĠĠĠ MatchMakerActivation.
ĠĠĠĠĠ MatchMakerMonitoring.
org an
youĠmayĠ notĠuseĠthisĠfileĠexceptĠinĠcompli
3 64
c us
th oseĠ
lear ning_
_ ATTR
a 7
pack et
mean (
Ġ &&Ġa
key .
re po
24 9
C RE
type s.
_ e
experi ment
5 Ġ=Ġ33Ġ;
sp r
U T_
[i ]Ġ=Ġ
CYTHON _
val Ġ=Ġ
ĉĉĉ };
er a
si mpleĠ
Py Object
format ('
ä¸ Ģ
able _
doĠ notĠ
spe ed
ep si
F ileĠ
å º
s z
TEX T
ĠĠĠĠ ..Ġ
ifĠ youĠ
0Ġ andĠ
Pas s
YouĠmayĠobtainĠaĠ copyĠofĠtheĠLicenseĠat
p eĠ
_id Ġ=Ġ
ĠĠ __pyx_
ĠĠĠĠ ThisĠ
scriptĠ src="
no -
test ('
allo we
answ er
{0 }
":Ġ {
Pro gres
â ķ
value _
100 ,Ġ
rel ativeĠ
op enĠ
ST ":1,"
json _
nav bar-
b f
ing -
train ing_
6 69
1 ĉ
produ ct_
5 );
AG E_
To t
,Ġ y_
()Ġ -Ġ
-1 ;
Ġ onĠ
ĠĠĠĠ -------
)Ġ ifĠ
)) .
at tle
content .
S ing
Name space
re c
)Ġ+Ġ '
In valid
matri xĠ
ĠĠĠĠĠĠĠĠĠĠĠĠĠĠĠĠ self._
con st
ma p.
"Ġhref=" #
Ġ==Ġ 0:
W N
Error ,Ġ
))Ġ &&Ġa
gest ion
- =Ġ
ĠĠĠĠ Ġ*/
match (
De pre
s) ,
LE_ EN
ac cess
O b
ĠĠĠĠ </
_id )
( h
d :Ġ
################################ ################################
sub scription
_P RO
g ue
__ Ġ(
parse (
ĠĠĠĠĠĠĠĠĠĠĠĠ print("
&& ĠĠ
produ ce
N L
Que ue
] Ġ+Ġ
l y.
32 6
;Ġ __pyx_
delete _
[0] ,
p d
iĠ __
15 ,Ġ
</span><spanĠclass=" n">
. __
ic al
Ch an
publi sh
. ')
te am
file Ġ=Ġ
< fontĠ
re main
traffi cd
10 ,
a j
log Ġ
os.path. exists(
Ø §
ap pe
json. dump
f requ
ĠĠĠĠ t
#!/usr/bin/ envĠ
float 64
m ;
ke dĠ
= 1)
log ('
ver yĠ
99 99
arg s):
__builtin_shufflevector (__
color=' #
e )Ġ{
s,Ġ self.
os. environ
1, ĠĠ
tran spa
) </a>
elseĠ {
onĠanĠ "ASĠIS"ĠBASIS
ON _
U +
s lo
l >
re port
contri b.
bre vi
S pa
AL _
255,Ġ 255,Ġ
libcity. data.
E F
DE L
in n
ĠĠĠĠ importĠ
B it
ĠĠĠĠĠĠĠĠ ("
\ w
limit ationsĠ
depre cate
);ĠifĠ(unlikely(! __pyx_t_
ul arĠ
VALUES Ġ(
"Ġ toĠ
lineĠ inĠ
se cur
<d tĠ
comp ar
thereĠ isĠ
er :
ĠĠĠĠĠĠĠĠĠĠĠĠĠĠĠĠĠĠĠĠĠĠĠĠĠĠĠĠĠĠĠĠĠĠĠĠ Ġ
anceĠ withĠtheĠ
ĠĠĠĠĠĠĠĠĠĠĠĠĠĠĠĠĠĠĠĠĠĠĠĠĠĠĠĠĠĠĠĠ ĠĠĠĠĠĠĠĠĠĠĠĠ
re cor
ĠĠĠĠ<aĠclass="referenceĠinternal"Ġhref="alfred3_interact.page. MatchMakerActivation.
ĠĠĠĠ<aĠclass="referenceĠinternal"Ġhref="alfred3_interact.page. MatchMakerMonitoring.
Comp o
instance ofĠ
posi tive
en ceĠ
)Ġ __
path ):
- 1.
ĉĉ ifĠ
Deta il
string ,Ġ
? |
ar y.
0] ,
att n_
theĠ" License");
chil dĠ
ĠĠĠĠReturn s
ĉ returnĠ
UnlessĠrequiredĠbyĠapplicableĠlawĠorĠagreedĠtoĠinĠwriting ,Ġ
s ="
Col lection
ĠĠĠĠĠĠĠĠbuf. write(
0. 00
S V
)Ġ <Ġ
ĠĠĠĠĠĠĠĠĠĠĠĠĠĠĠĠĠĠĠĠĠĠĠĠ '
embe d_
file :
16 9
fra gment
c ut
ANYĠKIND,Ġ eitherĠexpressĠorĠimpli
inter faceĠ
</font> </td>
Ġ %Ġ
tion _
requ i
UnlessĠrequiredĠbyĠapplicableĠlawĠorĠagreedĠtoĠinĠwriting,Ġ software
con textĠ
socket .
i val
nump y/
æ ł
whenĠ theĠ
i Ġclass="
80 8
Que st
t b
I SĠ
Custo m
setĠ toĠ
exec utor
ĠĠĠĠĠĠĠĠbuf.write( u"
ĠĠĠĠĠĠĠĠself. __
F lag
:Ġ Optional[
arg s[0]
[] )
fol d
@pytest. mark.
sing le
= >
vectorĠ unsignedĠ
s. html">
be st
2 13
be am
length Ġ=Ġ
forĠtheĠ specificĠlanguageĠgoverningĠpermission
- v
intoĠ aĠ
set .
size _
im db
ine _
ĠĠĠĠ n
ur i
LicensedĠunderĠtheĠ ApacheĠLicense,ĠVersionĠ2.0Ġ(
g on
hidden _
ĉĉĉĉĉ }
Stat u
Ġ <
per son
2Ġ -Ġ
ĠĠĠĠĠĠĠĠĠĠĠĠ withĠ
op _
M ask
comp ut
cal end
Defa ultĠ
com bin
3 18
ĉ /*Ġ
write ('
server .
spac ing
di mĠ
ĠĠĠĠĠĠĠĠĠĠĠĠĠĠĠĠĠĠĠĠĠĠĠĠĠĠĠĠĠĠĠĠ ĠĠĠĠĠĠ
stream .
h orizont
inter pol
N F
ĠĠĠĠĠĠĠĠ ]
sco re_
trace back
r "
size )
ct u
An im
de ca
pro pos
The reĠ
ĠĠ this.
( v
3 57
g Ġ=Ġ
Fi rst
( obj
Produ ct
20 11
`` .
\ '
e s.
Name ("
op t.
atta ch
,Ġ {
arrayĠ ofĠ
! ==Ġ"
json. load
cf== 1Ġ
= ""
Par allel
&&ĠĠ cf==1Ġ
length ,Ġ
distributedĠunderĠtheĠLicenseĠisĠdistributedĠ onĠanĠ"ASĠIS"ĠBASIS
8 Ġ=Ġ33Ġ;
ĠĠĠĠ<tdĠ style="border-bottom:3pxĠsolidĠ#000000;"Ġ>&nbsp;</td>
A F
Ġ ||Ġ
all close
ĠĠĠĠĉa9 4
arange (
expe ct
f t_
ĠĠ intĠ
pas sedĠ
text (
ĠĠĠĠĠĠĠĠĠĠĠĠ [
s,Ġ '
por t_
page _
style sheet
sĠ likeĠ
file =
cf== 1ĠĠ
Con v
ĠĠĠĠĠĠĠĠĠĠĠĠĠĠĠĠĠĠĠĠ }
ĠĠĠĠĠĠĠĠ print(
con tra
bt nĠ
u sage
ĉĉĉĉ varĠ
ĠĠĠĠ# ĠĠĠĠĠ
20 14
stati c_
ĠĠĠĠ """Ġ
er o
sĠ ||Ġ
}/ ${
con tour
ch a
ĠĠĠĠ Args:
Syste m.
S k
.replace ('
s si
:Ġ theĠ
ol ution
Bu tĠ
whichĠ isĠ
ĉĉĉĉ this.
message _
C or
D U
ar ie
ele ment_
t urn
LIN EĠ
. from_
a verage
ĠĠĠĠ ax
sched ule
to (
Chan nel
in sideĠ
dĠ andĠ
* Ġ(
Ġ=Ġ nn.
Re cord
hidden _size
re ason
\2\2 \u
o bje
if _
typ en
S M
Ho st
model _name
sys. argv
copy ()
U I
n )
file sĠ
H _
ti lĠ
fi xture
ad j
attention _
"><spanĠclass=" pre">
A g
A f
f mt
&&Ġ this.
le d
. b
ces sor
ui -
1 ).
S um
beforeĠ {
limitationsĠ underĠtheĠLicense.
9 60
I DE
lay er.
ĉĉĉĉĉ //Ġ
ra ,Ġ
ĠĠĠĠĠĠĠĠReturn s:
Distribute d
ste p_
ĠĠĠĠĠĠĠĠĠĠ }
displa yĠ
4 57
E T
su me
al ance
level Ġ
ĠĠĠĠĠĠĠĠ result
do t
æį ®
orĠ "
': '
per m
right :Ġ
k ind
v 4
ste pĠ
De lete
f y
optim izer
Ġ=Ġ (a
forĠ eachĠ
proje ctĠ
ac tĠ
ĠĠĠĠĉa 60
call (this,Ġ
54 0
s= None,
LicensedĠunderĠtheĠApacheĠLicense,ĠVersionĠ2.0Ġ( theĠ"License");
UL )Ġ
dd d
E l
24 6
DEBU G
S ,Ġ
ĠĠĠĠĠĠĠĠifĠ self._
ĠĠĠĠĠĠĠĠ m
er ()
Ġ .
False ,
extend (
ĠĠĠĠĠĠĠĠ $
html >
Pl ug
UL)Ġ /*!<Ġ
Pro cess
/usr/ include
S Ġ=Ġ
TW ARE
O THER
"Ġ name="
ĉĉĉĉ //Ġ
ĠĠĠĠĠĠĠĠĠĠĠĠĠĠĠĠ Ġ'
clo u
fl ask
2 Ġ=Ġ32Ġ;
sol ve
lambdaĠ x:Ġ
opt s.
SeeĠtheĠLicenseĠ forĠtheĠspecificĠlanguageĠgoverningĠpermission
coe ff
_b yte
enti ty
_ X_
hel pĠ
time. sleep
a chĠ
2 }
ms g.
sĠ=Ġ functionĠ(
[0] Ġ=Ġ
st rap
'Ġ andĠ
True ,
match _
ĠĠĠĠforĠ iĠinĠrange(
tit leĠ
0 49
2 29
data =
F ont
L IT
ĠĠ #defineĠ
aĠ listĠofĠ
0x 0
Tit le
SeeĠtheĠLicenseĠforĠtheĠspecificĠlanguageĠgoverningĠpermission sĠand
AT CH
e )
for me
G .
origin al
g ap
re pl
ANYĠKIND,ĠeitherĠexpressĠorĠimpli ed.
other wiseĠ
col _
ĠĠĠĠ parser.add_argument('--
);Ġ __pyx_t_
WITHOUTĠWARRANTIESĠORĠCONDITIONSĠOFĠ ANYĠKIND,ĠeitherĠexpressĠorĠimplied.
: 0
LI ST
< emĠ
ĠĠĠĠ </div>
importĠ json
64 0
SOF TWARE
ationĠ ofĠtheĠ
cir cle
per cent
app en
type )
staticĠ PyObjectĠ*__pyx_
ĠĠĠĠĉa 33
ĠĠĠĠĠĠĠĠĠĠĠĠĠĠĠĠ continue
C ho
autom ati
anceĠwithĠtheĠ License.
d /
l int
ul Ġclass="
X ML
We ight
parameter Ġ
AB ILIT
padd le.
distributedĠunderĠtheĠLicenseĠisĠdistributedĠonĠanĠ"ASĠIS"ĠBASIS ,
ĠĠĠĠĠĠĠĠ b
.p x
De scription
si du
29 5
âĢ ĵ
>Ġ 0:
auth _
prob abili
T L
3 D
sp ath
allow ed
D at
:Ġ H
0. 9
1 .Ġ
g z
mo dif
ĠĠĠ* Ġ**
tr un
- group
D im
state Ġ=Ġ
Disp lay
input_ shape
Require d
ĠĠĠĠĠĠĠĠreturnĠ '
dim ,Ġ
ĠĠĠĠĠĠĠĠĠĠĠĠĠĠĠĠ elifĠ
FI LE
-------- --
0,0, 0,0,
ac t_
Iden tifi
i ou
class=" field-
16 x
bas ic
\s *
Ġ ì
ĉ__ u
** :Ġ`
cur _
1. 3.
../../ ../
mayĠ beĠ
E mb
doc s.
buil dĠ
each (
um ul
n c
insteadĠ ofĠ
Py_s size_tĠ
en i
12 Ġ
N ,Ġ
_in stance
namespace .
ã ĥ
<tdĠ align='
p ap
useĠ strict
å ¼
æĺ ¯
ms g_
N Ġ
ĠĠĠĠĠĠ #Ġ
config ['
val Ġ
de si
image ,Ġ
14 9
__ aiĠ
ST ":Ġ"
o ,Ġ
Ex ec
s[ :,Ġ
pd. DataFrame
work Ġ
re s.
.p op
%s 'Ġ%Ġ
- block
100 00
ma ch
um _
color='# FFFF
di vision
gri d_
.prototype .
mean _
++ ;
ĉĠ*Ġ %
</ table>
ĠĠreturnĠ __ret;
K .
<fontĠ color='#FFFF
<fontĠcolor='#FFFF FF'>
]Ġ forĠ
memory view_
create (
C M
name ">
shor tĠ
title >
Example s
pop ul
T Type.
ch ron
lic it
self ,
go tĠ
M E_
ã Ĥ
value ):
Exp anded
ĠĠĠĠĉa1 49
Syn tax
youĠmayĠnotĠuseĠthisĠfileĠexceptĠinĠcompli anceĠwithĠtheĠLicense.
ab c
ĠĠĠĠĠĠĠĠ </div>
s. GL
',Ġ self.
Auth or
fromĠ '
HE AD
Global s.
th row
label ="
active _
5 ]
ĠĠĠĠĉa 57
use sĠ
stder r
vi r
pe dĠ
state ,Ġ
ti p
Re actionĠ
request ,Ġ
.Ġ IĠ
ten sorĠ
fra ction
importĠ logging
'Ġ orĠ
string (
ver ,Ġ
1 32
Cy thon
15 0
ExceptionĠasĠ e:
or tĠ
filename ,Ġ
:Ġtrue ,
e -
':Ġ {
tot alĠ
h Ġ
m inĠ
Sele ct
wor l
iter ation
ĠĠĠĠ x
ĠĠĠĠ parser.add_argument
setĠ theĠ
initial iz
in valid
da y.
in stan
mo v
wi ki
ench mark
ValueError ('
po sĠ=Ġ
Po st
.replace (
B B
d st
p t.
or de
)Ġ VALUESĠ(
</d l>
dup lic
. btn-
w Ġ=Ġ
app li
buff er_
numb er_
Co g
np. array([
ĠtoĠ thisĠ
mat eri
fromĠ aĠ
xml /
su bject
datab aseĠ
20 13
.px d":
dtype= np.
66 8
. Comp
at ur
ex act
nn. Module
| \
_S IZE
dete ction
sen t
de bu
B ot
nameĠ ofĠtheĠ
ever y
#!/usr/bin/envĠ python
E DĠ
ĠĠĠĠĠĠĠĠ @
Date.today ().
to .
Ñ ĥ
group .
comp il
shad ow
me sh
co st
Fa ile
thatĠ isĠ
clas ses
10 9
navig ation
A sĠ
de scribe
lar ge
ĠĠĠĠ -Ġ
u t_
sho wn
mi tive
overri de
align :Ġ
dĠ (
3 ))
<codeĠlanguage= python
b lob
/ .
in toĠtheĠ
round (
concat en
numpy/ __init__
ĠĠĠĠĠĠĠĠ xĠ=Ġ
M IN
Reg Exp
numpy/__init__ .pxd":
remove _
num_ classe
C ache
Quo ta.
head >
r up
dir )
md -
giv en
parti tion
E (
char t
result ,Ġ
sha red_
d n'tĠ
expe ct(
hasĠ beenĠ
de plo
27 10
s un
comm and_
Whe therĠ
ti te
sched ul
T ab
M id
ĠĠĠĠ }ĠelseĠ{
model sĠimportĠ
weĠ canĠ
wayĠ toĠ
ĠĠ border-
ĠĠĠĠĉa1 32
staticĠ CYTHON
Un known
windo wĠ
field s.
TR AIN
posi tor
,Ġ is_
W ord
- x
fil te
s >
al loc
:Ġ functionĠ()Ġ{
conta inĠ
an e
ĠĠĠĠĠĠĠĠĠĠĠĠ TheĠ
Name ,Ġ
Stand ardĠ
u Ġ
_IN LINEĠ
()Ġ ==Ġ
S IZE
Proto col
bo th
go ,Ġ
endi fĠ
F IT
I d,Ġ
g ate
padding :Ġ
re set
),Ġ "
No tĠ
edĠ toĠ
key =
ex tern
file __
ĠĠĠĠĠĠĠĠĠĠĠĠ },
sig nĠ
f" {
ĠĠ functionĠ
le s
templ ate_
DEF IN
P ub
6 64
applic ationĠ
_ mm
## #Ġ
i sĠ=Ġ
16 Ġ
r b
IfĠ youĠ
H Ġ
spe ed_
Ex e
GetĠ theĠ
#if defĠ__
er ,
CS SĠ
f la
Ġ=Ġ null;
( varĠ
ĠĠĠĠ<div Ġclass="
di o
D oĠ
memor yĠ
Al so
__main__ ":
seri es
da de
//////// ////////
<t ableĠ
through Ġ
Lower Case
pre _
( )Ġ+Ġ
0 ))
sĠ *Ġ
ĠĠ </
su g
Local e
<codeĠlanguage=python >
p ho
al ig
Object (
ĠĠĠĠĠĠĠĠassert_ equal(
s we
3 60
E E
99 7
error (
hand le_
md c-
anal y
peri od
M is
ĉf ĉ
mem view
å °
"] .
R GB
application /
paren tĠ
value s.
=True ):
out ,Ġ
file _name
Av atar
P attern
label Ġ
K er
S top
back gro
ent rie
V AR
} .
ex ter
E val
show ()
ĠĠ __rev
fl at
Wh atĠ
4 17
sĠ=Ġ self._
index Of
over flow
Ġ=Ġ re.
exp and_
ĠĠĠĠĠĠĠĠĠĠĠ '
6 11
h av
s 'Ġ
ĠĠĠĠĠĠĠĠself.assert Equal
j s/
importĠ py
ĉĠ*Ġ@returnĠ{ Date}
cl s_
A SE
ĠĠĠĠĠĠĠĠ <divĠclass="
ĉĠĠĠĠĠĠĠĠĠĠĠĠ varĠ
3 20
(" --
'. join(
Wri te
f ar
setĠ ofĠ
2 :Ġ
di a
</span><spanĠclass=" o">
proces se
\x00\x00 \x00\x00
tp _
document ationĠ
format (
I t
T IC
q .
s ("
() {
name ':Ġ'
F R
id_ arti
os.path. dir
Quer y
font- size:Ġ
kee pĠ
link "Ġhref="#
we reĠ
# ĠĠĠĠĠĠĠĠĠ
Pro gra
1 Ġ==Ġ
(__p 0,Ġ
fromĠ ..
s) ):
Fini sh
format _
d oneĠ
res net
inser t
AG E
HT MLĠ
sli ce(
dest ro
s= None,Ġ
ra _de
trafficd l.
filename )
mal ink
l arg
4 ]
ed bg
rend er_
B S
Mil lisecond
Mak eĠ
s() );
[] ;
3, ĠĠ
lef t_
SQ L
contain ingĠ
inst allĠ
ĠĠĠĠĠĠĠĠĠĠĠĠ pass
open _
echoĠ "
stream _
Arti go
Vie wĠ
previou sĠ
config Ġ=Ġ
2 15
re presen
initial izer
ke d
Ġ=Ġ false;
IG H
2 64
ne g_
0. 0.
B _
extra ct_
LI MIT
at o
sĠ=Ġ None
in .
ing :
undefine dĠ
compute _
boot strap
r y
other ):
ĠĠĠĠĉa1 24
ic alĠ
f tĠ
zero _
scri b
quanti dade
E CT
api /
ĠĠĠĠ AĠ
s[i ].
temp _
buff er.
id_ comp
æķ° æį®
FN AC
leg end
ifĠ__name__ Ġ==Ġ"
âĸĪ âĸĪ
un til
As ser
S w
start Ġ=Ġ
foo ter
no qa
ve c
sub process.
"> Â
fa ct
UT F
long )
h alf
}Ġ catchĠ(
red di
pad _
[ x
_ T
ĠĠĠĠĉa 77
1 ',Ġ'
25 00
(((( a
))Ġ &&Ġ(
# #Ġ
( C
16 ,Ġ
logger.info ("
input .
episo de
ĠĠĠĠ classĠ
ĠĠĠĠĠĠĠĠ ),
_in dice
<aĠclass=" header
Ke y(
id ,
Depre cation
ĠĠĠĠĠĠĠĠx Ġ=Ġself.
89 4
Over ri
_X_ Artigo
ra_de _X_Artigo
ax isĠ
e s_
ĠĠĠĠĠĠĠĠĠĠĠĠĠĠĠĠ ĠĠĠĠĠĠĠĠself.
Ġ=Ġ 15;
con ti
id_arti go,Ġ
type .
¶ </a>
up load
">Â ¶</a>
eĠ toĠ
neigh bor
sĠ( id_comp
INSERTĠINTOĠ FNAC
.Comp ra_de_X_Artigo
INSERTĠINTOĠFNAC .Compra_de_X_Artigo
INSERTĠINTOĠFNAC.Compra_de_X_Artigo sĠ(id_comp
Ġ |Ġ
ĠĠĠĠĠĠĠĠĠĠĠĠĠĠĠĠ <
con sist
sk lear
On lyĠ
ra,Ġ id_artigo,Ġ
quantidade )ĠVALUESĠ(
INSERTĠINTOĠFNAC.Compra_de_X_ArtigosĠ(id_comp ra,Ġid_artigo,Ġ
INSERTĠINTOĠFNAC.Compra_de_X_ArtigosĠ(id_compra,Ġid_artigo,Ġ quantidade)ĠVALUESĠ(
line Ġ=Ġ
in validĠ
<aĠclass="header link"Ġhref="#
) ĠĠ#Ġ
li ci
test (
fo un
np. ndarray
conver t
manag er.
week Ġ
response _
inste ad
av g_
6 57
theĠ followingĠ
',Ġ None,Ġ
code .
bran ch
ifĠ__name__Ġ==Ġ" __main__":
bin aryĠ
W R
,Ġ $
exec ut
Emb ed
importĠ re
howĠ toĠ
ab brevi
Cal cul
J son
fin alĠ
re serve
"" ,
Colum n(
b on
</ pre>
Time zone
ĠĠ__ret Ġ=Ġ(
<spanĠclass=" sig-
sol ver
)Ġ ||Ġ
é Ģ
ĠĠĠĠ d
token iz
anim ation
name Ġ=Ġ'
Cython /
) *
1 f
s/ numpy/__init__.pxd":
statu sĠ
Include s/numpy/__init__.pxd":
Cython/ Includes/numpy/__init__.pxd":
ĠĠĠĠĉa1 74
Error ):
ä¸ ª
OB J
function .
windo w_
neg ativeĠ
initi alĠ
ĠĠĠĠĠĠĠĠĠĠĠĠĠĠĠĠ break
epsi lon
los se
oth er_
graph .
Date Time
staticĠCYTHON _INLINEĠ
l ,Ġ
require dĠ
avo idĠ
En try
l n
AP P
a- z
ĠĠĠĠĠĠĠĠifĠnotĠ self.
fo cu
ID Ġ
FRO MĠ
64 7
ssh _
_M O
contro lĠ
à ®
s,Ġ andĠ
N on
len Ġ=Ġ
logg er
end er
con fir
co pie
un ctu
1. val
é ĩ
C I
ciph er
pyxb. namespace.
i 18
cl in
un pack
pyxb.namespace. Expanded
Ġ=Ġnp. array([
pyxb.namespace.Expanded Name(
im g.
Com ment
proces sĠ
" ĠĠ
);Ġ //Ġ
driver .
:Ġ float
ser viceĠ
DO M
p th
17 0
Con dition
Ġ; Ġ
os.path. join
absolute _
(" /
_P ATH
ne cess
be stĠ
speci fyĠ
ĠĠ constĠ
,Ġ 0,Ġ
rece i
F ORĠ
G T
item s()
haveĠ toĠ
parser Ġ=Ġ
P P
x ):
fluid .
importĠ torch
paren ">
this ,Ġ
3 >
R ed
sor t_
ir ror
)Ġ __builtin_
å į
Sele ctor
å ¯
[ name
qu i
ateg ory
ine d
day Of
89 7
basedĠ onĠ
mo bile
å ľ
ra wĠ
]Ġ -Ġ
Ġ=Ġ(((( (a
ro i_
Con stan
2 ):
æ ī
ĉĉ #Ġ
Po s
co s(
F ire
t un
feat ureĠ
te d.
å ĩ
Ch il
% s)
entr yĠ
":Ġ" ^
ĠĠ },
s. set
s:Ġ {
Tra ce
<d lĠ
} ')
O ther
ty /
cl eĠ
C at
has Own
ord er.
T -
ad min_
py edbg
version __
ĠĠĠĠĠĠ __Pyx_
serializ er
cl a
ĠĠĠĠĠĠĠĠĠĠĠĠĠĠĠĠĠĠĠĠĠĠĠĠĠĠĠĠĠĠĠĠĠĠĠĠĠĠĠĠ ĠĠ
di c
allo wĠ
Per malink
d ing_
ame tri
list )
de clar
action _
origin al_
tu de
e f
shape )
rig ht_
ĠĠĠĠĠĠĠĠ dataĠ=Ġ
tĠ ofĠ
limi ter
)Ġ isĠ
Py Tuple
Exe cu
Ð° Ð
S ig
head er_
can notĠ
get ('
Permalink ĠtoĠthisĠ
( G
enc yĠ
C ategory
fe ed_
36 37
valueĠ inĠ
ĠĠĠĠdefĠ__init__ (self):
ad ded
64 ,Ġ
J ava
ct x,Ġ
list ()
filen ameĠ
Ðµ Ð
pl u
$(' #
á ĥ
r ateĠ
list Ġ=Ġ
s() .
ui .
ffici ent
com .
val ,Ġ
instance .
value ;
be _
/ (
cance l
(" #
conver tĠ
Ab stract
"Ġtitle=" PermalinkĠtoĠthisĠ
2 36
associ atedĠ
p anel
$ R.
Applic ation
% Y
Ġ B
importĠ *
":Ġ 0,Ġ"
fin all
to u
24 4
list en
ex itĠ
ĠĠĠĠĠĠĠĠbuf. write("
encode ('utf-8
ĠĠĠĠ assert_
pre dict
os.path. is
an t_
simil ar
I ST
spe c.
equ alĠ
notif y.
str :
ĉ (
co s
index Ġ=Ġ
en /
th ink
b m
ĠĠĠĠ __pyx_t_
data :
nump y
ingĠ forĠ
line )
sum _
scal eĠ
-b itĠ
style .
wan tĠ
list ener
config Ġ
- C
itemĠ inĠ
ĠĠĠĠĠĠĠĠ G
Re ference
Data Ġ
0,Ġ0,Ġ 0,Ġ0,Ġ
a ,
"Ġ aria-
ms -
un tilĠ
content :Ġ"
i ;
Open GL
obj Ġ=Ġ
39 33
:Ġ 1
ctx ->
() )Ġ{
do t(
Main Window
P RE
S G
S cript
Ġ=Ġ(((( a
St or
ORM AT
p le
s ');
________ ________
<! --Ġ
i onĠ
s( [
Ġ=Ġ0 x
s= self.
index .
in ,Ġ
Ġ=Ġ models.
1,Ġ '
data ):
r h
ĠĠ} );
rgba (
)Ġ |Ġ(
time ,Ġ
ang ular
Exception (
ĠĠĠĠĉa 32
data ["
G ER
extend sĠ
6 39
od eĠ
7 00
ne on_
Batch Norm
Be gin
Sp an
A IL
inst alle
from (
u' /home/
1 (
translate ("
æĸ ĩ
l s
attr (self,Ġ
padd le
H H:mm
[] ,
C ar
do ck
und erĠ
object ,Ġ
ĠforĠ theĠ
Clo se
I sĠ
x,Ġ y,Ġ
op .
s[ -1]
87 85
[1] .
candi date
' },
T ",
ti le
py game.
'] Ġ==Ġ
66 84
DI AN
q l
igno re_
L ONG
true ,Ġ
ĠĠĠĠĉa 27
d 1Ġ=Ġ
M yĠ
D S
re cur
C TĠ
down load_
- in
S ug
ĠĠĠĠ pass
3 85
- 01
] (
er ('
32 Ġ
redu ce_
g itĠ
ac cord
DE S
gui de
proper tiesĠ
resol ution
S un
Arra y_
------------------------------------------------------------------------ -----
He reĠ
return _value
sĠ=Ġ list(
ba sel
algorith m
v Ġ
comp uteĠ
high light
invent or
b >
par ametri
or .
ĠĠĠĠĉa 67
sup er(
key s()
main ()
Date.CultureInfo .
}ĠĠĠ TheĠ
dayĠ ofĠtheĠ
pie ce
0 ),
: ĠĠ
to oĠ
usedĠ forĠ
1 d
stre amĠ
a z
S imple
fi t_
'Ġ bgcolor='#0000
FF'> <fontĠcolor='#FFFFFF'>
'Ġbgcolor='#0000 FF'><fontĠcolor='#FFFFFF'>
do ctype
ĠĠĠĠ Ġ*Ġ@paramĠ{
gen e
sco reĠ
\n \n
Lay er
al ,Ġ
US ER
debug ('
[ index
typ ingĠimportĠ
se mb
ne tĠ
ON E
"] :
`Ġ andĠ
P M
{} )
/ C
ta g_
bot to
click .
pick le
sen d(
kernel _
A t(
ren tĠ
ĠĠĠĠĉa1 00
ĠĠĠĠĠĠĠĠĠĠĠĠraiseĠ ValueError("
redu ce
clin eno
F l
':Ġ self.
ĠĠĠĠifĠ len(
< tr>
B ind
gre en
CO MP
dĠ fromĠ
par tial
stand ardĠ
J an
_b in
ima g
ĠĠĠĠĠĠĠĠĠĠĠĠĠĠĠĠĠĠĠĠĠĠĠĠĠĠĠĠĠĠĠĠ ĠĠĠĠĠĠĠ
option Ġ
= dict(
b itĠ
zer oĠ
pyedbg lib.
_ from_
c as
In putĠ
comp lex
62 80
correspon dingĠ
x /
al ity
all back
Th ank
Test (
5 86
comm onĠ
Handl er(
'Ġ +
11 /
$ .
sĠ=Ġ tf.
)Ġ&&Ġ( a
theĠ firstĠ
#Ġ ThisĠ
message )
Mo ve
voidĠ calculate_outputm
ex clu
logging. info
n_ cell
Emp ty
A lig
start ingĠ
MMMM Ġ
P lay
Toon town
forward (self,Ġ
B E
)Ġ <<Ġ
Qt Co
m /
for Each
. __name__
N ext
fl u
h h
ĠĠĠĠĠĠĠĠĠĠĠĠĠĠĠĠ ĠĠĠĠĠĠĠĠifĠ
s= {'
Plug in
44 49
sw ap
size (
.format (self.
POINTER( GL
f an
Pro gram
An dĠ
C E_
N .
w av
ĠĠĠĠ asyncĠdefĠ
o -
m (
n ative
ser vice_
sys. exit
7 79
Ġ =
{" name":Ġ"
content:Ġ" \
Ġ=Ġ 2
ke t
den se
m t_
7 );
msg )
p ing_
is su
50 1
be lowĠ
createĠ aĠ
ex pi
ĠĠĠĠ post
astro py.
config ,Ġ
android .
S m
di stanceĠ
Ġ=Ġ ""
Spe c.
ĠĠĠĠĠĠ this.
16 0
c 2
man u
ĠĠĠĠĠĠĠĠ awaitĠ
js "></script>
) .Ġ
ĠĠ </div>
gener ateĠ
] Ġ==Ġ
B ER
k ĠinĠ
à ¥
å Į
Property (
sĠ=Ġ torch.
40 4
e p_
ĠĠĠĠĠĠĠĠĠĠĠĠreturnĠ False
Array (
module.export sĠ=Ġ
a ',Ġ'
IN CREF
,Ġ itĠ
60 5
)Ġ{Ġ returnĠ
equ ival
valid ator
r d
he adĠ
# pop
P anel
ĠĠĠĠĠĠĠĠ resultĠ=Ġ
ĠĠĠĠ //
html #
enable d
-1 );
lea stĠ
Su c
dire ctive
exist ingĠ
///Ġ \
'Ġ :Ġ
load er
</span> </em>
c s_
12 88
mer idi
hy per
c alĠ
(r "
json.load s(
ĠĠ <divĠclass="
posi tiveĠ
} {
str f
200 9
label s
l and
environ ment
av g
ĠĠĠĠ atĠ
- Ġ(
arch ive
re ci
ĠĠĠĠĉa 64
hist ory
v )
ErrorĠ asĠ
parameter s
u ,Ġ
]Ġ +=Ġ
ä ¹
str )
A pi
exp an
ho st_
print_ function
allo w_
Bas ic
00 :00
7 )
xĠ -Ġ
calend ar
" />
ĠĠĠĠĉa1 63
get (
.Ġ importĠ
own er
Re moveĠ
37 7
P UT
go Ġ
[ 0-
ingĠ ofĠ
Ab br
E mail
int en
__PYX_ERR (0,Ġ
deci m
Sco pe
ĠĠ ifĠ
loa dedĠ
token ize
app ly
z ,Ġ
NoneĠ elseĠ
1Ġ andĠ
ele m
Group .
wouldĠ beĠ
output ,Ġ
.get Logg
, "
P ER
tool sĠimportĠ
cri ptĠ
ĠĠĠĠĠĠĠĠself.assert True(
s. pop
finish ed
ĠĠĠĠĠĠĠĠreturnĠ False
prepa re_
ic eĠ
% r
fromĠ typingĠimportĠ
Ex pe
doc s/
option s
li te
mi me
Ho we
I LE
at ureĠ
ĉĉ ifĠ(!
liter al
xsd ',Ġ
13 ,Ġ
device )
require s_
fo cus
b )
j a
__ all
par alle
depend enci
__pyx_ n_s_
x,Ġ y
VAL ID
ĠĠĠĠĠĠĠĠ plt.
time delta
json.dump s(
[ 0.
../_ static/
. append
t k
__pyx_ k_
al tern
2 ),
2 ])
mĠ inĠ
8 );
on ('
A K
wh en
yĠ toĠ
if y(
iter able
ĠĠĠĠĉa19 6
The seĠ
framework ::
ĠĠ#Ġ noqa
ĠĠĠĠ G
DAT A_
LIT T
[i ],Ġ
ORĠ OTHER
6 );
contain erĠ
r x
Com mon
I con
id x,Ġ
utf 8
head _mask
module s/
CH AN
_b i
File (
sl ug
iprot. read
ĠĠĠĠ ],
il la
79 66
tie s.
)Ġ returnĠ
er sĠ
Fa ce
10 6Ġ=Ġ
T ri
Ã ©
coun t(
libcity.data. dataset.
_c s.GL
R C
ĠĠĠĠ-214 74
on ce
LE_EN DIAN
in v
button >
t k.
:Ġ false
L AN
de dĠtoĠ
Pol y
Z ero
clas s.
imple men
K EN
id :Ġ
</span>Ġ<spanĠclass=" n">
L D
yĠ theĠ
Re ct
canv as
roo t.
work ingĠ
\s +
LITT LE_ENDIAN
Fe ature
1] )
B Ġ
SS ION
ĠĠ__Pyx_ X
oper atorĠ
st u
dir Ġ=Ġ
temp er
export s,Ġ
dĠ ==Ġ
function ('
36 25
op t_
au to_
Coun ter
S ched
ĠĠĠĠĠĠĠĠĠĠĠĠĠĠĠĠĠĠĠĠĠĠĠĠĠĠĠĠĠĠĠĠ ĠĠĠĠĠĠĠĠĠĠĠĠĠĠĠĠĠĠĠĠ
pack ageĠ
logging .getLogg
kee p_
sc ra
look up
Sho w
âĢ¢âĢ¢ âĢ¢âĢ¢
3 ),Ġ
For ward
obje ctive
z y
thereĠ areĠ
ĉĠ*Ġ@paramĠ{ Number
h .
? Ġ'
st it
at temp
_de scription
f d
_path )
func ,Ġ
ad v
e ,Ġ
',Ġ' C
Seri aliz
ĠĠ margin-
an no
ĠĠĠ #Ġ
IG HT
ph one
.... ....
option alĠ
Fo re
a ff
m or
ar r.
Manag er
built in
Ax is
c ĠinĠ
str ]
pla ce_
pas sĠ
":Ġ0,Ġ" ReactionĠ
ĉ $D.
S ign
_ count
e pĠ
proces s(
Co ord
bo o
indi ces
group Ġ
al (
% %
V ide
compon entĠ
J u
ĠĠĠĠ b
s[ :
pos sible
Check Ġ
dict ['
3 88
:Ġ none;
.p yĠ
width Ġ=Ġ
F .
ĠĠĠĠĠĠĠĠĠĠĠĠ oprot.write
ME TH
Clas s(
ValueError (
Na N
s ='
param s)
UR LĠ
9 70
fa ce_
cri ter
input s_
s[ key
char set
Exception :
inform ation
\ 0
p leaseĠ
ali ase
Ele mentĠ
<d d>
ĠĠĠĠĠĠĠĠ -Ġ
al ert
text ure
87 69
V ol
ç Ľ
comple xĠ
con da
shape ,Ġ
check ĠifĠ
valid ation
itu de
ĠĠĠĠdefĠ set_
LITTLE_ENDIAN __
L im
str _
ĠĠĠĠ< linkĠrel="
B ,Ġ
d ,
[3 ]
ĠĠ <tdĠalign='
ĠĠ< colĠalign='
#ifdefĠ__ LITTLE_ENDIAN__
G en
actu allyĠ
3 50
f alseĠ
ĠĠĠĠĠĠĠĠ ThisĠ
S im
aro undĠ
ĠĠĠĠĠĠĠĠ" /^
( __pyx_v_
- ms-
s an
switch Ġ(
- item
16 64
ĠĠĠĠĠĠ ifĠ
B ert
g y
ab spath
k )
si teĠ
ĠĠĠĠĉa 40
run n
o v
stop _
f ine
ĉ ifĠ
de ta
te ar
parametri ze
* ,Ġ
4 f
Ad ap
0 75
_IN T
ĠĠĠĠĠĠĠĠĠĠĠĠ d
__ class__
ĠĠĠĠĠĠĠĠĠĠĠĠself. assert
D ou
m icro
format ter
copy _
':Ġ None,
'] Ġ
gener atedĠ
ĠĠĠĠĉa10 9
2 16
D ri
sli ce_
typ ing.
Tran sp
al e
',Ġ' event
ING _
batch Ġ
ĠĠĠĠ: return
lic enseĠ
O rig
ĠĠ color:Ġ#
__Pyx_ PyObject_
T er
sig n_
- 10
ing Ġ=Ġ
categor ie
8 54
end swith
tra il
_in it
di st_
default ='
ro py
ĠĠĠĠĠĠĠĠĠĠĠĠĠĠĠĠĠĠĠĠ else:
ca cheĠ
1] ,
3 Ġ=Ġ33Ġ;
user ,Ġ
hel lo
__p 1,Ġ
typen ameĠ
item )
d p
11 5
sĠ fromĠtheĠ
np. array(
h um
ce il
27 9
fix ed
sĠ isĠNone:
= 1,
<liĠclass="toctree-l1"><aĠclass="referenceĠinternal"Ġhref=" ../
li fe
line ,Ġ
dict ()
A- Z
X Ġ=Ġ
Type (
No wĠ
- 1,
Ver tex
= 1.
ĠĠĠĠĠĠĠĠĠĠĠĠĠĠĠĠĠĠĠĠĠĠĠĠĠĠĠĠĠĠĠĠ ĠĠĠĠĠĠĠĠĠĠĠĠĠĠ
c lock
' 'Ġ
Lo adĠ
array ,Ġ
== =
own Ġ
. execute
amoun t
37 9
En g
ĠĠĠĠ st_
diction ary
WH ER
%s 'Ġ%Ġ(
4 :
IN CL
_path ,Ġ
ĠĠĠĠĠĠĠĠĠĠĠĠ< tr>
f ;
fol derĠ
dtype ='
_ get_
C ro
f )
state ment
classifi cation
ĠĠĠĠĠĠ self.
DI RE
link_ function('
tite m
str (self.
Fi x
ListĠ ofĠ
z )
onĠ aĠ
over lap
V is
set tingĠ
bili ty
on o
[ n
z Ġ=Ġ
valueĠ isĠ
1 ",
makeĠ sureĠ
lib ĠimportĠ
cu til
st ick
ĠĠĠĠĠĠĠĠreturnĠ "
returnĠ theĠ
iter _
F alseĠ
Mo difi
Date. parse
ĠĠĠĠĠĠĠĠ new_
ex c_
Go og
gri d(
move To
full _
')) ,
. P
base 64
_s chema
Content -
ul ong
Su it
maxim umĠ
A W
con n.
run ning
|| Ġ(
sĠ */
Gener ator
ĠĠĠĠĠĠĠĠĠĠĠĠ {
yam l
'] Ġ=Ġ'
de termin
result )
local host
resour ce_
_P O
p ra
FF ER
ĉvarĠ d1Ġ=Ġ
end Ġ=Ġ
logg erĠ=Ġ
re mĠ
doc umentĠ
F ri
yĠ +Ġ
we ightĠ
. S
E dge
ax is.
Return Ġ
Or dered
(a ,Ġb
[ 1,Ġ
shor t_
reshape (
æ ŀ
Ġ=Ġ __
to String
copy (
Day Of
2 )Ġ{
Bo und
2 .Ġ
3 69
< text>
ate d_
Re adĠ
- MM
ĠĠ /*Ġ
ĠĠĠĠ ):
url =
shape (
isĠnotĠ NoneĠandĠ
proje ction
ĠĠĠĠ margin-
type defĠ
fĠ inĠ
radius :Ġ
,Ġ weĠ
strf time
w s
nump y_
lig htĠ
head er.
current lyĠ
"ĠtoĠ "
{ self.
2 25
ĠĠĠĠĠĠĠĠĠĠĠĠ print('
:Ġ" /^
TypeError ("
L ast
j ĠinĠrange(
UN CTYP
j ,Ġ
out )
20 58
72 32
3 55
EN G
L in
h al
? )
( constĠ
l y,Ġ
ex i
a il
b an
5 Ġ=Ġ
z i
ĠĠĠĠĠĠĠĠ out
[' name
SELE CTĠ
t q
per io
typeĠ ==Ġ'
charact erĠ
2 Ġ==Ġ
ĠĠĠĠĠĠĠĠreturnĠ (
5 Ġ=Ġ32Ġ;
ret rie
False )Ġ]))
dur ingĠ
decod er
ex per
12 34
numb er,Ġ
type="text/ javascript
% s_
n m
44 8
)Ġ =>Ġ
Not Found
returnsĠ {
dra w_
default :Ġ
si d
ity _
ĠĠĠĠĉa1 29
32 _
state _dict
fiel d(
ali as
5 69
p m
() ))
_CO MP
V ec
un ic
date timeĠ
parse_ arg
ad eĠ
In t_
ret ri
Fi r
ĠĠĠĠĠĠĠĠĠĠĠĠĠĠĠĠĠĠĠĠ forĠ
ĠĠĠĠĠĠĠĠifĠ '
sele cted_
th ough
fi re
file s
* .
z en
d l
64 18
CF UNCTYP
Return sĠtheĠ
co ur
no t(
ref _
extension __Ġ(
io /
3 (
Ġ* *Ġ
M ,Ġ
L ,Ġ
r ;
tĠ==Ġ NPY
)Ġ+Ġ "
f li
ĉ <
ad dedĠ
all en
ole anĠ
p atter
set ,Ġ
SE T_
fin al
List en
CON FIG
HO ST
May be
alph a_
inser t(
TE D
smo oth
ĠĠ @
this :
Py Array_
train .
A MP
P ick
de viceĠ
</ button>
ro ad
function( module,Ġ
ĠĠĠĠĠĠĠĠraiseĠ NotImplemented
k Ġ=Ġ
ut c
</ text>
mode ='
gre at
; &#x
List ener
p ing
codeĠ ==Ġ
provid eĠ
(" .
tra k
55 8
ãĢ Ĥ
pl ate
))) )Ġ{
State (
tr in
libci ty/
asynci o.
be low
F IL
up .
% s.
fun c.
TO KEN
================================ ================================
6 50
ĠĠĠĠĠĠĠĠĠĠĠĠself. assertEqual(
Name Ġ=Ġ
w alk
key wordĠ
I' veĠ
suppor tedĠ
A .
Ac tivity
DO C
Ho ok
"></ i>
ap iĠ
gu il
Syn ap
C :
17 4
ĠĠĠĠĠĠĠĠ<spanĠclass=" glyph
d .Ġ
px ;Ġ
ĠĠĠĠĠĠĠĠĠĠĠĠ ('
soĠ thatĠ
compar is
ĠisĠ aĠ
context ,Ġ
c ti
ĠĠĠĠĠĠĠĠĠĠĠĠĠĠĠĠ //Ġ
pre ><
ĠĠĠĠĠĠĠĠ fromĠ
one s(
ĠĠĠĠdefĠ forward(self,Ġ
index (
:Ġ functionĠ
ab stract
do cutil
js onĠ
yam l_
liter alĠ
)Ġ =>Ġ{
ev en
http _
buff erĠ
identifi er
ĠĠĠĠĠĠĠĠ Parameters
sing le_
bo ar
16x 8_tĠ
act ualĠ
ĠĠĠĠĠĠĠĠassert.equal( moment([
######## ####
[ 5
t s.
ĠĠĠĠ SeeĠ
functionĠ( s)Ġ{
V o
ho stĠ
Compo sition
btnĠ btn-
ĠĠĠĠwithĠ pytest.raises(
(* args,Ġ
Synap tic
av Id
channel s_
End ()
CFUNCTYP E(
S li
ĠĠĠĠdefĠ__ repr
] Ġ*Ġ
pa _
j pg
lo c_
'] Ġ==Ġ'
sour ces
14 ,Ġ
param sĠ=Ġ
-------------------------------- ----------------
h appen
ĠĠĠĠĠĠĠĠĠĠĠĠĠĠĠĠĠĠ '
atta ck
2 ],Ġ
name dĠ
min ,Ġ
a e
AT E_
&Ġ 0x
#ĠCopyrightĠ (c)Ġ
Per mission
Stru ct
} ),
ĠĠĠĠĠĠĠĠĠĠĠĠĠĠĠĠĠĠĠĠĠĠĠĠĠĠĠĠĠĠĠĠĠĠĠĠĠĠĠĠ ĠĠĠ
__webpack_require __
sk ip_
M ag
ABLE Ġ
phase _
Sing le
V E
forĠ thisĠ
Ac count
Langu ageĠ
( 0x
De fini
f. read
Up dateĠ
ĠĠĠĠif (((a
1 )Ġ*Ġ
TEST _
me anĠ
start ()
ĠĠĠĠĠĠĠĠ t.
pand asĠ
class="sig- param
<emĠ class="sig-param
ĉĠ*Ġ@returnĠ{Date} ĠĠĠĠ
ĉvarĠd1Ġ=Ġ Date.parse
Synaptic ['
cache _
suchĠ asĠ
Ch ro
B R
% M
I S_
we 'reĠ
ĠĠĠĠpost Synaptic['
array .
Pi pe
frame .
en cryp
C .
{Ġ \
term ine
id .
<li> <aĠhref="
D ense
s. push(
S U
max_length =
_ ('
Buil der
n )Ġ{
ĠĠĠĠ .
Pla ce
z .
an ce_
view (
# -----------------------------------------------------------------------------
</ th>
define d(
Ro ot
S ph
ĠĠĠĠĠĠĠĠ num_
th _
result s
name :
learning_ rate
vari ance
- 12
M T
max -
33 8
å ¾
ol der
Uni code
startswith ('
nn.Module ):
ad just
Dis able
a :
summar y_
appl y_
H as
ingĠ andĠ
collap se
op acity
r u
z oneĠ
ĠĠĠĠĉa1 840
- 4
M AP
D NA
t p.
ĠĠĠĠĠĠĠĠĠĠĠĠ print(
D raw
str Ġ=Ġ
sĠinĠ aĠ
audi o
ĠĠĠĠĠĠĠĠ delĠ
ĠĠĠĠĠĠĠĠĠĠ ifĠ(
ä¸ Ń
qu ad
]Ġ LT
cro p_
variable _
Controll er
np. random.
128 ,Ġ
uint 64
Parameter s:
x 1
flex -
ĠĠĠĠĠĠĠĠ IfĠ
( 2)
di sk
list ):
t ur
Ġ=Ġ 0.
c tiveĠ
67 9
target ,Ġ
ĠĠĠĠĠĠĠĠĠĠĠĠĠĠĠĠifĠ notĠ
= args.
M sg
ĠĠĠĠĠĠĠĠĠĠĠĠĠĠĠĠ try:
link_function(' gl
radi u
gotoĠ __pyx_L
100 %;
ou s
( name,Ġ
,Ġ thenĠ
M ini
49 54
ang leĠ
Li br
#includeĠ "
get_ output_
torch. Tensor
sear ch.
gi veĠ
or Ġ(
:Ġ E
1] ,Ġ
tuple _
)Ġ &&Ġ
img Ġ=Ġ
AV E_
en te
IĠ wantĠtoĠ
d. get
whi ch
FN _ATTR
DEFAULT_ FN_ATTR
x =
all ()
QtCo re.
s= None):
flag s.
ĠĠĠĠĠĠĠĠifĠ( !
agg reg
chil d_
appe ar
( m
av atar
ĠĠĠĠĠĠĠĠĠĠĠĠifĠ len(
type ':Ġ'
si m
ma cro
In it
1_ 3_
th umb
<emĠclass="sig-param "><spanĠclass="
open ("
speci alĠ
"Ġ src="
"Ġ +
Return sĠ
[2 ],Ġ
ani ti
Dict[ str,Ġ
height ,Ġ
An yĠ
: ss
',Ġ' #
L M
edi tor
color =
setting s
od d
20 12
AN S
re p
le v
ĠĠĠĠĉa 79
overri deĠ
]Ġ=Ġ None,
D uration
H ist
O T
sĠ willĠbeĠ
file s.
Di ff
: beforeĠ{
ĠĠĠĠ print
C anĠ
pow er
ĉ },
check point_
split(' _
~~~~ ~~~~
<emĠclass="sig-param"><spanĠclass=" n">
int ]
ĉĉthis. set
37 8
pe d_
axis= 0)
Overri de
Group Quota.
hist o
o o
dict_ _
axis= 1)
re ver
Sug gestion
len ,Ġ
line (
ĠĠbackground- color:Ġ#
2 33
A sync
T AG
ATTR S_
<spanĠclass="sig- paren">
[0] Ġ==Ġ
use ful
quer ie
action ="
protocol s.
h Ġ=Ġ
ĠinĠ enumerate(
sh el
_size ,Ġ
Ac tive
tt enĠ
. data
.j ava
CO M
;Ġ ++
asyn c
0.0,Ġ 0.0,Ġ
Ġ=Ġ CFUNCTYPE(
ic .
B l
2Ġ=Ġ 6;
Pro ject
(__ file__
al er
sha re
å ¹
aĠ (
nex t(
ĠĠĠĠĉa20 34
I f
"Ġ :Ġ
addition alĠ
[ (
ĠĠĠĠĉa 82
89 55
sele ctedĠ
platform ::
ĠĠĠĠĠĠĠĠ item
functionĠ toĠ
java .
analysi s_
deplo y
color _
los s.
sĠ isĠnotĠNone:
ed geĠ
sub scribe
ĠĠĠĠĠĠ __pyx_t_
scriptĠ type="text/javascript
extension__Ġ( {Ġ\
elifĠ tĠ==ĠNPY
Ġ=Ġ(((( ((a
cam er
po s,Ġ
test ing.
token _type
reg ression
onem2 m-
PyObject *Ġ
M icro
1.3. 0/
0. xsd',Ġ
NoneĠ orĠ
!=Ġ '
metho d.
1 b
g c
parameter s.
sĠ /Ġ
ĠĠĠĠĉa14 84
null ,
remo te
/v 1.3.0/
rst /vc
xsd /v1.3.0/
python/ serializer
s/openmtc- onem2m-
s/openmtc- python/serializer
xml/ xsd/v1.3.0/
1_3_ 0.xsd',Ġ
rst/vc s/openmtc-python/serializer
s/openmtc-onem2m- xml/xsd/v1.3.0/
rst/vcs/openmtc-python/serializer s/openmtc-onem2m-xml/xsd/v1.3.0/
rst/vcs/openmtc-python/serializers/openmtc-onem2m-xml/xsd/v1.3.0/ CD
CR IP
,Ġ whichĠ
Co deĠ
cal i
17 39
look Ġ
prefi xĠ
finall y:
ĉf ĉt
ctypes. c_
V _
"Ġ (
medi a
INCL UD
s \
ĠĠĠĠ ========
ne ss
Ġ=Ġnp. array(
ver ageĠ
param s,Ġ
k o
Reg ist
ation Ġ=Ġ
t re
ES .
/ \
S )
y label
un ce
Spe c
s </a>
clas sĠ=Ġ
pl t
table -
bod y_
se .
ForĠ example
RE N
low erĠ
Or d
MA X
alo g.
neon_ v
% ,Ġ
do c_
AR G
mock .
e ff
di gest
tra inĠ
54 04
{%Ġ blockĠ
float32 )
libcity.model.traffic_ flow_
$ expor
c ateĠ
forĠ xĠinĠ
UR I
Date.Culture String
DEFAULT_FN_ATTR S
p c
æ İ
ĠĠĠĠĠĠĠĠĠĠĠĠĠĠĠĠĠĠĠĠĠĠĠĠ #Ġ
- 5
| ĠĠ
label s,Ġ
ing =
Model .
ĠĠĠĠĉa33 57
Dat ab
g er
re m;
dev /
Cre dential
embed ding_
moment .
user _id
20 9
store_ true
_ set
( functionĠ()Ġ{
co co
59 69
simp li
Âł Âł
1 ',
name s
So cket
c m.
root ,Ġ
n t
En terĠ
Sh ape
è ½
ĠĠĠĠĉa1 77
i +
app lyĠ
IT EM
feature s.
e ck
summar y
allclose (
t len
ch ro
%s "Ġ%Ġ(
<dlĠ class="
ATTRS_ o_
O fĠ
() ,Ġ'
Stor age
NoteĠ thatĠ
(- 1,Ġ
theyĠ areĠ
ĠĠĠĠĠĠĠĠĠĠĠĠreturnĠ None
sĠ byĠ
Model ):
(this );
0 '
Eval u
di m_
100 )
bin ary
20 11,Ġ
%s "Ġ%Ġ
full yĠ
å ·
sh ell
10 11
cro ss_
- 3
Float Tensor
num ,Ġ
ĠisĠ theĠ
G rid
ĠĠĠĠĠĠĠĠreturnĠ True
tmp _
PyLong_SHIFT )Ġ|Ġ(
)Ġ<<Ġ PyLong_SHIFT)Ġ|Ġ(
ĠĠĠĠĠĠĠĠ output_
las h
Set (
Sc roll
add( {
8955 934
L ST
27 27
AR RA
E ,Ġ
back ward
on .
Se lection
by teĠ
ma Ġ
P unctu
data :Ġ
image Ġ=Ġ
Softwa reĠ
2 Ġ=Ġ34Ġ;
next State
fill _
ut ori
99 11
string _
) </span>
16 4
EN TĠ
"Ġ orĠ"
sen dĠ
dropdown -
ati c
MA X_
q Ġ=Ġ
C UR
; }
de scriptor
sĠ=Ġ 0
itĠ toĠ
,Ġ __
sĠ whichĠ
66 66
a )
} '
Ġ=Ġ nx.
ĠĠĠĠĠĠĠĠreturnĠ None
ĠĠĠĠĠĠĠĠ theĠ
test ,Ġ
200 62
whileĠ (
"Ġ style="
ctor .
lower ()
1 Ġ=Ġ33Ġ;
result ;
decim alĠ
O bjectĠ
filter Ġ
uni queĠ
Meth o
ar c
Rel ativeĠ
unittest. TestCase):
sa .
vector <
ĠĠĠĠĉa15 11
data_ dir
p df
co lo
con n
open ('
dro p_
Ñ ı
ho od
87 16
pre dict_
Wrap per
":Ġ {"
TR AC
] |
-1 :
3 67
ĠĠĠĠĠĠĠĠ:return :Ġ
_ 64
t f_
3 x
graph Ġ
progra mĠ
C r
d enĠ
fi t(
Set up
(self,Ġ ctx
obj _
self.__ class__
s `Ġ
intĠ __
this ->
ses s.
controll er
ex t.
34 7
java :
orde red_
Ã ¡
di dĠ
84 68
Up per
cell spacing
task _
de d.
G RO
Data .
s In
St ateĠ
Lo ok
]Ġ=Ġ (
rst/vcs/openmtc-python/serializers/openmtc-onem2m-xml/xsd/v1.3.0/CD T-
0 88
sor t(
dict ,Ġ
6 99
comb ine
Re ce
Type ,Ġ
12 4
,Ġ' w
__(self,Ġ other):
v (
acces sĠ
S Y
MainWindow ",Ġ"
tlen eck
aĠ singleĠ
"Ġ role="
R F
ab stra
16 x4_tĠ
compon ent_
Ag ent
label ,Ġ
si veĠ
Ġ* ĠĠĠ
ĠĠĠĠĉa1 55
N odeĠ
s= {
ur s
De sc
require ment
valueĠ ofĠ
Pass word
ä ¼
tree .
8x 8
4 /
Ġ=Ġ_ link_function('gl
J P
proces singĠ
Tuple [
importĠ torch.
men tion
sĠ %}
con f.
Ġ cf==1ĠĠ
cer tifi
YY YY
I g
ent ri
error .
JSON Ġ
r ating
9 ,
M app
f fĠ
item s
year ,Ġ
Numb er(
Ne wĠ
77 820
R Ġ
f g
9 Ġ
0] )
] ["
ĠĠ#Ġ type:Ġ
S UB
fin d(
( event
top icĠ
ĠĠĠĠĠĠĠĠ self,
ĠĠĠĠĠĠĠĠĠĠĠĠ this.
Sh ort
ĉĠ*Ġ@paramĠ{Number }ĠĠĠTheĠ
transform :Ġ
ĉvarĠd1Ġ=ĠDate.parse ("
ĠĠĠĠĉa 65
sen sor
Inter face
Dou ble
ff set
) Ġ=Ġ
cur ve
sklear n.
param s
par singĠ
url lib.
5,Ġ 4,Ġ
trajector y_
20 2
Lo op
3,Ġ 4,Ġ
ĠĠĠĠĉa80 8955934
ĠĠĠĠĠĠĠĠ }ĠelseĠ{
=None )
Defini tion
F OR
self. assert
spli tĠ
translate(" MainWindow",Ġ"
X -
6 89
9 );
evalu ate
Ġ=Ġ len(
<< Ġ"
background :Ġ
ĠĠĠĠĠĠĠĠproc.set_input_ tuple
c mp
trans form_
los s,Ġ
Config uration
youĠ areĠ
} _
EC K
& gt
3 Ġ=Ġ32Ġ;
N ull
fromĠ .ĠimportĠ
ext ent
guide /
an a
token ,Ġ
ĠĠĠĠĠĠĠĠ os.
' llĠ
- %
ĠĠĠĠĠĠĠĠ print
"Ġ value="
0000 00
D SS
ab lyĠ
in te
model s/
ize d
( X
enum ,ĠGL
] ),
hasĠ aĠ
$ scope.
p Ġclass="
defĠ main
libr ary
shape _
80 211
rendere r
ĠĠĠĠĉa1 50
c id
ĠĠĠĠĠĠĠĠĠĠĠĠ continue
tr y_
fa st_
1. 0Ġ
web _
can notĠbeĠ
Op tim
Edi t
I so
^ {
F UN
RE T
os. get
source .
< strong>
</dd> </dl>
AC TION
libcity.model.traffic_flow_ prediction.
und le
ĠĠĠĠĉa1 39
04 6
manag er
s __
{ 1}
Ġ=Ġ ['
mis sing
entr y.
function (){
De te
.get Element
å ½
æ ¨
/// ĠĠĠĠ
1Ġ=Ġ 10;
dire ct_
ĠĠ__ret Ġ=Ġ
pyedbglib. protocols.
ĠĠĠĠĠĠĠĠĠĠĠĠĠĠĠĠĠĠĠĠĠĠĠĠĠĠĠĠĠĠĠĠĠĠĠĠĠĠĠĠ Ġ
Oper ator(
__webpack_require__ )Ġ{
5 /
ĠĠĠĠ xĠ=Ġ
ĠĠĠĠĉa 50
lĠ importĠ
_id ":Ġ"
include _
importĠ datetime
to -
objectĠ toĠ
ä¸ º
Size (
an y(
CH AR
è¡ Į
' })
mo st_
() ).
_ w
ĠĠĠĠĠĠĠĠĠĠĠĠ x
ph ysi
E P
sub tra
elseĠ ifĠ(
mm ingĠ
N ING
require ("
84 8
publi c_
path (
S ample
encod er
G RE
P <
in divid
sĠthatĠ areĠ
ValueĠ Suggestion
ĠĠĠĠĉa 28
ac ro
I dĠ=Ġ
invo ke
Ext ension
direct lyĠ
'][ nextState
QtCore. Q
R P
ĠĠĠĠĠĠĠĠĠĠĠĠĠĠĠĠ <td>
Er r_
Manag er.
3 ;
py buffer
25 ,Ġ
cĠ importĠ
sto ck
geo me
-MM -
da y_
templateĠ <
log in_
ĠĠĠĠdefĠ_ get_
/usr/include /
mo st
bottom :Ġ
Arra yĠ
j i
s b
#Ġ UnlessĠrequiredĠbyĠapplicableĠlawĠorĠagreedĠtoĠinĠwriting,Ġsoftware
no mi
Culture Info
à ½
ĠĠĠĠĠĠĠĠ ----------
uint 8
tryĠ toĠ
WHER EĠ
de vice_
+ 0
p ĠinĠ
vide o_
syn ta
å® ļ
Orig in
s,Ġ "
read (
img ,Ġ
+-+- +-+-
0 );Ġ\
2 89
7 68
n d_
do mainĠ
class (
vo te
_P RE
bod y.
conv olution
wr ong
0,Ġ 1,Ġ
Ini tialĠ
dim )
[key ]Ġ=Ġ
argparse .
issu eĠ
ĠĠĠĠĉa1 11
str ):
abo ve
-Ġ -Ġ
result s.
se cre
B IT
HTTP Ġ
estimat or
H ouse
ĠĠĠĠĠĠĠĠ };
pr un
G re
ĠĠĠĠĉa 87
mis singĠ
ä¸ į
Stand ard
h ar
t l
ĠĠĠĠĠĠĠĠĠĠĠĠĠĠĠĠ varĠ
Ex pr
sĠ=Ġ[] ;
ä ¿
ĠĠĠĠĠĠĠĠĠĠĠĠ p
valid ation_
s[ 2]
token (
',Ġ' --
atĠ leastĠ
color ="
8 34
statu sĠ=Ġ
LO AD
change d
ĉ ĠĠĠĠĠĠĠĠĠĠĠĠĠĠĠĠĠĠĠĠĠĠĠĠ
L iter
Ker nel
li sion
chil d.
ĠĠĠĠĠĠĠĠ l
trueĠ ifĠ
en v_
call able
Sa ve
mo re
Comp uteĠ
forĠ(varĠ iĠ=Ġ0;ĠiĠ<Ġ
F E
t gt_
ce llĠ
En tity
ĠĠĠĠĉa10 50
django. contrib.
can _
AC H
Char Field(
i )Ġ{
,Ġ u'
uni form
ĠĠ TheĠ
on ceĠ
J ap
</ strong>
proper ties
MIT Ġ
7 _
"Ġ andĠ
ì Ŀ
abili ty
g rp
file path
v 1.
sĠ haveĠ
uni t_
msg Ġ=Ġ
">Â¶</a> </dt>
element s
| Ġ**
d st_
github .
ma k
it ('
ĠĠĠĠ globalĠ
target .
Local izer.
Mar k
ĠĠĠĠĉa1 79
code Ġ=Ġ
ĠĠĠĠĠĠĠĠĠĠĠĠĠĠĠ '
vis u
Memb er
ĠĠĠĠĠĠĠĠ output
,Ġ 1.
ĠĠĠĠ url
si c
data )Ġ{
dat at
ĉĠ*Ġ@returnĠ{ Boolean
gra y
ĉĠĠĠĠĠĠĠĠ varĠ
B M
vir tu
re set_
noi se
re allyĠ
ci p
of fĠ
! ")
w x.
wel lĠ
"Ġ type="text/
79 5
ĠĠĠĠwithĠ open(
bro ad
warning s.
ĠĠĠĠĉa80 8
exports,Ġ __webpack_require__)Ġ{
function(module,Ġ exports,Ġ__webpack_require__)Ġ{
end or
)Ġ==Ġ '
sm allĠ
12 .
ĠĠĠĠĠĠĠĠĠĠĠĠĠĠĠĠĠĠĠĠĠĠĠĠĠĠĠĠĠĠĠĠ ĠĠĠĠĠĠĠĠĠĠĠĠĠ
17 7
æľ ī
n f
label s_
dropo ut_
orient ation
âĢ Ļ
$D .get
common .
z Ġ
stru ct.
this [
ä» ¶
B ig
1, 1,
proc. get_output_
ifĠ weĠ
bin ding
usingĠ aĠ
Name d
GI VER
f reeĠ
n il
py lint
DI S
id (
list :
ĠĠĠĠĉa 74
identi ty
GIVER EF
In t(
__pyx_ memoryview_
der iv
correspon d
LO W
se ver
ĉĉĉ ifĠ
I SE
loc ationĠ
B attle
b atche
re ge
sĠ >Ġ
optimiz er.
S tri
use d.
module _
[i ])
whereĠ theĠ
dĠ forĠ
DAT E
QU EST
ĠĠĠĠĠĠĠĠ s
ad o
ĠĠĠĠĠĠĠĠĠĠĠĠĠĠĠĠĠĠĠĠ ifĠ(
ĠĠĠĠĠĠĠĠĠĠ returnĠ
group s(
month s
expr .
Sp lit
ĠĠĠĠĠĠĠĠ required
inclu dingĠ
Wh ite
__PYX_ERR (1,Ġ
Alig n
erĠ andĠ
c 3
Ġ=Ġ plt.
.java :
ĠĠĠĠĠĠĠĠĠĠĠĠĠĠĠĠ #
_CO L
yĠ inĠ
== '
cell _
moment (
disc ord
ĠĠĠĠ g
request s.
Argument Parser
Met adata
vi ces
10 );
Z Z
15 5
2Ġ=Ġ 7;
capt ure
',Ġ {
mi -
__name__ )
\3\2\2\2 \u0
Con stru
sup pli
ar _
asser t(
pyxb.utils.utility.Location( u'/home/
copy rightĠ
7,Ġ 6,Ġ
qu ick
is n'tĠ
re s_
3,Ġ2,Ġ1,Ġ 0);
sn ap
Sto re
x label
definition ">Â¶</a></dt>
lead ingĠ
"Ġtitle="PermalinkĠtoĠthisĠ definition">Â¶</a></dt>
c 1
') );
{} ,
contain ingĠtheĠ
copy .
medi ate
'Ġ %}
key s(
- n
. ui-
V O
Di ction
f aĠ
key s():
TH E
os.path. abspath
ĠĠĠĠĠĠĠĠelifĠ self.
C ance
ctĠ theĠ
LL LL
libr aryĠ
develo per.
ĠĠ |Ġ
ĠĠĠĠĠĠĠĠ update_
re alĠ
lay out_
metri c_
compo sition
ĠĠĠĠĠĠĠĠ except:
te d,Ġ
s. get_
um ent_
classĠ _
to do
ac tivi
che m
auth .
',ĠNone,Ġ [
k,Ġ vĠinĠ
#Ġ LicensedĠunderĠtheĠApacheĠLicense,ĠVersionĠ2.0Ġ(theĠ"License");
cor ner
func (
P ack
ifĠ itĠ
encod er.
ĠĠĠĠdefĠ__repr __(self):
0 ):
util s
m n
field. Ġ*/
2 39
ĠĠĠĠ dataĠ=Ġ
,Ġ thisĠ
Re serve
45 3
R en
ĠĠĠĠĠĠĠĠĠĠĠĠĠĠĠĠ </td>
Object Name("
{%Ġ endifĠ
s |
por t.
clu ster_
P ort
g ht
s ])
pa st
16 /
12 00
), ĠĠ#Ġ
du ce
pri mitive
E v
An y,Ġ
7 -
mu chĠ
value );
âķ Ĳ
ĠĠ PyObjectĠ*
format ,Ġ
integ r
In st
.shape [0]
f m
</a >Ġ
mean sĠ
ĠĠĠĠĉ }
ĠĠĠĠĠĠ });
ĠĠĠĠĠĠĠĠĠĠĠĠifĠ isinstance(
int,Ġ default=
[i ]Ġ
date .
doub le_
é Ĺ
13 0
random.rand int(
2 20
fi xĠ
Vide o
check box
bar Ġ
length )
ĠĠĠĠĉa6 50
. css
S end
in struction
conta ct
he re.
per sist
ĠĠĠĠĠ '
stro ke
Fir stĠ
( functionĠ(
3 0,Ġ
e mo
s= True)
Symbol Ġ=Ġ
C ,Ġ
cur r
B itĠ
æ Ŀ
le ss
N D
W IN
n on_
Ġ*ĠĠĠĠĠ cdefĠ
process ing.
co reĠ
load ingĠ
ĠĠĠĠĉa4 8
Ste p
low er(
d 3
temp or
speed_ prediction.
res pe
AL LĠ
v ingĠ
à ¦
ĉ ĠĠĠĠĠĠĠĠĠĠĠĠ}
oth er,Ġ
faile d
I ma
à °
ofĠ shapeĠ
ag o
- link
size ()
exp ire
R ot
dĠ withĠ
Re move
;Ġ iĠ<Ġ
cor pu
scen ari
I T_
re fĠ
at .
su ite
( Ġ'
orĠ notĠ
in spe
through Ġ"
:Ġ AĠ
</span><spanĠclass="o"> .
e Ġ=Ġ
pa g
ĠĠĠĠĉa7 39
docutil sĠ
B L
__ ovldĠ__cnfnĠconvert_
K Ġ
detail s.
coordin ateĠ
fil le
. json
ĉ ĠĠĠĠvarĠ
sen der
Par t
Bod y
( str
B y.
pick le.
as c
com mentĠ
memory view
h l
Config (
_m m_
test s.
'] ))
list [
ĠĠĠĠĠĠĠĠ ..Ġ
ĠĠĠĠĉa 89
py plotĠ
width ='
_inter val
Ġ=Ġ pyxb.binding.
ĠĠĠĠ ĉĉ
sĠ=Ġ {'
ĠĠĠĠĉa1 18
ĠĠĠĠ' 24
ĠĠĠĠ} )
isĠnotĠ None
"Ġheight=" 16
ĉĠ*Ġ Example
ĠĠĠĠĉa1 43
priv ate_
th reeĠ
SE Ġ
å ŀ
ĠĠ /*Ġ"View.MemoryView":
39 ;
comp areĠ
<tdĠ data-
_ url
optim ize
astype (np.
WOR D
ĉ Date.today().
De velo
LE D
ĉ$P .
! ==Ġ'
5 f
S in
Error :Ġ
37 0
_t ask
margin :Ġ
#Ġ SeeĠtheĠLicenseĠforĠtheĠspecificĠlanguageĠgoverningĠpermissionsĠand
}Ġ [
E achĠ
s *
. "
ĠĠĠĠĠĠĠĠ y
ad ded_
me ter
( g
_ h
12 3
label Ġ=Ġ
meth :`
evalu ator
trigg er
#Ġ limitationsĠunderĠtheĠLicense.
time )
En dĠ
se ek
erĠ inĠ
NO TE
di l
df ['
save (
2 b
A ME
#Ġ distributedĠunderĠtheĠLicenseĠisĠdistributedĠonĠanĠ"ASĠIS"ĠBASIS,
all y,Ġ
19 8
dynam ic
token izer.
war n_cell
save ()
pyxb.utils.utility.Location(u'/home/ rst/vcs/openmtc-python/serializers/openmtc-onem2m-xml/xsd/v1.3.0/CDT-
ĠĠĠĠĠĠĠĠ {"name":Ġ"
()Ġ =>Ġ{
= 0)
)Ġ==Ġ 0:
Mas sĠ
7 59
w ell
like li
tic alĠ
ĠĠ ifĠ(!
channel _
At ta
star ted
ĉĉ" %
)?/ ",
d on
h adĠ
'Ġ :Ġ'
bet terĠ
Full Year
Re act
ĉĉĉ }ĠelseĠ{
_F ILE
" $
ĠĠĠĠĠĠĠĠĠĠĠĠĠĠĠĠ pass
29 267
categor yĠ
_ URL
python _
erĠ forĠ
maxim um
Linear (
t we
de limiter
#Ġ WITHOUTĠWARRANTIESĠORĠCONDITIONSĠOFĠANYĠKIND,ĠeitherĠexpressĠorĠimplied.
sor ted_
IĠ canĠ
<codeĠ class="
',Ġ [
vari ant
sv g
place hold
long) digit
B i
check ed
mp _
ĠĠĠĠĠĠĠĠĠĠĠĠ(r' (
asci i
ĠĠĠĠReturn s:
D ST
per c
':Ġ {'
Exception ):
con trib
stati stic
Num er
At trib
F Ġ
all y
addres s
Qu anti
"Ġheight=" 24
warn_cell _id":Ġ"
1 10
1 )Ġ+Ġ
disable =
( this.get
unit test
7,Ġ6,Ġ 5,Ġ4,Ġ
en -
dict ):
dĠ=Ġ False
N C
s qu
ĠĠĠĠĠĠĠĠ .
valid ationĠ
datetime. now
memor y_
,Ġ 1,Ġ
17 ;
whi le
CO PY
ĠĠĠĠĉ if
De sign
lib/python 2.
TEXT URE
re ward
{%Ġend blockĠ
,Ġ -
py ",
** kw
t. get
B aseĠ
On eĠ
---- :Ġ|Ġ:
D one
.png"Ġwidth=" 24
ĠĠĠĠ model.
read y
range (self.
stru ct_
T AR
Maybe Sequence[
d ;
f s
æĹ ¶
U singĠ
Ð »
fra c
su bo
e .Ġ
16 "Ġheight="16
5 0,Ġ
extra ct
build er.
.png"Ġwidth="24 "Ġheight="24
9 89
document ation
the m
edge _
99 204
DE LE
ĠĠĠĠĠĠĠĠĠĠĠĠĠĠĠ </tr>
.png"Ġwidth=" 16"Ġheight="16
{%ĠendifĠ %}
ĠĠĠĠĠĠĠĠĠĠĠĠĠĠĠĠ <tdĠdata-
ĠĠĠĠĠĠĠĠĠĠĠĠĠĠĠĠĠĠĠĠ <imgĠsrc="flags/flags-iso/shiny/
ĠĠĠĠĠĠĠĠĠĠĠĠĠĠĠĠĠĠ <tdĠclass="col-
ĠĠĠĠĠĠĠĠĠĠĠĠĠĠĠĠĠĠ <tdĠclass="col-desktop
ĠĠĠĠĠĠĠĠĠĠĠĠĠĠĠĠĠĠ <imgĠsrc="flags/flags-iso/shiny/
wy- nav-
mobile "Ġdata-order="
ĠĠĠĠĠĠĠĠĠĠĠĠĠĠĠĠ<tdĠdata- order="
ĠĠĠĠĠĠĠĠĠĠĠĠĠĠĠĠĠĠ<tdĠclass="col- mobile"Ġdata-order="
ĠĠĠĠĠĠĠĠĠĠĠĠĠĠĠĠĠĠ<tdĠclass="col-desktop "Ġdata-order="
ĠĠĠĠĠĠĠĠĠĠĠĠĠĠĠĠĠĠ<imgĠsrc="flags/flags-iso/shiny/ 24
Re place
Jap an
#Ġ youĠmayĠnotĠuseĠthisĠfileĠexceptĠinĠcomplianceĠwithĠtheĠLicense.
25 9
Import Error:
ht tp.
bo oleanĠ
group (
quer y(
std:: vector<
D R
Ġ=Ġ 16;
name );
e g
py 3.
size =(
ho o
CO UN
4 Ġ=Ġ33Ġ;
7 20
pa st_
':Ġ ('
ho w
ON Ġ
tool tip
85 3
loadĠ theĠ
task .
Contain er
] {
5 Ġ=Ġ34Ġ;
An not
Can notĠ
con sum
3 17
q t
doc string
syste m_
Ġ=ĠCFUNCTYPE( None,Ġ
",Ġ" warn_cell_id":Ġ"
'. split('_
optional ):Ġ
.png"Ġwidth="24"Ġheight="24 "Ġalt="
.png"Ġwidth="16"Ġheight="16 "Ġalt="
. val
F ig
å Ĩ
wi se_
laun ch
% s,Ġ
_id =
typeĠ ==Ġ"
åŀ ĭ
ste d_
[i ][
Numb er.
C G
ĠĠĠĠĠĠĠĠĠĠĠĠĠĠ '
appro pri
_ l
Ac ces
I dĠ
value s,Ġ
propos al
op ts
8x16 _t)
/ '
q ,Ġ
SOFTWARE Ġ
</span><spanĠclass="o">. </span><spanĠclass="n">
_t )Ġ__builtin_
W ,Ġ
Lo ader
exception Ġ
Ġ=Ġ QtWidgets.Q
{%Ġ ifĠ
(? P<
framework .
NL 80211
/ ,
jo int
Al ph
pyplotĠ asĠ
[ idx
b (
1,Ġ 0.
loop Ġ
Y ourĠ
ti al_
State .
OBJ ECT
de mo
ĠĠĠĠĠĠĠĠĠĠĠĠĠĠĠĠĠĠĠĠĠĠĠĠĠĠĠĠ '
mi t_
ĠĠĠĠ<aĠclass="referenceĠinternal"Ġhref="alfred3_interact. element.
V IDE
clu st
importĠ matplotlib.
= 2,Ġ
100 ,
01 "Ġtarget="_blank">
au ssi
use dĠinĠ
item ,Ġ
B yĠ
n py_
__pyx_ filenameĠ=Ġ
make dir
3 84
S el
ĉ "
ĉĉĉĉ ĉĉĉĉĉ
quanti ty
baseĠ importĠ
b enchmark
t in
message ,Ġ
h 5
on ly_
//Ġ =>Ġ
19 89
18 4
To (
Ġ=Ġ[] ;
i p.
#Ġ YouĠmayĠobtainĠaĠcopyĠofĠtheĠLicenseĠat
c sr
mask ,Ġ
https:// docs.
D_ AN
__pyx_v_ self
In Progres
s[ name
||Ġ !
li ve
erĠ isĠ
Mas sĠ=Ġ
nameĠ desc
acc umul
to l
expecte dĠ=Ġ
inst all_
</code> </pre>
s. add(
norm alĠ
intern alĠ
#Ġ GL/glext.h:
height Ġ=Ġ
callback Ġ
Star tĠ
8 Ġ*Ġ
sĠ onĠtheĠ
50 77
batch ,Ġ
bu ck
s[ j
Exception ("
ĠĠ /*Ġ"
&# 39;
importĠ tensor
ĠĠĠĠĉa5 6
1 "
ĠĠĠĠassertĠ len(
Ġ<Ġ a
Dire ct
- text
ĠĠĠĠĠĠĠĠ g
cre atingĠ
Ra di
( 3,Ġ
( tf.
1 ")
p ingĠ
25 6,Ġ
ValueĠSuggestion :Ġ
) [0]
P DF
'] ,Ġ'
test Ġ=Ġ
-l g
contain er.
#if n
'Ġ &&Ġ
ĠĠĠĠĠĠĠĠwithĠ open(
fromĠ__future__ĠimportĠ print_function
ĠĠ int
ĠĠĠĠĉa1 34
D N
o ct(
PO S
ate sĠ
#Ġ IfĠ
5,Ġ 0.
O FF
re stri
Iso topicĠ
importĠ {Ġ
pretraine dĠ
IsotopicĠ Composition
x. length
CreateĠ aĠ
AtomicĠ SymbolĠ=Ġ
AtomicĠ MassĠ=Ġ
StandardĠ AtomicĠ
RelativeĠ AtomicĠMassĠ=Ġ
% s/
ce .
0000 0
dict )
cs s/
and /
wri ttenĠ
ĠĠ#Ġtype:Ġ ignore
| '
+ 1]
de t
as sum
ç ½
De scriptor
ĉĉĉ "
position _
user Ġ=Ġ
Tot al
automati callyĠ
st i
20 Ġ
6 e
} ),Ġ
Se ar
er ci
UL E_
fail ure
GP IO
po seĠ
index )
se d_
ar m
d c
Ge o
14 14
Fire fo
M ut
Tran saction
+ 1)
2 10
g ran
se u
callback (
i fe
s_ in_
Re LU
tri edĠ
(f alse
ti c_
igno reĠ
6 88
I d(
M AC
ac countĠ
Image .
åľ ¨
O _
prior ity
Conv2 d(
ĠĠĠĠĠĠĠĠĠĠĠĠ yieldĠ
url .
suppor ted
aj ax
u ary
3 ])
D (
)Ġ +
)ĠforĠ xĠinĠ
Ã ¤
th ir
staticĠ__inline__ Ġ
æ¨ ¡
transpa rent
<dlĠclass=" pyĠ
1 ')
_ ĠinĠrange(
l ing
re positor
Valid ation
clean up
__ version__
message Ġ=Ġ
by groups(
net /
à ´
ĠĠĠĠĠĠĠĠĠĠĠĠ f
... ,Ġ
dir _
mis s
ĠĠĠĠ theĠ
Factor y
Director y
load er.
X .
pl ur
if y
P op
de v_
fi den
3 ">
name Ġ=Ġ"
cul arĠ
ifĠ self.
create d
Out putĠ
TT Localizer.
lib/python2. 7/site-packages/
config )
40 80
5 88
':Ġ ['
rowĠ inĠ
ĠĠĠĠ test_
se em
block .
element ,Ġ
0 22
t d
20 10
200 7,Ġ
Ac cess
L ear
String ,Ġ
è ¾
back Ġ
s[0] ,Ġ
ĠĠĠĠifĠ isinstance(
'Ġ+Ġ '
lea ve
AC E
o s_
si x.
work sĠ
abbrevi ated
N P
p s
pre fer
di sco
Ġ__ m
Conver tĠ
. join
24 04
clo seĠ
exter nal
width=' 100%
UR N
itĠ willĠ
ĠĠĠĠĠĠĠĠĠĠ <
19 26
cate dĠ
v m.
as pe
un squeeze
end ing
Util .
again stĠ
pyplotĠasĠ plt
( node
C LI
gg /
regist e
84 0Ġ=Ġ
ge d
x **
re act
sp id
ĠĠĠĠĠĠĠĠreturnĠ [
[' id
( batch_size,Ġ
input ,Ġ
C UD
ĠĠ display:Ġ
Auth enti
sho t
G EN
type :Ġ'
ID ,Ġ
dat alo
å Ģ
gi t_
i. e.Ġ
@pytest.mark. parametrize
6 /
ĠĠĠĠĠĠĠĠĠĠĠĠĠĠĠĠĠĠĠĠĠĠĠĠĠĠĠĠĠĠĠĠ ĠĠĠĠĠĠĠĠĠĠĠĠĠĠĠĠĠ
content ="
scale =
)Ġ*Ġ 5
matri x_
". join(
choi ces
fun cĠ
Ġ*Ġ self.
previou s
4 12
ĠĠĠĠ intĠ
class ,Ġ
so und
Ġ TheĠ
_ is_
action ='
ABILIT Y,Ġ
[: -1]
com men
content. Element
Ex c_
inher it
[] Ġ
produce dĠbyĠ
c map
with inĠtheĠ
cessor s
lo we
int ,
cur r_
align ment
sci py.
cellspacing ='0'Ġ
M er
2 19
ĠĠĠĠ m
10 57
exp lo
fix ed_
temper ature
app end_
{} ;
float _
df ,Ġ
conso le
ĠĠĠĠĠĠĠĠ test_
ĠĠĠĠĠĠĠĠself.assert Raises(
TODO Ġ
__m mask
Py Exc_
`` `
post (
Mid dle
GRO UP
border ='0'Ġ
AB LE_
ha ve
maske d_
no teĠ
87 34
hid denĠ
extra Ġ
e. g.
ç ±
15 4
description ='
ĠasĠ aĠ
D_AN ON_
ĠĠĠĠĠĠĠĠĠĠĠĠ awaitĠ
TER N
codeĠ isĠ
multi _
Con stra
C V
"Ġ &&Ġ
)? s?
afterĠ theĠ
. n
2 80
execute ()
\\ .
sq l_
timedelta (
C le
mask Ġ=Ġ
60 4
UL T
: ',Ġ
im _
Asser tion
MassĠ NumberĠ=Ġ
S quare
ĠĠĠĠĉa1 28
ĠĠĠĠĠĠĠĠĠĠĠĠreturnĠ True
Addres s
b old
00 Ġ
An gle
e ffe
t an
s,Ġ butĠ
pri me
resource s.
f b
auto ;
ĠĠĠĠĉa3 50
S af
size _t
isĠnotĠ aĠ
bi as_
_path Ġ=Ġ
ĉ 4
oneĠ ofĠ
+=Ġ '
.replace ("
h ard
l an
date ,Ġ
86 _64
0 :Ġ
mĠ importĠ
op ti
G Ġ
st ed
Name )
Time Span
( function(
@ @
M ER
com eĠ
1,Ġ 28
assert )Ġ{
include ('
_t)Ġ__builtin_ neon_v
Value (
factor y
lin u
top -
primar y_
UL AR
G ithub
forĠ iĠinĠ
off set_
_bi as
r m
exp licit
AC C
Cat alog
orĠ aĠ
20 5
iz ationĠ
quest ionĠ
Par ti
(f ,Ġ
fo ur
RO C
join t_
Element (
ĠĠĠĠSeeĠ Also
sĠ canĠbeĠ
trans formĠ
ĠĠĠĠĉa7 34
r ati
pr inter
info Ġ
torch. FloatTensor
_ NO
content -
oc curren
conti gu
',ĠNone,Ġ[ GL
":Ġ self.
ma c
TE MP
section Ġ
` ):
do ingĠ
** /
sys. stdout
clear _
lim itĠ
ate sĠtheĠ
True ),
idĠ inĠ
moz -
#pop '),
00 ",
bo ard_
sta ff
output )
Path (
\x00\x00 \x00
shoul d
cellspacing='0'Ġ border='0'Ġ
cellspacing='0'Ġborder='0'Ġ width='100%
r v
document .getElement
ĠĠĠĠĠĠĠĠĠĠĠĠĠĠĠĠifĠ self.
msg ,Ġ
MO DEL
Pa rent
ĠĠĠĠĠĠ .
+=Ġ "
c ator
en c_
version _info
pre>< code>
wh at
b el
class =
ig en
method ,Ġ
local eĠ
jQuer y.
call ingĠ
setup _
country Code
P add
] ,Ġ'
instance _
_CON FIG
c 0
OP TION
H y
get tingĠ
LanguageĠ ::Ġ
shape [1]
.py ",
token_type _id
app Ġ
64 88
Type Ġ=Ġ
s:Ġ '
$ Ġ
8 36
d s
return sĠaĠ
um eĠ
mk dir
b alance
count Ġ=Ġ
200 8
destin ation
Ġ==Ġ 9
55 5
IĠhaveĠ aĠ
"Ġ throughĠ"
quo ta.
Th is
]). format('
min -
pylint :Ġ
ĠĠĠĠĠĠĠĠ ax
ĠĠĠĠdefĠ__ str
e ffect
dire ctĠ
CO MM
M .
87 7
( y
ol eĠ
Call able
matplot lib
C am
spect r
ĠĠĠĠdefĠset Up
ret ,Ġ
output_ attention
ĠĠĠĠĠĠĠĠ properties.Schema
Ġ=Ġ properties.Schema
ret r
ci mal
html .
enable _
ĠĠĠĠĠĠĠĠupdate_ allowed
ĠĠĠĠĠĠĠĠproperties.Schema .
Ġ=Ġproperties.Schema (
sĠ to
label sĠ=Ġ
resour ces
SQ LĠ
33 0
&&Ġ( inputĠ==Ġ
(0,Ġ 0,Ġ0,Ġ
replace (
or t.
\d {
' )ĠasĠ
pre -
sr c.
0. 15
G N
ĠĠĠĠĉa1 27
ĠĠĠĠdefĠ is_
Model ,Ġ
e g.Ġ
in o
åı ĸ
re d.
ĠĠĠĠĠ -Ġ
Key Error:
UTF -8
2 38
s at
il yĠ
T A
b ash
200 4
djang o
( vectorĠ
= 0,
H al
P ay
ES S
th readĠ
df )
resour ceĠ
(' .
SĠ ORĠ
src /
cry pt
LINE __
ta u
moreĠ thanĠ
5 ))
function s.
",Ġ ""
_b utton
i i
astro py
b boxe
lib/python2.7/site-packages/ Cython/Includes/numpy/__init__.pxd":
< v8::
ĠĠĠĠ Examples
month ,Ġ
cn t
_MA J
R IGH
proces sing
ĠĠĠĠĠĠĠĠĠĠĠĠĠĠĠĠĠĠĠ '
R ole
se e
del t
staticĠ__inline__ Ġ__m
C l
H H
s mar
option sĠ
:Ġ" DSS
false ,Ġ
ĠĠĠĠ-------- ----
text =
",Ġ" #
34 2
bar .
d l_
ch r
") );
year Ġ
environ mentĠ
ĠĠĠĠĠĠĠĠĠĠĠĠ new_
Speci fi
"Ġaria- label="
np. pi
en .
image s/
( .
s.Ġ TheĠ
- moz-
a ctor
s. add
do t_
tuple __
P res
str ,
par a
ĠĠĠĠĠĠĠĠifĠ "
pl y
toggle ="
a 9
str .
config .get('
88 69
E Q
ĠĠĠĠĠĠĠĠĠĠĠĠĠĠĠĠĠĠĠĠ <aĠhref="https://www.worldcubeassociation.org/results/p.php?i=
6Ġ=Ġ 11;
ĠĠĠĠĠĠĠĠĠĠĠĠĠĠĠĠĠĠĠĠĠĠ <aĠhref="https://www.worldcubeassociation.org/results/p.php?i=
NAME =
Progra mmingĠ
ceĠ theĠ
metadata =
i18 n.
DIRE CT
pandasĠ asĠ
R ate
graph ic
mag ic
\r \n
)Ġ \
ĠĠĠĠĠĠĠĠ: typeĠ
la yĠ
List (
point s
AB EL
ĠĠĠ*Ġ TheĠ
te dĠtoĠ
Ex act
clear ()
6 _
softwa reĠ
åħ ¥
libcity.model.traffic_ speed_prediction.
[ 0:
27 04
ĠĠĠĠĠĠĠĠĠĠĠĠĠĠĠĠĠĠĠĠĠĠĠĠĠĠĠĠ "
attention Ġ
Response (
ĠĠĠĠĠĠĠĠ data
time sĠ
fon t_
concaten ate
ç± »
return sĠtheĠ
11 .
ĠĠĠĠĠĠĠĠĠĠĠĠ ),
one .
et si
change _
r uleĠ
Bo ol
ele m.
Ø§ Ù
token izer
param s(
method ="
_S UB
multip le
expor t_
SELE CT
re placeĠ
Re gi
list .append(
Id )
font- weight
basedĠ onĠtheĠ
faĠ fa-
( arg
al Ġ=Ġ
color :
x path
ac c_
spe cĠ
error :
frame ,Ġ
A nal
S he
pe t
"> Ġ
20 60
[1] Ġ=Ġ
Hel lo
sche me
S IG
[ 1;
node Ġ=Ġ
2 ',Ġ'
Ã ¶
s onĠ
s= {"
Pro ble
89 57
suppor t.
te le
ca use
8x8 _t)
</h 1>
Chil d(
and/ orĠ
B P
Oper ation
ti cĠ
lo w_
l ati
) ',Ġ
= _C
re cog
scri pt_
s':Ġ [
M u
P ie
i log
ct r
1, 2,
8 Ġ__
re sidu
12 5
å ±
ar ter
me mo
ang eĠ
Mod uleĠ
< AĠ
Node .
entr y_
epo chĠ
shoul d_
r type:Ġ
z r
er ',
ĠĠĠĠĉa 22
fromĠ sklearn.
D AM
bo t_
add on
List ,Ġ
x 1,Ġ
to k
que stĠ
(0,Ġ 0,Ġ
ĠĠĠĠ h
si l
index .html
vocab _size
line s
client ,Ġ
fromĠ__future__ĠimportĠ absolute_
t ):
se man
con version
(((( (a
CT D_ANON_
separ ator
Sa mp
fri end
,Ġself).__init__ (
un ion
label >
algorith mĠ
logger.debug ("
`,Ġ` optional
clo ud
cent erĠ
split ()
for ce_
s[ index
ap prox
ac count_
ĠĠĠĠĠĠĠĠforĠ iĠinĠ
Langu age
2 d_
ĠĠĠĠĠĠĠĠĠĠĠĠ });
Conver t
7 35614807
val )
mb er
n_ sample
token .
buil der
OR_ VERSION
u mp
moment([ 2007,Ġ
moment([2007,Ġ 1,Ġ28
b ul
u su
80 9
ĠĠĠĠĠĠĠĠReturn s
encode('utf-8 ')
( cls,Ġ
ĠĠĠĠ ...
res ,Ġ
text ):
_r ate
d ',Ġ
Ġ( __
sli ceĠ
byte s
d ll
kwarg s)
Ht ml
Datab ase
ĠĠĠĠĠĠĠĠĠĠĠĠ """
pa gin
ĠĠĠĠĠĠĠĠĠĠĠĠoprot.write Field
ĠĠĠĠ state
Lo gin
F ast
Wri teĠ
Howe ver,Ġ
_ translate("MainWindow",Ġ"
cl au
name ))
train ,Ġ
IMP LI
% H:
m ig
18 9
}ĠcatchĠ( e)Ġ{
A S_
1Ġ=Ġ 7;
sin (
toon town
_ NAME
importĠ random
0.5 )
à ¨
et c.
dĠ=Ġ True
position Ġ
<divĠ id="
S izeĠ
87 5
En v
_de lete
'] ),
tensor .
_B U
- f
ĠĠĠĠĠĠĠĠ Ġ*Ġ
sĠ=Ġ get_
'Ġ notĠinĠ
24 45
âĶĢâĶĢ âĶĢâĶĢ
% 20
g ath
mo d_
ic al_
np. nan
3 ],Ġ
: =Ġ
sen si
\\ d
prototype .
box- shadow
ĠĠĠĠĠĠĠĠself. conv
Py Err_
other wise
epoch _
P lot
se ason
on y
ĠĠĠĠĠĠĠĠ} )
(int );
j query
seed (
IsotopicĠComposition Ġ=
7 19
ro om
pro c
char *Ġ
( file
ra w.
Ġ=Ġ{} ;
( key
16 )
Ġ==Ġ 6
token _id
3, 3,
( float
padd ing_
pandasĠasĠ pd
w ill
0x 1
../../ ../../
GP U
)Ġ <=Ġ
expression Ġ
ĠĠĠĠĠĠ TheĠ
Ten sorĠ
ï¼ ļ
1 Ġ*Ġ
s= ["
input s,Ġ
LE F
T .
T C
U sage
sĠ "
Ġ==Ġ 10
sy sc
gener ated
st ->
it ter
fa ir
.p k
tensor (
>< br>
valid ate(
pd. read_
horizont al
< -Ġ
D S_
67 89
1057 229
De pend
ĠĠĠĠĠĠĠĠ# ĠĠĠĠĠ
parser. parse_arg
',Ġ None)
ĠĠĠĠĠĠĠĠĠĠĠĠĠĠĠĠĠĠĠĠĠĠĠĠ }
E ffect
response )
logger.info ('
LOC K
ver .
div .
ĠĠĠĠĉa19 049
contin u
ĠĠĠĠĠĠĠĠsuper().__init__ (
no translate
Ke yĠ
Gra d
sĠ atĠ
ĉĉĉĉ t.
comple teĠ
37 01
ĠĠĠĠ result
BU TĠ
simp lyĠ
Ġ=Ġ {'
check edĠ
AR CH
\0 33
Mini m
text- align:Ġ
/ bin/
= 2)
Polic y
ĉĉ Ġ*
Th enĠ
source ,Ġ
07 19
parseĠ treeĠ
Sph in
S R
T OR
type ":Ġ"
option >
22 22
haveĠ theĠ
offset ,Ġ
lear ningĠ
` _
re -
[ Required
fromĠ "
ĉĉĉĉĉ ifĠ(
VER IF
fromĠsymp yĠimportĠ
',ĠfunctionĠ( assert)Ġ{
ver te
",Ġ u"
. objects.
e b
data ;
lay out.
&&Ġ! this.
ENG TH
len _
cv2. im
S K
a 4
ĠĠĠĠifĠ args.
ne verĠ
æ µ
ĠĠĠĠĠĠĠĠassert.equal(moment([ 2011,Ġ
è ĩ
u be
ingĠ toĠtheĠ
2 ',
ĠĠĠĠĉa1 89
stylesheet "Ġhref="
class="field- odd
pybuffer nd_
. ",
M ENT
At ten
prob ablyĠ
you 'reĠ
ĉ< pre><code>
ĉĠ*Ġ@returnĠ{Date}ĠĠĠĠ this
G u
[0] Ġ
34 0
cache .
23 80
3701 1664
ĠĠĠĠ final_update
con f_
D jang
L et
dict .
Model Ġ
ori entĠ
_MA X
Upper Case
âķĲ âķĲ
StandardĠAtomicĠ Weight
ĠĠĠĠĠĠĠĠĠĠĠĠ .
Fore ign
ProgrammingĠ LanguageĠ::Ġ
H Q
et c
10 )Ġ/Ġ
value =
sto redĠ
gi ve
os.path.dir name(
v c
]Ġ +=Ġ1
bot tleneck
2 ).
In ser
AtomicĠ NumberĠ=Ġ
cla im
range .
statu s=
Be fore
AUTH OR
up perĠ
ne d
Se c
29 6
ĠĠĠĠĉa19 33
botto mĠ
S av
a inĠ
ĠĠĠĠ letĠ
0. 25
Co uldĠ
55 120
allow sĠ
un cer
ĉĉĉ g.
60 2
argument s.length
sĠ=Ġ ["
ĠĠĠĠĠĠĠĠassert.equal( start.
v or
æ ³
ĠtoĠ beĠ
< br
b il
__pyx_ v
char ge
h ub
F B
py n
ĉĉĉĉ /^
ax is_
error ("
67 45
x :
2Ġ=Ġ 8;
G ,Ġ
"Ġ type="
ĠĠĠĠĉa1 59
ĠĠĠĠĠĠĠĠĠĠĠĠĠĠĠĠĠĠĠĠĠĠĠĠĠĠĠĠĠĠĠĠ ĠĠĠĠĠĠĠĠĠĠĠĠĠĠĠĠ
Bu f
ĠĠĠĠĠĠĠĠproc.set_input_ tuple(
á Ģ
14 7
mode ,Ġ
ĠĠĠĠĠĠĠĠĠĠĠĠĠĠĠĠ exceptĠ
arg Ġ
%H: %M
3 15
F ree
O c
âĢĵ âĢĵ
o cc
Day s(
O SĠ
pylint:Ġ disable=
sĠ =
Re feren
2Ġ=Ġ 5;
parseĠtreeĠ producedĠbyĠ
ĠĠĠĠĠĠĠĠassert.equal(start. from(
89 1926
ValueError :
ize dĠ
'.split('_ '),
director ie
Ġ=ĠCFUNCTYPE(None,Ġ GL
represent ationĠ
Ob serv
ĠĠĠĠĉa213 8
aĠ parseĠtreeĠproducedĠbyĠ
ĠĠĠĠĠĠĠĠĠĠĠĠĠĠĠĠĠĠĠĠ )
we ak
map [
gui .
fig ureĠ
por tion
An dro
W C
it s
kernel_size =
B ACK
h at
item ['
ss l
identifi erĠ
moment([2007,Ġ1,Ġ28 ]).
ĠĠĠĠĠĠĠĠassert.equal(start.from( moment([2007,Ġ1,Ġ28]).
= $
coun t.
19 2
Parser #
ar y,Ġ
de c
sĠ=Ġ _
rot ation
fake _
er :Ġ
? >
weĠ areĠ
Uni code_
L DER
ĠĠĠĠ #defineĠ
2,Ġ 2,Ġ
ĠĠĠĠĠĠĠĠ AĠ
ĠĠĠĠĠĠĠĠĠĠĠĠĠĠĠĠ (
fi ct
20 )
plan es,Ġ
canv as.
s_ and_
input [
ĠĠreturnĠ (__m
r ath
ĠĠĠĠĠĠ constĠ
s,Ġ theĠ
message (
4 ))
Pro xy
ID _
request (
center ;
- 2.
ĠĠĠĠĠĠĠĠĠĠĠĠ >>>Ġ
font size=
extra ctor
ĉ ĠĠĠĠĠĠĠĠ}
ĠĠĠĠ Note
str Ġ
[0] ;
work InProgres
alph ab
Hour s(
Ġ=Ġpyxb.binding. content.Element
pro ce
Pro je
6Ġ=Ġ 4;
ĠĠĠĠĉa1 85
IT Y
ĠĠĠĠ resultĠ=Ġ
obj )Ġ{
sw it
- p
1. 5
move _
æ Į
= ['
J O
specifi ed
req .
ob serve
metadata .
è ¦
ĠĠĠĠĠĠĠĠĠĠĠĠĠĠĠĠĠĠĠĠ continue
goo dĠ
arg _
class Name
format .
struct ureĠ
k ca
IĠ wouldĠ
sele cte
iter ate
- r
sĠ willĠ
ĠĠĠĠĉa1 86
Lo s
promp t
mach ine
D ic
O nĠ
row ,Ġ
init_ oct(
[1] Ġ
ĠĠĠĠĠĠĠĠproc. init_oct(
ĠĠĠĠĠĠĠĠĠĠĠĠ result
war dĠ
tx tĠ
weekday s
path ĠtoĠ
Mo vie
an y_
con fiden
work space
cc cc
Faile dĠtoĠ
v a
æ Ń
mo te
sĠ=Ġ '
kwarg s['
conne ctĠ
6Ġ=Ġ 10;
ĠĠĠĠĠĠĠĠassert.equal(start.from(moment([2007,Ġ1,Ġ28]). add({
h d
62 3637
ED ,Ġ
s.get ("
V 1
seri e
Ver ilog
cro ss
ver ifi
comp ression
ĠĠĠĠĠĠĠĠ in
ĠĠĠĠĉa 54
tri al
span ='
k 8
l ;
di t
et .
Exception Ġ
55 2445
cache d_
] ):
sig mo
match ingĠ
Ordered Dict
( ['
) ">
importĠ pandasĠasĠpd
wa itĠ
IV E_
hel p_
4 >
argparse. ArgumentParser
ĠĠ uint
ĉĉ Ġ*Ġ
data ,
Ge ome
ĠĠĠĠĉa 25
url (
jo b.
enumer ate
Syste mĠ
Syntax **:Ġ`
cellspacing='0'Ġborder='0'Ġwidth='100% '>
asĠ anĠ
th erĠtheĠ
row .
nameĠ +Ġ
8 _
,Ġ ifĠ
ĠĠĠĠĉa1 44
ĠĠĠĠĠĠĠĠĠĠĠĠĠĠĠĠĠĠĠĠ<imgĠsrc="flags/flags-iso/shiny/ 16/
ĠĠĠĠĠĠĠĠĠĠĠĠĠĠĠĠĠĠ<imgĠsrc="flags/flags-iso/shiny/24 /
S or
i j
ĠĠĠĠĠĠĠĠ w
/ ",
'Ġ cellspacing='0'Ġborder='0'Ġwidth='100%'>
Ġ==Ġ 5
System Verilog
8785 27
853 878527
6 10
valueĠ ofĠtheĠ
ĠĠĠĠ P
69 29
[1] ,
classe s.
Click House
debu gg
lin space
output_ dir
cy thon
ĠĠĠĠ y
user -
max Ġ=Ġ
stand ard
sĠ !=Ġ
string }Ġ
_C L
are aĠ
ĠĠĠ*Ġ** Syntax**:Ġ`
me in
di an
34 35
memb er_
est im
c ingĠ
x mlĠ
Ġ==Ġ 8
ES SĠ
s By
ĠĠĠĠĠĠĠĠĠĠ //Ġ
ĠĠĠĠĠĠĠĠ constĠ
69 556
R S
69556 29
th is_
Se tĠtheĠ
wri t
down Ġ
debug ("
vl an
Ð º
é Ļ
ing /
ad _
Model (
retrie ve
sĠimportĠ *
Max im
h params.
ĠĠĠĠ =Ġ
)Ġ toĠ
16 57
35 34
anch or_
kin dĠ
noti ceĠ
7 50
ĠĠĠĠĠĠĠĠ //
ph i
__ Ġ=Ġ"
rie fĠ
down loadĠ
Constru ctor
U ,Ġ
ĠĠĠĠĠĠĠĠ x_
isĠ anĠ
sub plot(
dict [
late st
with out
F P
c w
ĠĠĠĠĉa10 6
U ST
] ])
e sĠtheĠ
,Ġ d
',Ġ help='
weight s_
bool :
} ',
a verageĠ
ĠĠĠĠĠĠĠĠ modelĠ=Ġ
Sp li
AA AA
Spa ce
C B
ĠĠĠĠ num_
con si
char Ġ__
youĠ wantĠtoĠ
LIMIT EDĠ
ĠĠĠĠĠĠĠĠĠĠĠĠĠĠĠĠĠĠĠĠ raiseĠ
asĠ tf
host ,Ġ
scre enĠ
DD Do
deci mal
O Auth
s 3
ra se
id :
BAS E_
tf ds.
mod al
Vi si
< code>
x )Ġ{
fra g
implement ationĠ
Sho uldĠ
Dro po
} ]
requi reĠ
meta var
Mix in
noti ce
a red
ĠĠĠĠdefĠ enter
that .
]ĠLT ',
Cr yp
s:Ġ [
ĠĠĠĠĠĠĠĠĠĠĠĠĠ r'
b um
t c
__ Ġ
Ġ=Ġget attr(
VIC E_
t utori
re ach
edi t_
It 'sĠ
Ġ=Ġ function()Ġ{
",Ġ type=
User Ġ
ĠĠĠĠ>>>Ġ fromĠsympy.
Default sĠtoĠ
forwar d_
whenĠ IĠ
ing )
(f )
proje ct.
middle wa
`` ,Ġ
( o
j un
byte s(
[:,Ġ :,Ġ
self )
be g
ffi c
exec uteĠ
1Ġ :Ġ
cent er_
imple mentĠ
char At(
Ge mein
< pĠclass="
G H
yĠ -Ġ
ĠĠĠĠĉa 822
ĠĠĠĠĠ Chat.
.h >
protocol .
"Ġ content="
#if defĠ
Gemein deĠ
ne ur
1Ġ /Ġ
Fa il
set Timeout
. m
. do
ĠĠ width:Ġ
Ġ==Ġ 7
allowe d_
Execu tion
ĉĉ }ĠelseĠ{
11 4
13 19
offset Ġ=Ġ
ĠĠĠĠĠĠĠĠ{"name":Ġ" GemeindeĠ
IN _
88 17
meta .
CYTHON_ USE_
P UT_
0] ,Ġ
======== ====
run ning_
_C _P
simple _
tru th
regular izer
= -
p -
eĠ inĠ
ofĠ anĠ
Bo x.
gl Get
memb er.
3 19
b ri
b itsĠ
32 (
day Ġ=Ġ
ĉĉreturnĠ this.
FI X
en ough
res ume
OR T_
attr ('
6Ġ=Ġ 5;
as sume
view s.
console. log(
1 +
sp .
pre ce
rai se_
(Ġ "
ĠĠĠĠĉa115 7
Fix ed
Middle ware
P .
ĉ ifĠ(
c_ int
0Ġ orĠ
fileĠ isĠ
view code
< ul>
Ð ¼
De cod
verti ce
Lim it
time outĠ
openmt c/
mut ation
T E_
en sureĠ
s_ from_
fromĠ toontown
time (
sĠareĠ notĠ
611 88
n th
Check ĠifĠ
Gener ateĠ
response. status_
_de vice
zo om
maj or
! --Ġ
25 2
100 Ġ
$P .
prox y
ĉĠ*Ġ@returnĠ{Boolean }Ġ
function sĠ
line arĠ
cm d_
%Y -%
ĉ </code></pre>
Ġ&&Ġ( (a
_ 2
AS K
sĠ=Ġ len(
oneĠ ofĠtheĠ
200 0
example .
WAR NING
#ĠĠĠĠĠ http://www.apache.org/licenses/LICENSE-2.0
ĠĠĠĠĠĠĠĠassert.equal(moment([2011,Ġ 0,Ġ
matri x.
form >
default :
ĠĠĠĠĠĠĠĠ a
==Ġ 0:
String IO
uni code_
left ,Ġ
produ ctĠ
Stat usĠ
handl er.
/vc s/
] ?
') ]
Ġ*Ġ cdefĠ
label =
55 55
openmtc- python/
25 45
label ='
st ud
sĠ v2
ch un
fi sh
),Ġ \
url_ for
ge titem
ing ',
ĠĠĠĠ data_
exp lici
setup (
develo p
/X SD
/vcs/ openmtc/
9 )
wh yĠ
]Ġ=Ġ None
request s
Text ,Ġ
tmp /XSD
kca /vcs/openmtc/
openmtc-python/ tmp/XSD
sĠv2 11/
kca/vcs/openmtc/ openmtc-python/tmp/XSD
kca/vcs/openmtc/openmtc-python/tmp/XSD sĠv211/
norm (
decor ator
REG ION
x 1_
ç ī
el ap
tool s
25 5,
sto re.
Bo ok
__pyx_ f
33 7
DDDo '),Ġ'
ĠĠĠĠĠĠĠĠ response
cli p_
bin ary_
Softwa re
el lip
useĠ aĠ
ele v
application/ json
8x 8_tĠ
</h 2>
d x
Config ur
on Click
de leg
war m
spa ce_
b and
set Ġ=Ġ
: meth:`
I Python
l h
ON G_
modifi ed
spr ing
ono my
< br>
ĠĠĠĠĉa1 35
wri tingĠ
template .
Goog leĠ
" )ĠasĠ
En t
,Ġself).__init__ ()
ĠĠĠĠdefĠ add_
Pri v
importĠ argparse
create d_
l t
ĠĠĠĠĠĠĠĠ yieldĠ
emp ty_
ĠĠĠĠ fig
sĠ thisĠ
sĠ=Ġ "
80 37
quer yĠ=Ġ
m adeĠ
la z
/** Ġ
ĠĠĠĠp 0.
dar k
_MAJ OR_VERSION
ĠĠ ///Ġ
Ex ist
type s
default sĠtoĠ
B Y
:Ġ' %dĠ
deta ch
7 18
Proces sor
350 700
math :`
syn chron
"Ġ <<Ġ
Data (
encoding s.
as semb
(( int
IN T_
ĠĠ forĠ
AT EĠ
scri pt.
_M OD
loa ded
w as
th ri
0] ,Ġ[
=True ),
info _
dataset s.
Class ('
number_ of_
0,Ġ0,Ġ 1,Ġ
ĠĠĠĠĠĠ </div>
session _
orderĠ toĠ
s s.
fromĠ tensor
De le
argument sĠ
ĠĠĠĠĠĠĠĠifĠnotĠ isinstance(
r )
yyyy -MM-
Ima geĠ
Ġ+Ġ 'Ġ
pla y_
e ase
l (
;Ġ then
self _
length _
EX T_
pool _
thresh ol
j _
bi tr
implement ation
requi res
< ?
F ind
content Ġ=Ġ
UN D
256 38
Dro p
ĠĠĠĠĠĠĠĠ -------
_ GET_
ĉĉĉ ifĠ(!
tri m
save fig
helper s.
) "
Cur sor
transp ort
342 25638
M i
Lo ck
sup er().
los sĠ
Fo o
9 15
ĠĠ *
ĠĠĠĠĠĠ <divĠclass="
Vol ume
6 -
s lot
ma st
numb er.
iĠ -Ġ
redu ction
Pi xel
sp ri
CON T
ĠĠĠĠĉa20 13
Ig no
2 e
ĠĠĠĠĠĠĠĠraiseĠNotImplemented Error
inter pre
minim um
er( __name__)
js -
title ,Ġ
multip li
_id ,
.j pg
:Ġ' [
Cap t
sp _
orĠ moreĠ
None,Ġ None
A )
[ 0x
ĠĠĠĠ u'
,Ġ 1)
state )
00000000 00000000
tv db
Classifi cation
\ d\
pe di
ĠĠĠĠ responseĠ=Ġ
is ,Ġ
106 2545
S L
W i
check sum
valueĠ toĠ
Lex er
;Ġ__pyx_ clineno
{%ĠendblockĠ %}
@ click.
P layer
produ ction
plug inĠ
( k
2 ],
y es
EN DĠ
plo t.
Option s
env /
Hal con
ĠĠĠĠĠĠĠĠ </
wri ter.
time.sleep (
until _
true ,
b ,
29 4
err ,Ġ
':Ġ 0,
fin dĠtheĠ
input )Ġ{
So meĠ
`ĠandĠ `
en ame
bo ardĠ
Ex it
IĠ don'tĠ
AR Y
comple tion
;Ġ__pyx_ lineno
Ġ=Ġ__ LINE__
;Ġ__pyx_clineno Ġ=Ġ__LINE__
3 ),
H igh
sĠ allĠ
32 8
image :Ġ
0Ġ &&Ġ
Le g
Union[ float,Ġ
android: layout_
re direct
)Ġ >=Ġ
(' --
pro c:
LI ABILITY,Ġ
sy s_
n ):
on (
Ti ck
larg eĠ
Regi str
lin al
DE X
linear _
sĠ intoĠ
Se cur
box es
Do main
,Ġ0. ,Ġ0.
1 ",Ġ"
ĠĠĠĠ width:Ġ
"Ġ "
ĠĠĠĠĠĠĠĠĠĠĠĠĠĠĠĠĠĠĠĠ break
Object }Ġ
sĠforĠ eachĠ
.js "></script>
æĪ Ĳ
;Ġ__pyx_clinenoĠ=Ġ__LINE__ ;Ġ
b c
Ñ ĭ
79 0Ġ=Ġ
289 3435
WIT HĠ
ĠĠĠĠĠĠĠĠĠĠĠĠ r
out er
Ġ=Ġself._ get_
rgb (
,Ġ 0)
pl yĠ
ju py
ĠĠĠĠĠĠĠĠ url
PY THON
668 2380
Punctu ation
6682380 58
ST ",
18 6
22 8
ĠĠĠĠdefĠsetUp (self):
1657 8037
L at
importĠmatplotlib. pyplotĠasĠplt
ex it_
11 Ġ
64 Ġ
_mm 512
ingĠ onĠ
De cimal
require(' ./
: ",Ġ
= self._
ĠĠĠĠĠĠĠĠ input
ValueError ):
ĠĠĠĠĉa6 57
coe fficient
I I
w c
Ġ=Ġ 10
20 67
ĉĉĉ self.
Mo ment
ĠĠĠĠĉa19 16
KE Y_
Trace back
ĠĠĠĠĠĠĠĠ<spanĠclass="glyph -
aniti z
ARRA Y
r ub
Config .
__pyx_filenameĠ=Ġ __pyx_f
%Y-% m-
ĠĠĠĠreturnĠ (
metho d_
floor (
virtu alĠ
en e
ĠĠĠĠĠĠĠĠĠĠĠĠĠĠĠĠ [
ĠĠĠĠĠĠĠĠĠĠĠĠ t
)Ġ :
inter section
long _description
ĠĠĠĠ filename
Ð ²
æĸĩ ä»¶
Lo ss
connection Ġ
importĠpy test
ĠĠĠĠ<aĠclass="referenceĠinternal"Ġhref="alfred3_interact.element. Chat.
P ush
per formĠ
cs v_
common _
ĠĠĠĠdefĠ__str __(self):
U S_
ĠĠĠĠ ['
ĠĠĠĠĠĠĠĠ max_
ac tivity
ĠĠĠĠĠĠĠĠ schema
:Ġ "Ġ+Ġ
track _
wra p_
. 5
qual ity
[1] ;
cry ption
nump y()
Hand leĠ
_ ,Ġ
GC N
i );
option sĠ=Ġ
remove (
29 7
true _
uint ,ĠGL
bili tyĠ
Ġ=Ġrequire(' ./
PyLong_SHIFT )Ġ{
h int
func :`
Pri or
ĠĠĠĠĠĠĠĠupdate_allowed =True,
_type ,Ġ
Sear chĠ
(i Ġ=Ġ0;ĠiĠ<Ġ
moun t
20 ,
der ive
) </td>
b ank
j )
pre dĠ=Ġ
">< iĠclass="
No tif
target Ġ=Ġ
_de tail
col- md-
ctype defĠ
( x_
s ong
DO WN
sq lite
mustĠbeĠ aĠ
ĉtĉfĉfĉfĉf ĉfĉf
c um
Ġ=Ġ """
un ordered_
__ a,Ġ
speci al_
TO _
"Ġtype="text/ css
ĠĠĠĠĉa 840
++ )Ġ{
YĠ OFĠ
RIGH TĠ
W ID
ong o
Al tern
ĠĠĠĠ C
åĪ Ĩ
STAR T
__ dict__
ĠĠĠĠĠĠĠĠĠĠĠĠĠĠĠĠĠĠĠĠ Ġ'
ci far
E LE
ut ure
los s(
memb erĠ
W S
option s)
assert_ calle
tĠ +Ġ
os.path.join (self.
:Ġ self.
returnĠ aĠ
Po inter
,Ġ_ Ġ=Ġ
:class:` ~
1 Ġ=Ġ32Ġ;
ç İ
si tyĠ
()Ġ forĠ
fet ch_
2 30
J ul
Res Net
)Ġ%Ġ14999 )Ġ%Ġ
id x_
T a
Ñ Į
wrapper .
gotoĠ __pyx_L1_error
h op
Ġ=Ġ 4
id den
CH ECK
s= (
De cor
comm unic
S core
ĠĠĠĠĠĠĠĠforĠ i,Ġ
tag Ġ
Fra gment
s. items():
lay er(
right sĠ
plan e
: %
y our
Ġ=Ġ 0.0
co or
pe ak
Le ftĠ
commit ()
6684 77
Ġ #Ġ
size ,
Pre di
p ull
er arch
ĠĠĠĠĠĠĠĠĠĠĠĠ defĠ
go al
content )
Ġ=Ġ_ .
Com ment.
extern al_
s ']Ġ=Ġ
ofĠ the
sor ted
cre den
sco peĠ
1Ġ=Ġ 6;
ma x,Ġ
Ġ+Ġ 1
where (
> ::
ĠĠ -webkit-
ĠĠĠĠreturnĠ {
exact lyĠ
diff _
transform ers.
typeĠ isĠ
a7 35614807
3 59
pe p
low er_
ing er
log o
vel yĠ
_index ,Ġ
cro s
I AL
** `
30 4449
NA ME_
Reg ion
ĠĠĠĠ modelĠ=Ġ
sa f
unsignedĠ long)digit
predi cate
colo ur
3 )Ġ
S HO
fe wĠ
previou s_
cal c_
batch_size =
rot ate
A ,
M ENT_
date Ġ=Ġ
",Ġ" --
ro i
nĠ -Ġ
sĠofĠ aĠ
METH OD
h u
n b_
code (
reg ularĠ
WhetherĠ toĠ
ĠĠĠĠĉa87 3933
type sĠ=Ġ[
ca st_
conne ct(
L Y
S our
` **Ġ
s= True
cu to
cat en
Dropo ut
r df
ĠĠĠĠ Py_
Window sĠ
3 86
indi cat
</span><spanĠclass="p"> ,
Toontown Globals.
? ?
__ extension__Ġ({Ġ\
Memb er.
8 55
ĠĠĠĠĠĠĠĠĠĠĠĠ include('
type ,
lat er
through ĠtheĠ
cal _
version ĠofĠ
dataset ,Ġ
network Ġ
ATTRS_o_ aiĠ
6 :
ĠĠĠĠĉa17 15
COL OR
,Ġ In
ER S
classĠ forĠ
client Ġ=Ġ
= 0.0
ĠĠĠĠĠĠĠĠĠĠĠĠĠĠĠĠ assert.equal(
el .
ĠĠĠĠdefĠ exit
asyn c_
Hel per
] )Ġ{
lim ite
pd.DataFrame (
class="field-odd ">
s ':
option s,Ġ
h g
x );
ĉ ĠĠĠĠĠĠ
2 a
2 ,Ġ'
_ VERSION
n n_
ĠĠĠĠĠĠ <li><aĠhref="
ĠĠ \
in c
id ='
object sĠ
pxĠsolidĠ #
__m 128
equival entĠ
[i ,Ġ
importĠ unittest
31 99
0 }
nameĠ ==Ġ'
useĠstrict ';
couldĠ beĠ
sub plot
Exec utor
ĠĠĠĠ path
-- -Ġ
name )Ġ{
location .
A rea
sĠ=Ġ True
ClickHouse Parser.
local /
white space
Child ren
int ro
Format ter
dtype )
</span> </a>
title Ġ=Ġ
* >
{ @
re ak
el Ġ
:: -1]
whichĠ theĠ
</h 3>
verif y_
å¯ ¹
day sĠ
R NA
par t_
_in d
read cr
day s
typeĠ ofĠ
s[i ],Ġ
pk g_
chang eĠtheĠ
c wd
.Ġ InĠ
No w
\u0 6
)ĠasĠ proc:
network _
Uni form
Ġ ë
Ad dition
InitialĠ value
( string
_ set_
Ġ <<Ġ
andĠ thenĠ
ast .
poly nomi
æ Ķ
test s/
shape Ġ=Ġ
think Ġ
1 D
_ ID
y ',
<AĠ NAME=
tensor _
sub string
weĠ don'tĠ
6Ġ=Ġ 7;
sys. version_info
Context ):
regist er(
x bm
AC K_
web Ġ
l g
fa ctorĠ
Ġ=Ġself. __
dim s(
makedir s(
al ong
gram mar
ĠĠĠĠ display:Ġ
23 88
_SE SSION
p in
ĠĠĠĠĠĠĠĠĠĠĠĠĠĠĠĠ return
cl s(
inĠ thisĠ
</ title>
value sĠareĠ
19 6
necess aryĠ
ĠĠĠĠĉa163 1062545
ProgrammingĠLanguageĠ::Ġ PythonĠ
Halcon Operator(
2 c
** ĠĠ|
Ho me
Context ();
ĠĠĠĠwithĠ HalconOperator(
ĠĠĠĠĠĠĠĠproc. execute()
loggerĠ=Ġ logging.getLogg
R T
ex tĠ
Ġ* =Ġ
12 345
execu tion
5 54
si an
wa ve
exp (
! ')
man ife
dataset Ġ=Ġ
Bo x_
categor y_
CE P
ProgrammingĠLanguageĠ::ĠPythonĠ ::Ġ
P E
v as
lo dash
andĠ self.
CSSĠ propertyĠ
2 F
ĠĠĠĠĉa1 20
Ġ+Ġ' /
ordin alĠ
&&ĠĠcf==1Ġ )Ġ&&Ġa
i Ġ=Ġ0
hasĠ noĠ
gment s.
ĠĠĠĠĉa14 30
literalĠ notranslate
docutilsĠ literalĠnotranslate
le af
ĠĠĠĠĠĠĠĠĠĠĠĠ nn.
oĠ importĠ
ĠĠĠĠĠĠĠĠassertĠ len(
dĠ inĠtheĠ
ĠĠĠĠĉa1 78
dir ):
j Ġ=Ġ
ĠĠĠĠĠĠĠĠĠĠ varĠ
__builtin_ ia
short cut
docutilsĠliteralĠnotranslate "><spanĠclass="pre">
1Ġ <<Ġ
shape =
it ,Ġ
ev eĠ
Vie w_
ĉ Ġ
ener g
H ,Ġ
] ),Ġ
.Ġ """
bin d(
wrap perĠ
09 09
Listen er(
ĠĠĠĠ *Ġ
s_ by_
tax onomy
32 9
request ):
collection sĠimportĠ
IM AGE_
G iv
non ce
Pr int
cro p
diag on
reserve d.
=_C ('
4 14
E MA
Ø ±
',Ġ function(
ation al
In line
Re lease
ment (
au g
f. write(
47 69
a ma
_name _
ast er
corre ct_
shif t_
Ġ=Ġre. compile
sĠ &Ġ
fromĠ OpenGL
36 8
transform (
boxe s.
Co re
hour Ġ
ĠĠĠ*Ġ** InitialĠvalue
subprocess. P
. id
F n
d ang
signe d
___ pyx_
re al_
Type d
.p atch
Ac cept
Down load
H pr
u sion
ĠĠĠĠ privateĠ
Ġ=Ġ ((a
ĠĠĠĠĠĠĠĠĠĠĠĠ $
:Ġ {Ġ
ri c
l -
ĠĠĠĠĠĠĠĠĠĠ "
16 _
oper ationĠ
em ;
std:: string
(*args,Ġ **kwargs)
pre dict(
ĠĠĠĠĠĠĠĠĠĠĠĠĠĠĠĠĠĠĠĠĠĠĠĠĠĠĠĠĠĠĠĠ ĠĠĠĠĠĠĠĠĠĠĠĠĠĠĠ
18 ,Ġ
color Ġ=Ġ
En viron
strateg y
adap ter
orĠ theĠ
config ["
En ableĠ
local Avatar
PY _MAJOR_VERSION
in trin
30 6
leg ac
decode _
<dtĠ id="
sen tĠ
token Ġ=Ġ
true ),
sche mas
/ =Ġ
:Ġ function()Ġ{
Tran sl
Su ffi
5 :
S B
}Ġ fromĠ'
parameter sĠ
dayOf Week
:Ġ https://
tex ta
criter ion
ĠĠPyObjectĠ* __pyx_t_
= 1e-
S aveĠ
ĠĠĠĠĠĠĠĠĠĠĠĠĠĠĠĠ ['
ra d
et ch
Pro file
stat s.
):Ġ TheĠ
ĠĠĠĠ author
</span><spanĠclass="p"> (
ĠĠĠĠĠĠĠĠĠĠĠĠ whileĠ
IC T
Handl er.
',Ġtype= str,Ġ
Mag ic
B rowser
ĠĠĠĠĠĠĠĠĠĠĠĠ -Ġ
ab or
3 Ġ=Ġ34Ġ;
=" utf-8
null able
Ġ //Ġ
Geome try
4769 300
D er
R ender
Ġ=Ġnp. random.
sqr t
Ma ke
resp .
moz illa
s[0] )
rp n_
[ t
f allback
35 81
medi um
array_ equal(
line- height:Ġ
tou ch
thri ft_
read ()
pass word_
connection .
(this ).
document.getElement By
Con ta
1 '
3 b
ref le
Reg ression
accurac y
notify. debug('
( Base
. navbar-
sĠ=Ġ False
26 5
choi ce(
(a ,Ġ
NO Ġ
there 'sĠ
C AP
ĉ voidĠcalculate_outputm
wh oleĠ
pk g
) ĠĠ
name d
Type s.
)Ġ+Ġ "Ġ
;Ġ__pyx_clinenoĠ=Ġ__LINE__;Ġ gotoĠ__pyx_L1_error
require sĠ
sk ipĠ
p id
Re ader
dict( type='
prox y_
L R
mat mul
model /
OR Y
List .
List <
observ ation
h an
orig _
command s.
Da yĠ
pd.read_ csv
ĠĠĠĠ caseĠ'
AL Ġ
__p 0)Ġ{
ĠĠ </ul>
11 11
ex t_
sh Ġ
close _
Ġ==Ġ33 Ġ&&Ġ(a
> =
:Ġ Sequence[
pe op
ĉĉĉifĠ( this.
time.time ()Ġ-Ġ
exc _info
1 a
4 33
Ñ ĩ
result sĠ
Tag (
compati bleĠ
` ,
src ,Ġ
Gra m
discord .
)) ))
os. list
channel Ġ
ln ("
ç½ ®
S can
[ v
e u
version ,Ġ
Me dia
As sign
instan ti
every thingĠ
ou ch
label s.
param s_
ration Time
gradient (
Iden tity
pre d,Ġ
obj )
None,Ġ u'
<codeĠ class="sig-
Cho ice
S cre
ad de
label s)
ĠĠĠĠĠĠĠĠĠĠĠĠĠĠĠĠ print("
,Ġ' #pop'),
year .
in_channel s=
453 99
ĠĠĠĠ `
Bin ary
abstract method
am _
mon itor
proto .
Comp are
contro l_
3 549
po stĠ
read er.
xml n
g b
pyx ":
å Ŀ
rend er(
ĠĠĠ*Ġ**InitialĠvalue **:Ġ`
: hover
G A
` ĠtoĠ
k a
function ,Ġ
_t uple
ĠĠĠĠparser.add_argument ("--
head _
_S et
( tmp
G ri
pa use
2388 45399
\x00 \
outĠ ofĠ
)? )?
useĠstrict ";
m s_
RE D
notĠ found
su mp
test -
spe ak
pyxb.namespace.ExpandedName( None,Ġu'
^ ^
12 7.
transform s.
materi al
parserĠ=Ġ argparse.ArgumentParser
6 55
M W
set ter
De bug
float )
NO T_
Syn c
pr in
secon d_
åĽ ŀ
è¦ ģ
S criptĠ
activ ation_
poly gon
self.assert Raises(
&gt ;
D um
{ $
record .
RET URN
contigu ou
32 .
ense mb
Node (
re as
ĉĉ forĠ
0. 4
62 33
Color (
) ',
a vi
f t.
typeĠ {
id xĠ=Ġ
us ing
argument s
ĠĠĠĠ<aĠclass="referenceĠinternal"Ġhref="alfred3_interact. quota.
CopyrightĠ (c)Ġ
dum my_
exper im
parser.parse_arg s()
)Ġ )
Sa fe
organ ization
que st_
RE SET
shape =[
Av ail
D ynam
contain sĠtheĠ
thereĠisĠ noĠ
3 ',
mod ul
ĠĠĠĠĠĠĠĠĠĠĠĠ(r' \
ma cos
In ĠtheĠ
0. 2
output s.
quer y,Ġ
63 549
goo g.
1 ',Ġ
MakeĠ sureĠ
ĠĠĠĠĠĠĠĠrequired =False,
P D
T or
dĠtoĠ beĠ
ret Ġ=Ġ
sp x_
5 15
S E_
get sĠ
16 .
this );
Con textĠ
IZ E_
Fl ask
b all
re st_
li cĠ
ne ut
IT E
col l
Par seĠ
ĠĠĠĠdefĠ__ call
FF 'Ġcellspacing='0'Ġborder='0'Ġwidth='100%'>
bod yĠ=Ġ
goog le.
bgcolor='#0000 FF'Ġcellspacing='0'Ġborder='0'Ġwidth='100%'>
<tableĠ bgcolor='#0000FF'Ġcellspacing='0'Ġborder='0'Ġwidth='100%'>
;Ġ__pyx_clinenoĠ=Ġ__LINE__;ĠgotoĠ__pyx_L1_error ;}
, ĠĠĠ
1 Ġ=Ġ34Ġ;
ĠĠĠĠ train_
is ().
end ,Ġ
dim Ġ=Ġ
proble m_
COPY RIGHTĠ
. f
ze _
np. arange(
que ueĠ
past_ key_
H AVE_
pass wordĠ
Ad min
duplic ate
O UTĠ
al most_
"> </div>
test ingĠ
DO CTYP
indi cate
8x16 _tĠ
in ation
re v
ĠĠĠĠĠĠĠĠĠĠĠĠ c
ĠĠĠĠĠĠĠĠĠĠĠĠ m
Py Err
ordin al
( data,Ġ
Per i
sm v
sever alĠ
json ()
ĠĠĠĠĠĠĠĠ_ ("
shared_ ptr
ĠĠ#Ġnoqa :ĠE
n nĠ
"" ,Ġ
isĠ toĠ
No tification
57 0
update d_
exception s.
ĉĉĉreturnĠ functionĠ(s)Ġ{
extension Ġ
incre ment
l ingĠ
ĠĠĠĠĠĠ ifĠ(!
Py_ None
log. info
_ Ġ=Ġ
y );
s. value
s[ k
Context (
timeout =
pra g
e pi
as_ mo
rect angle
M V
conne ct_
error ('
https:// developer.
bi t_
'. /
email _
noi se_
She et
ĠĠĠĠĠĠ {
sub stit
endĠ ofĠ
1 c
N Z
O bjectĠ*
Dim ension
1 =
M g
ĠĠĠĠ argsĠ=Ġ
ĠĠĠĠĠĠĠĠĠĠĠĠ break
ĠĠĠĠĠĠĠĠreturnĠ self
line s()
Ad am
3,Ġ2,Ġ1,Ġ 0);Ġ\
withĠ thisĠ
LO AT
ta inĠ
tran s_
24 00
feature s_
8869 604
2 Ġ=Ġ36Ġ;
M I
10 px;
back up
go od
gener atorĠ
over la
tim er
__all __Ġ=Ġ
/ static/
EC T_
ci te
enti fi
Get sĠtheĠ
classifi er
- right
error s.
ĠĠĠĠĉa19 4
value (
expr ,Ġ
Ġ==Ġ33 )Ġ&&Ġa
.re al
nee dedĠ
Content- Type
6 59
m ine
ĠĠĠĠĠĠĠĠĠĠĠĠ resultĠ=Ġ
<liĠclass="toctree-l 3">
polic y
h du
,Ġ youĠ
sp y.
Th atĠ
if yĠ
matri ce
On ly
trun cate
a-z A-Z
Po s(
Red u
á ŀ
10 _
f s.
ĠĠĠĠĠĠĠĠ model.
</span>Ġ<spanĠclass=" o">
separ ateĠ
;Ġ++ i)Ġ{
2 Ġ=Ġ35Ġ;
x iv
ĠĠĠĠ w
27 00
1Ġ=Ġ 4;
sli de
(input );
Statu s.
<liĠclass="toctree-l3"> <aĠclass="referenceĠinternal"Ġhref="
Ġ* ĉ
up gra
image )
_S ER
ĠĠĠ*ĠTheĠ **`
Lin u
ĠĠĠĠ symbol
config _file
dict Ġ=Ġ
tensor flow
ĠĠ content:Ġ"\
() .get
int ent
s[ 1:
Clas sĠ
basel ine
d ')
ç ®
as sign_
ST AN
84 4
Comp ute
Li b
ĠĠĠĠself. assertEqual(
( filename
r r
ab s_
yy y
P K
[ \
ba g
af ter_
\3 \u00
)Ġ ===Ġ
con side
sc at
Str ateg
norm al_
/ dev/
ĠĠĠĠĠĠĠĠ NumberĠofĠ
Ġ=Ġ (((a
version added
haveĠ beenĠ
likeĠ toĠ
Mapp ing
_ version
27 0
graph (
prefi x,Ġ
Provid er
$expor t.
2 85
O pt
` Ġ(
ĠĠĠĠ is_
user )
frame Ġ=Ġ
DES CRIP
defĠmain ():
, )
1 },
ĠĠĠĠ os.
86 3581
schema ,
Quest ion
p w
',Ġ function()Ġ{
æĸ °
den sity
Group Member.
startswith ("
L ABEL
ĉĉĉĉĉ "
long itude
f ("
à ¯
Re distribution
to_ dict
`` ĠisĠ
è¡ ¨
ĠĠĠĠĠĠĠĠ q
de st_
s[ self.
add ingĠ
pi ent
befo re_
id xĠ
04 7
radi an
ofĠ `
ä¸ Ĭ
voidĠ *
ĠĠĠĠĉa2 12
2 ")
text ="
Par ty
Util s.
prepa re
<dd> <p>
"Ġ %}
",Ġ self.
push _
Byte s
subo ffset
fix edĠ
R aw
kno w
icon Ġ
fn (
ĠĠĠĠ t.
fiel d,Ġ
sn ip
10. 9
Cance l
ĠĠĠĠĠĠĠĠ `
ĠĠĠ '
object (
false );
'ĠorĠ '
6233 11
- 3.
D ash
,Ġ .
di d
Ġ==Ġ 1:
s:Ġ List[
(b '
cast <
:Ġfalse ,
assert_calle d_
y_ true
famil y
_ static/
}Ġ );
TR ANS
cv .
sampl ing_
form- control
versionadded ::Ġ
1 "Ġ
o auth
vi te
sa y
relativeĠ toĠ
box-shadow :Ġ
I ',Ġ'
ĠĠĠĠ new_
con n_
=" true
addres sĠ
b )Ġ{
me l
features ,Ġ
datat ype
font-weight :Ġ
U _
DE P
58 30
åı Ĥ
Atten tion
t g
con d
ran ch
D C
ĠĠĠĠ s
1Ġ=Ġ 11;
W in
t ingĠtheĠ
al et
proble m.
5 -
G ui.
key s())
EN TI
backgro und_
readcr umb
te ch
url lib
a ',
m ute
statu s.
YY Y
8 /
O Ġ
:Ġstr )Ġ->Ġ
Forward Iterator
M ouse
)Ġ +Ġ(
ta g.
{} /
response (
navigation ">
scri ber
ãĢ ģ
Sum mar
expan sion
DOCTYP EĠ
inser tĠ
997 66
U ID
_ (
mo tion
Re questĠ
ist ic
D ig
arg s:
test ing
ĉĉĉĉĉĉ }
Char act
: ;
è §
inĠ enumerate(
back b
F low
w on'tĠ
ĠĠĠĠĠĠĠĠ input_
,Ġ inĠ
di ces
func Ġ=Ġ
gpu _
,Ġ f
name ':Ġ
Default :Ġ
: math:`
B .
Ġ=Ġ str(
clean _
7966 14
99766 237
: '
App end
EV ENT_
Ġ=Ġ r
out sideĠ
`Ġ orĠ
rgba (0,Ġ0,Ġ0,Ġ
- eĠ
dire ct.
5. 0
se eĠtheĠ
th o
float ]
1 'Ġ
j an
u s_
st ype
sĠ itĠ
id ':Ġ
up ĠtheĠ
EN C
primar yĠ
= {'
tr y.
ini tĠ
error )
ValueError ,Ġ
na il
remain ingĠ
p atche
:Ġ $
:Ġ MaybeSequence[
imp l
paren t,Ġ
pyxb.namespace.ExpandedName( Namespace
O T_
Ġ=Ġ a
he ap
idĠ ==Ġ
range ,Ġ
valueĠ *Ġ
[1] );
Key board
path =
.Ġ "
AllĠ rightsĠ
P IL
1,Ġ "
AT OR
mask Ġ
.add_ edge
3 Ġ*Ġ
T ableĠ
ĠĠĠĠ file
.Ġ ForĠ
:Ġbool ,Ġ
0 50
model )
over write
presen tĠ
dif fĠ
Expe ctedĠ
Quanti ty
à º
device -
handl erĠ
_string s['
",Ġ"warn_cell_id":Ġ" 807
\ "Ġ
arg typesĠ=Ġ[
tor ch_
ĠĠĠĠĠĠĠĠelifĠ isinstance(
Timezone Offset
mozilla .org/
bo ke
fromĠ collectionsĠimportĠ
modifi cation
expand_ dims(
ĠĠĠĠĠĠĠĠself. set
STR U
CS V
ĠĠĠĠĉa 29
1Ġ=Ġ 9;
[ 0,
pe at
ĠĠĠĠĉa 44
th ree
iĠ+Ġ 'Ġ
ĠĠ__retĠ=Ġ __builtin_shufflevector(__
( s
Ġ=Ġ 5
"Ġclass=" btnĠbtn-
Info .
(- 1)
filte red_
: ]Ġ=Ġ
pre vent
], ĠĠĠĠĠĠ
modifi edĠ
</ A
SS L
out_channel s=
>Ġ .
f ur
in -
au ti
æ ±
ĠĠĠĠĠĠĠĠĠĠĠĠ name="
fa sĠ
day (),Ġ
module :
provid er
Ã §
ĠĠĠĠĠĠĠĠĠĠĠĠ b
</ body>
metri cĠ
appropri ateĠ
_ EN
ĠĠĠĠ --
s[i ]Ġ=Ġ
zone _
partĠ ofĠtheĠ
An g
\t \t
pipe line_
200 )
0x 00
pipe line.
foun dĠinĠ
k8 s.
* self.
as array(
co re_
False :
AN Y
ĠĠĠĠĠĠ })
count ,Ġ
multi -
THEĠ SOFTWAREĠ
ar y(
In form
15 Ġ
)Ġ>Ġ 0:
Ite m.
D T
ĠĠĠĠĠĠĠĠĠĠĠĠ </div>
padd ingĠ
staticĠ voidĠ
shared_ptr <
E B
Ġ=Ġ d
sup pres
_f n
Buff er(
0 ).
ĠĠĠĠĠĠĠĠĠĠĠĠ delĠ
app Ġ=Ġ
HO LDER
adv ance
fromĠ torch.
token s_
22 64
mode Ġ=Ġ
encode _
Disp atch
is ol
append ('
in a
Ġ*Ġ ctypedefĠ
form ul
\x1b [1;
t s_
post er
:Ġ"DSS COM
name :Ġ'
menu Ġ
åı ¯
j s.
':Ġ b'
back endĠ
3Ġ=Ġ 9;
W Ġ
_ ("
ĠĠ _
ĠĠĠĠĠĠĠĠ __
int :
False) ]))
Diff eren
pyxb.namespace.ExpandedName(Namespace ,Ġu'
7 86
ĠĠĠĠĠĠĠĠĠĠĠĠ ]
path ,
'Ġ+Ġ iĠ+Ġ'Ġ
xy z
C ir
s """
he al
<aĠhref=" /
task Ġ
(n ,Ġ
cuda ()
X )
d 5
code )
sub -
Gener ic
<! DOCTYPEĠ
Gram mar
me _
sp o
able .
allen nlp.
20 .
Cont ro
P lo
site _
. close()
Ù Ĭ
66 249
S :
ĠĠĠĠ l
,Ġ IĠ
pap er
AllĠrightsĠ reserved.
ation -
function ĠisĠ
(( __
s) );
_in dex_
0Ġ -Ġ
ĠĠĠĠĠĠĠĠĠĠĠĠĠĠĠĠĠĠ "
3625 66249
L AT
sĠ &&Ġ
s) ]
ĠĠĠĠĠĠĠĠĠĠĠĠforĠ iĠinĠrange(
moment um
Iter able
constan tĠ
feed back
c 4
y el
dĠ in
44 44
table Ġ=Ġ
Token izer
MER CHAN
spe c_
AS CI
Tex tĠ
FIT N
m x
po ten
typeĠ inĠ
.h "
é ¢
fromĠ keras.
bu s
20 px;
den o
pop up
åĬ ł
2 ",
n ap
th r
ĠĠĠĠĉa 75
param s=
war d_
ss l_
12 6
su re_
s'] ['
SP EC
LST M
-text ">
2 2,Ġ
T w
do cĠ
88 00
ĠĠĠĠĠĠĠĠĠĠĠĠreturnĠ self._
UR PO
MERCHAN T
F ORMAT
key ):
elseĠ None
`**Ġ CSSĠpropertyĠ
NUM BER
BUTĠ NOTĠ
915 555
Tr yĠ
sĠtoĠ aĠ
>=Ġ a
connection _
fasĠ fa-
B ad
ar xiv
prefi x_
DEFIN E_
C tr
_name ,
36 57
:ĠfunctionĠ( s)Ġ{
ä» ¥
boar d.
par allel
color ,Ġ
59 100
output_ hidden_state
ĉĉĉĉĉĉ //Ġ
any thingĠ
err _
Text ure
lambda :Ġ
& Ġ(
k b
get ter
plat formĠ
S ql
\ 4
c p.
,Ġ' r
mark down
ju mp
tq dm
get attr
enti reĠ
_F IL
expecte d,Ġ
Ne g
ĠĠĠĠĠĠĠĠ< li>
/ data/
A li
T )
de al
action=' store_true
m irror
s From
ti cal
sm -
s)Ġ >Ġ
n p_
s To
u short
ut ter
vo ice
200 ,Ġ
Anim ation
( **
( input_
C lear
b ',Ġ'
ĠĠĠĠ ),
Ġ=Ġ args.
parse d_
web .
seg ment_
i <
w ild
sub reddi
gen ome
CYTHON _F
Dri ver
. add(
4 64
ĠĠ #endif
ĠĠĠĠĠĠĠĠ if(
ĠĠĠĠĠĠĠĠĠĠĠĠĠĠĠĠĠĠĠĠ <
ph pĠ
dtype= tf.
metric s.
M irror
ate .
Data set(
seri esĠ
strip ().
L ENGTH
} "Ġ
6Ġ=Ġ 9;
Micro so
a ',Ġ
sp ati
87 2
cs s_
[Required ]
over ĠtheĠ
gri dĠ
O UT_
referen ce_
ĠĠĠĠĉa32 40
Encod er
ĠĠ#Ġnoqa:ĠE 501
ĉ Date.
line width
Ro o
merge _
255,Ġ255,Ġ 255,Ġ
Unknown Ġ
t :
ĠĠĠĠĠĠĠĠĠĠĠĠ dataĠ=Ġ
me m_
ca ched
Ġ==Ġ33 Ġ&&Ġa
]).format(' DDDo'),Ġ'
ĉĠ*Ġ@returnĠ{Boolean}Ġ trueĠifĠ
macos x-
</A ><br>
ĉ 1ĉ
ĠĠ -Ġ
ate gor
sor tĠ
744 39
feed_ dict
YYY YĠ
59100 412
Ex ampleĠ
3Ġ=Ġ 7;
X PATH
te ll
search (
addres se
UP DAT
dis ableĠ
Sequen ce(
radi o
=0 ):
287 74439
9 3
_ R
ĠĠĠĠĠĠ },
'Ġ ||Ġ
ĠimportĠ *
seq_ length
2 3,Ġ
v 1
importĠ math
12 :
... ")
Exception ('
æŀ ľ
BUTĠNOTĠ LIMITEDĠ
0 pxĠ
å ¸
10 74
dir ty
spa wn
\u0 4
column s
ber t
( function()Ġ{
ent erĠ
ma ster_
Ġ=Ġ' 0'
Time Zone
mark _
? Ġ(
y o
Ġ=Ġ this;
en ableĠ
:Ġstr ,
fini ty
fon t.
removed@example.com >
Jo int
( nn.Module):
6 f
P e
ĠĠĠĠĠĠĠĠĠĠĠĠ <divĠclass="
name ]
ver _
13 5
ĠĠĠĠĉa7 82
confir m
ĠĠĠĠĉa782 863581
p b
å ī
ĠĠĠĠ S
ĉĉ /*Ġ
inter pret
spe edĠ
range _
\u0 64
Attribute Error:
dash _
access_ token
tm db
# 00
invent ory
al ar
ĠĠĠĠĠĠ }ĠelseĠ{
</span> </code>
Op enĠ
data_format =
De fineĠ
BU FFER
uti lĠimportĠ
| ĠĠĠ
":Ġ ["
image /
@pytest. fixture
I EĠ
label .
ĠĠĠĠĉa5 54
549 2700
WID TH
R ou
ĠĠĠĠ max_
input s["
,Ġ" w
File Path
7- macosx-
ĠĠĠĠ -webkit-
py3. 7-macosx-
: .
j j
w )
{: .
channels_ last
late x_
outĠ theĠ
ĠĠĠĠĉa15 99766237
ĠĠ__Pyx_X DECREF(__pyx_t_
I l
:Ġ" /
PAR TIC
pho to
fromĠ__future__ĠimportĠabsolute_ import
)) );
'Ġ =>Ġ
-1 ):
Li ke
mapp ingĠ
Sk ip
:ĠH Object
I d>
:Ġ aĠ
function _
log ("
node s
mu si
æł ĩ
ĠĠĠĠĉa554 796614
re sĠ=Ġ
te dĠbyĠ
39 0
dat as
__p 1)Ġ{
syste m.
cm d.
Af ter
determin eĠ
- to-
13 70
attr :`
ob s_
åŃ ĺ
re lev
ErrorĠasĠ e:
2264 165
. c
4 1
width _
staticĠ constĠ
gu ar
PARTIC ULAR
X Y
Ð ´
key (
day ,Ġ
=True ))
IP Ġ
4 2058
Re ct(
1Ġ <Ġ
curren cy
prop s.
abstra ct_
,Ġ toĠ
list Ġ=Ġ[]
ffff ff
42058 55
ent (
value :
100 07
decl are
ne are
_b it
web driver.
ĠP URPO
lit tle
! =
J av
con cept
name s,Ġ
1Ġ=Ġ 5;
AĠ PARTICULAR
DELE TE
W HE
ĠĠĠĠĉa 45
int 8
abili tyĠ
</ option>
OR DER
A Ġ=Ġ
c raw
co utĠ
di vide
]. append(
(value )
ab out
_size Ġ=Ġ
match ed
Wri ter
line sĠ=Ġ
ev id
()Ġ asĠ
Al low
encoding ='
boot stra
ç ¬
sha red
min ator
os. path
exe c_
s_ like
74 5
:ĠH Handle
instan ces
W A
trans forme
åĪ °
progra m_
numer ic
acce p
æİ ¥
k =
v r
re je
xml .
recor dĠ
ĠĠ int32
ĠĠĠĠ {'
ex pt
åĩ º
valueĠ forĠ
queue .
verif y
ddd dĠ
_mm 256
D on'tĠ
Libr ary
ĠĠ 0,Ġ
',Ġ' /
sa geĠ
33 49
element sĠ
L A
__Pyx_ c_
Mat che
DIR /
widget .
AĠPARTICULAR ĠPURPO
8 000
use d_
ationĠ isĠ
MO DE_
Instance (
\b riefĠ
#ifn defĠ
j d
z -
se qu
ĠĠĠĠĠĠĠĠĠĠĠĠ os.
Py BU
def er
sock etĠ
ĠĠĠĠĉa3357 78
p link
Ġ $
[2 ])
handl er(
] [0]
fromĠ datetimeĠ
level _
ThereĠ areĠ
27 75
_c ro
Tot alĠ
n er_
key s
bas icĠ
ĉ ĠĠĠĠ}
ĠĠĠĠĠĠĠĠĠĠĠĠ print
play er.
attach ment
(x ,
pand as
WOR K
åŃ Ĺ
Af terĠ
variable sĠ
thread _
cl s):
aĠ inĠ
sh util.
ca stĠ
point .
( P
A ug
Q _
S en
é ĥ
Base ):
gra m_
Back ground
plug in_
10007 23
re r
te (
war ningĠ
absol uteĠ
visible (
"+ str(
ĠĠĠĠĠĠĠĠsuper().__init__ ()
ONG_ LONG
> ;
p f_
ĊĊ ĊĊĊ
+Ġ 'Ġ
__ret ,Ġ
ĉ/** Ġ
M ac
',Ġ' ')
ST RE
coun terĠ
elseĠ '
second s,Ġ
job Ġ
JSON .
forwar dĠ
flush ()
anitiz er_
12 7
69 75
86 5
weight =
Norm al
ĉ( 10
) +
r xĠ=Ġ
s.length ;Ġi++)Ġ{
ĠĠ (
,Ġ POINTER(GL
0. 8
sen t_
AS E_
-x 86_64
In tern
Se gment
||Ġ this.
mil li
Create sĠaĠ
inputs_ embed
y ):
ĠĠĠĠĠĠĠĠ ========
this._ is
Fro mĠ
f st
g ain
stream ,Ġ
< void
ĠĠĠĠĉa 362566249
(" -
code :
info Ġ=Ġ
proto Ġ*/
doesĠnotĠ exist
GRE EN
ĠĠĠĠĠĠĠĠĠĠĠĠĠĠĠĠ {
areĠ notĠ
field s
tear down
cour se
s. ..
np. zeros(
day sĠ=Ġ
Col le
-1 ))
Ġ===Ġ '
forwar d(
f' {
yyyy ",
G ui
sh r
16 Ġ__
line :
curren t.
document.getElementBy Id
data ĠtoĠ
12 )
sub set
gen re
publicĠ classĠ
global_ step
metaĠ name="
De leg
execu tion_
Initial izeĠ
h "
w g
in place
27 57
bo un
20 28
ĠinĠ aĠ
0Ġ :Ġ
GE TĠ
arxiv .org/
need sĠtoĠbeĠ
=" 0
12 ,
find all
<p> <strong>
rgba( 255,Ġ255,Ġ255,Ġ
Setup Context
è İ
)Ġ /Ġ(
Re present
width :
gl Vertex
Sele cted
worl d_
H ub
16 40
Info (
xsd ',
3 :Ġ
)Ġ*Ġ 10)Ġ/Ġ
<d dĠ
s.append ((
. input
ĠĠĠĠĠĠĠĠĠĠĠĠraiseĠ ValueError('
PyObjectĠ* )
ro spy.
len )
In vent
*/ Ġ(
00:00 :00
creden tial_
10.9 -x86_64
py3.7-macosx- 10.9-x86_64
py3.7-macosx-10.9-x86_64 .e
O W
u k
name sĠ
title _
nn. BatchNorm
ä¸ ĭ
}} ">
int,Ġ GL
medi an
Vis ual
secre t_
( target
ĠĠ Ġ*Ġ@paramĠ{
re di
data );
channel .
lab ele
wr ongĠ
Eng ine
m sĠ
tri e
sys. path.
fold er_
ĠĠĠĠĠĠĠĠ file
new (
He re
ony mo
6 60
theĠ lastĠ
vari ousĠ
std:: shared_ptr<
__s anitizer_
z ip_
fro zen
18 79
pi x
regi onĠ
ĠĠĠĠĉa124 719
ĠĠĠĠĉa124719 2500
z h
so up
pack (
table ,Ġ
Sele ctĠ
Del ta
N ON
bar _
up dat
_size =
mark up
9 1
label )
mar ke
speci al
ĠĠĠĠĠĠĠĠĠĠĠ [0.
mock .patch
244 8800
ine d_
fromĠ allennlp.
0.5 ,
Bl ue
file sĠ(
pi vo
undefined ;
ĠĠĠĠĉa30 915555
USE Ġ
__builtin_shufflevector(__ s
<codeĠclass="sig- nameĠdesc
B )
j q
__ Ġ=Ġ'
_C heck
defaultĠ '
classifi cationĠ
7 36
B C
ĠĠĠĠĠĠĠĠĠĠĠĠ xĠ=Ġ
.Ġ The
':Ġ 1,
model s
EL LĠ
Note :Ġ
ĠĠĠĠĠĠĠĠproc.set_input_tuple (0,Ġ
:Ġ {}
lo ye
ĠĠĠĠĉa1 80
du eĠtoĠ
link .
progres s
3 e
sli m.
5 numpy_
y ',Ġ'
,Ġ p
char )
Label (
Ġ ĉ#ĠGL/glext.h:
name }
67 46
J un
_ k
t n
id ):
exception sĠimportĠ
ĠĠĠĠĠĠĠĠwhileĠ True:
' veĠ
18 5
multi processing.
},Ġ {
flowĠ asĠtf
DayOf Week
Ord in
ĠĠĠĠ printĠ
fromĠ direct.
'Ġ ifĠ
comp ose
gener ic
year Ġ=Ġ
AB C
2775 816
_ x
ĉĉ //
ation :
ro und_
15 :
13 6
element (
70 2
master /
ĠĠĠĠĉa88 5492700
ĠĠĠĠĠĠĠĠĠĠĠĠ num_
version _
95 22
Embed ding
p :
header s=
actu al_
</ tt
gen .
sump tion
{ \
Ġ=Ġ p
format ='
84 6
equal s(
Pipe line
(r' ^
.ĠĠ TheĠ
success ful
CouldĠ notĠ
ĠĠ __pyx_L
59 35
background- color:Ġ#
i sh
ĉĉĉĉ ĉĉĉĉ"
ĠĠĠĠdefĠ test
35 60
ĠĠ< linkĠrel="
d ):
sĠ whenĠ
fil lĠ
_P Y
enum Ġ
Finish Context();
taxonomy /
@ Ġ
ĠĠĠĠ IfĠ
re stĠ
ĉĉifĠ( Ġ
ĠĠĠĠ in
place ment
Firefo xĠ
sysc all_
writ ten
S i
å İ
function s
_de sc
description ="
encode (
lessĠ thanĠ
Numer ic
recog n
instance ,Ġ
=False ),
( n_
3 *
',Ġ' GL
Ad d(
inn er_
CultureInfo Ġ
',Ġ ['
',Ġ' collection
*args,Ġ **kwargs)
267 9522
:Ġ"DSSCOM _C_P
6746 8769
th ick
54 89
Fri end
8 57
ĠĠĠĠĠĠĠĠĠĠĠĠĠĠĠĠ yieldĠ
activ ate
Ðµ Ð½
ĠĠĠĠĉa 59100412
32 10
ĠĠĠĠĉa19 28774439
play er_
ä¸Ģ ä¸ª
v 1_3_0.xsd',Ġ
64 897
df [
solution Ġ
set Text(
ER Ġ
99 Ġ=Ġ33Ġ;
DO UB
tmp /
hy po
buck et_
' %s
34 07
)Ġ+Ġ 'Ġ
SER VER
. split('
C ity
auth orĠ
__ret ;Ġ\
publicĠ voidĠ
ĠĠĠĠself. assert
ĠĠ__ret ;Ġ\
Japan ">
x range(
un lessĠ
nameĠ +Ġ'
35 12
TO P
Proper tyĠ
component s/
ĠĠĠĠĠĠĠĠraiseĠ ValueError("
al so
sĠ betweenĠ
num Ġ=Ġ
module s.
2015 7
:Ġ"DSSCOM_C_P DS_
( q
C alle
ĠĠĠĠ if(
'Ġ \
19 7
Al soĠ
ĠĠ0,Ġ /*
r token(
ĠĠĠĠ counter
type ;
lay erĠ=Ġ
number }Ġ
lati tude
1 UL)Ġ/*!<Ġ
n py
',Ġ' -
32 32
gener alĠ
other )
safe _
data_format= data_format
) \
s '),
16 12
Se ction
17 18
54 569
ĠĠĠĠĠĠĠĠ all_
ea ch_
view port
" %
( N
R PC
ĠĠĠĠ T
,Ġ self).
Con so
1Ġ=Ġ 12;
54569 81
í ķ
encod ingĠ
logger. warning
methodĠ isĠ
ĠĠĠĠĠĠĠĠt. read
n ĠinĠ
re. sub
++ ++
fut ureĠ
aboutĠ theĠ
. data.
update dĠ
loop .
continue ;
d na
y lim
work flow
event ,Ġ
map Ġ=Ġ
arg s['
10 54
form s.
module -
first -
Norm aliz
ĠĠ__Pyx_RefNanny FinishContext();
< ulĠclass="
D L
u s.
it al
close d
__class__ .__name__
ĠĠĠĠĠĠĠĠĠĠĠĠ h
pro g
ĠĠĠĠĠĠĠĠĠĠĠĠself. __
24 64
);Ġ }
</span></em> ,Ġ
O M
ĠĠĠĠĠĠĠĠ default
mp .
69 47
_s at
Vi sible
histor y_
miss ing_
4 ),Ġ
æ Ģ
ĠĠĠĠĠĠĠĠĠĠĠĠ output
pretraine d
-C ELLĠ
OBJECT -CELLĠ
STRE AM
OBJECT-CELLĠ -->
2 ]Ġ
4 26
e sc
se edĠ
False ):
17 2011
)Ġ==Ġ 1:
65 60
9 00
Z o
g an
n s
find ("
thread ing.
fromĠ__future__ĠimportĠ division
: func:`
Ù ħ
",Ġ '
10 15
ĠĠĠĠĠĠĠĠreturnĠ {
Input (
TrueĠ ifĠ
importĠtensor flowĠasĠtf
n dimĠ
dĠ {
no t.
functionĠ( eg.Ġ
unique _
exi stĠ
seu do
J ustĠ
S ,
fileĠ inĠ
FORĠ AĠPARTICULARĠPURPO
U TE
[ p
po s)
ĠĠĠĠ#Ġ ElementĠ
canĠ IĠ
[i ];
getĠ aĠ
ĠĠĠĠĠĠĠĠ: rtype:Ġ
_s ched
Run Ġ
orient );
B EĠ
C ategor
pre ci
now Ġ=Ġ
pathĠ=Ġ os.path.join(
Use (
67 116
85 1370
__sanitizer_ syscall_
( min
4 32
H R
number ;
Ser verĠ
_c ap
588 960
linal g.
s_ for_
_in teg
34 96
AR IS
OP EN
random_ state
traffic_ state_
C 0
ĠĠĠĠĠĠĠĠ v
to log
to day.
7232 24
C ard
j Ġ
ĠĠĠĠ Parameters:
() ;Ġ//Ġ
activi ty_
( item
N th
lo ts
55 56
has he
dest ='
parti cularĠ
absolute ;
':Ġb' \\
s ":
re setĠ
)Ġ (
day s,Ġ
mil ls
ĊĊĊĊ ĊĊĊĊ
81 99
glyph icon-
ĠĠĠĠĉa175 2264165
] :Ġ
w cs.
57 5
functionĠ get
assert_ equal(
colle ct
77 075
ne stedĠ
ĠĠĠĠĠĠĠĠreturnĠ result
__pyx_ r;
ĠĠĠĠĠĠĠĠĠĠĠĠĠĠĠĠĠĠĠĠĠĠĠĠ Ġ'
length =
false .
ĉĉĉĉĉreturnĠ context.get
nullĠ &&Ġ
percent age
w 3.
Ġ }
__ c
for ceĠ
ofĠ eachĠ
ĠĠĠĠĠĠĠĠĠĠĠĠĠĠĠĠĠĠĠĠĠĠĠĠ help='
29 17
s:Ġ "
Sched ul
S (
u /
metri cs
os.path.dir name
54 76
ĠĠĠĠĠĠĠĠassertĠ (
nav Ġ
d 9
ĠĠĠĠdefĠ from_
/** */Ġ(
background- position:Ġ
[2 ]Ġ
sql al
Minute s(
instead .
data ĠisĠ
functionĠ is
7 22
< =
ĠĠ }ĠelseĠ{
ab s/
',Ġ' GL_
here ,Ġ
iou _
destro y
mor ph
ĠĠĠĠ ``
member OfĠ
Keyword .
Na vig
X DECREF
n oneĠ
he at
transition s)
display .
Ġ>=Ġ a
EV ENTĠ
ĠĠĠĠĉa50 4205855
sĠofĠ thisĠ
answ erĠ
Obj .
deca y
backgro undĠ
" /
Ġ=Ġ -
ĠĠĠĠĠĠĠĠĠĠĠĠĠĠĠĠ assertĠ
token s.
minim umĠ
didĠ notĠ
ingĠ withĠ
num_ layer
None,Ġ None)
cell .
start_ time
48 27
vol ution
service .
COPYRIGHTĠ HOLDER
Ġ />
am b
size :
__rev 0;
614 7
( &
0 b
64 70
read er
gro w
Proper tie
Peri od
</span></em>,Ġ <emĠclass="sig-param"><spanĠclass="n">
1Ġ 1Ġ
mask .
W ISE
ĠĠĠĠĠĠĠĠĠĠĠĠ n
key )Ġ{
13 Ġ
75 67
wan t
ĉĠĠĠĠĠĠĠĠĠĠĠĠ //Ġ
ĉĉreturnĠ this;
meta _
/***/Ġ }),
}),Ġ true),
$ ',Ġ
1 [
su bjectĠ
ĠĠĠĠĠĠĠĠ#Ġ TheĠ
go ingĠtoĠ
staticĠ intĠ
thresh oldĠ
seed )
ĠĠĠĠĉa60 1000723
max- width:Ġ
< em>
69 88
DAM AG
C OR
s( Ġ
19 5077
point sĠ
" '
d ',
numb erĠ=Ġ
So und
)Ġ&&Ġ( (a
inser t_
ItĠ isĠ
(? !
Liter al
s ;Ġ
ĠĠĠĠĠĠĠĠĠĠĠĠ IfĠ
ĠĠĠĠ" lib/python3.7/site-packages/
can on
Cro ss
py3.7-macosx-10.9-x86_64.e gg/
5 20
p 2
ĠĠ height:Ġ
RO W
VALU E
at ures
:Ġ this.
dra wĠ
k ">
ç Ĥ
thumb nail
m :
ä ¾
é Ľ
event s.
sĠ( :obj:`
auti ful
2Ġ=Ġ 9;
Ġ )
ĠĠĠĠ Pre
10 ))
87 63
62 15
inver se_
èĩ ª
igh t_
(x ))
MatchMak er.
sameĠ asĠ
a,Ġ b
vectorĠ ofĠ
BS DĠ
B F
to String(
spa ces
addres s_
IF Ġ
ĠĠ__Pyx_ GOTREF(__pyx_t_
Flo wĠ
logic al_
may be
åĽ ¾
0 32
node )
cpu ().
relate dĠ
1 pxĠ
X L
a o
app endĠ
true |
_size )
conver ter
åº ¦
Ren dere
caten ation
ç Ĳ
re por
st ub
clas si
h >
bo tĠ
50 417
obj Ġ*
error ,Ġ
point s_
ING ,Ġ
description =
Pa ir
datetime (
F la
100 0)
E u
M ustĠ
Time stamp
of -
\033 [
O C
i ['
k k
y 1,Ġ
ĠĠĠĠ nameĠ=Ġ'
token s
CON TRAC
Back end
Y AM
Ã £
ĠĠ font-size:Ġ
ĠĠĠĠ }ĠelseĠifĠ(
on -
ĠĠĠĠĠĠĠĠĠĠĠĠĠĠĠĠ rĠ=Ġ
"> [
Ġ=Ġ' /
55 88
info ['
J SĠ
i b
ac quire
15 6147
[key ]
3496 328
50417 74
j ar
6947 17
Pro x
54 44
ĠĠĠĠĠĠĠĠwithĠ pytest.raises(
åĲ į
CharField( max_length=
5476 296
d pi
line s.
director y.
FI EL
( 0,
withĠ open(
%s ",Ġ
img )
samp ler
equalĠ toĠ
a [
ĠĠĠĠĠĠĠĠ u'
al bum
ĠĠĠĠĠĠĠĠĠĠĠĠĠĠĠĠ result
ti li
:Ġ {}".format(
sh ut
sele ct(
-> U+
35 1288
err :
tab index
351288 39
/ div
re commen
39 216
ĠĠĠĠĠĠĠĠassertĠ isinstance(
h: mm
8Ġ*Ġ sizeof(
ma -
request )
Ne tĠ
minim um_
( args.
C op
_ matrix
d t.
arti fact
213 6
hav ingĠ
Adap ter
A bo
c dĠ
de cryp
Ġ==Ġ 11
1Ġ >Ġ
buff erĠ=Ġ
3 0Ġ
op s
nameĠ ==Ġ"
addĠ theĠ
bas is.
h )
ĠĠĠĠ< scriptĠsrc="
click ="
D P
i veĠ
trans f
79 44
Gener alĠ
parti al_
39216 732
7 27
e ffici
_t ree
Array .
bool ,Ġ
ĠĠĠĠ B
an te
code -block
ax .set_
An sw
_dict ['
NOTE :Ġ
m r
å Ĵ
14 89
net Ġ=Ġ
s.append( st_
symbol ,Ġis_
cir cu
cam era
execut able
_ KEY
um .
TH ISĠ
79 800
38 64
variable s
5 13
s ket
sĠ=Ġ newĠ
14 88
click ()
calle d
Union[ int,Ġ
" ${
= final_update
i ce_
ĠĠ position:Ġ
16 ,
UN K
transition Set(
Per son
hour s,Ġ
fac. State(
ĠĠĠĠtransition sĠ=Ġ[]
final_update =final_update
ĠĠĠĠstate s.append(st_
unordered_ catenation
symbol,Ġis_ initial
79800 36
transitionSet( transitions)
fac.State( symbol,Ġis_initial
unordered_catenation =False)
@ _
L F
to LowerCase
So up
å¤ §
324 6975
middlewa re.
ĠĠĠĠĉa194 2448800
' s",
13 14
append ((
ĉĉĉĉĉĉ "
HO ME
ĠĠĠĠĉa188 2775816
W atch
val ;
12 60
**** **
89 0
()Ġ ->Ġ
warning s
Field ()
backend s.
- 11
file -
string )
<liĠclass="toctree-l2"> <aĠclass="referenceĠinternal"Ġhref="
fn ,Ġ
_ n
s. txt
(' #
'] Ġ=Ġself.
info ,Ġ
block quote
159 7567
Begin ('
ver s
:Ġ" MS
79 4
PRO VIDE
minute s,Ġ
[] Ġ=Ġ"
require d.
port ,Ġ
49 49
Mock ()
Del ay
ĠĠ__rev 0Ġ=Ġ
__rev0; ĠĠ__rev0Ġ=Ġ
ba dĠ
Se BM
33 50
80 38
p 1
sĠ `
id ':Ġ'
13 20
35 38
calcul ateĠ
ach ie
' s
w all
é »
shape =(
sĠthatĠ theĠ
syn c_
dete ct
longĠ long
None .
position .
concat (
individ ualĠ
ĠĠĠĠ <aĠhref="#
ĠĠĠĠĠĠĠĠĠĠĠĠĠĠĠĠ ('
s= True,Ġ
De termine
Me an
ĠofĠ aĠ
sizeĠ *Ġ
polic y_
IsĠ thereĠ
hal fĠ
great erĠthanĠ
the si
ĠĠĠĠĠĠĠĠ importĠ
tri g
_name ="
nn. function
cul ar
hash _
FRO M
æ ¯
ç §
', 0x
29 48
kwarg s.pop
ĠĠĠĠdefĠ__init__ (self,
mod al-
6988 3560
8 f
p s_
name s[
dir Ġ
':Ġ' \u
stat s_
7 f
ĠĠ <aĠ
inter medi
youĠ haveĠ
exceptĠ ImportError:
Q BO
[ np.
ĠĠĠĠ raiseĠ
ge stĠ
",Ġ 0);
command .
except :Ġ
vis ual
325 67
% >
C T_
se en
search /
relation ship
find(' **/
: attr:`
Z ip
conv en
un ch
String }Ġ
differen ce
spar se
behavi or
169 404
4 0,Ġ
A E
:Ġ ",Ġ
si bl
10 316
86 64897
long ,Ġ
TI ME_
He ightĠ
_index =
Inter nal
relative _
ĠĠĠĠĉa137 8664897
spri te
N EL
S ol
Ġ==Ġ a
stri deĠ
background- color:Ġ
Ġ=Ġ(((( (((a
LOG GER
correct lyĠ
transl ation
_ i
d ['
Ġ INĠ
sĠ shouldĠ
aĠ +Ġ
ĠĠĠĠĉa1 602
10 5
100 .
<Ġ 0:
constra int(
ĠĠĠĠĉa13 67468769
279 4827
ĠĠĠĠĉa22 169404
ĠĠĠĠĉa1602 20157
isĠ thatĠ
end l;
25 58
ĠĠĠĠĉa86 2679522
ex actĠ
com ment_
vide oĠ
likeĠ this:
Gener ator(
è½ ¬
WHE THER
PROVIDE DĠ
de ad
ĠĠĠĠĠĠĠĠĠĠĠĠĠĠĠĠ ĠĠĠĠĠĠĠĠĠĠĠĠself.
(' m
contain er_
)Ġ==Ġ "
second s
addition al_
[ 6
` .Ġ
For Tag(
So me
ĠĠ{ &
declar ation
1739 67
A ES.
d dĠ
re ct.
ing ,
score Ġ=Ġ
95 20062
212 238
row s,Ġ
En ter
IB UT
332 52
127. 0.0.
' useĠstrict';
¦ Ĥ
in feren
:Ġ int,Ġ
co mĠ
ifĠ aĠ
'] ;
attr .
35 66
ĠĠĠĠĉa80 172011
Use ForTag(
Scre en
ĠĠĠĠsymbol Ġ=Ġpyxb.binding.content.Element
d er.
w t
16 );
try :Ġ
cer t
primar y
READ ME
Ev entĠ
5 b
5 px;
i eĠ
up load_
24 70
eval ()
left 'Ġ/>
doĠ thisĠ
D M
as signĠ
ret raine
Ġ=Ġself. get
nump y(
notĠinĠ self.
enc y_
116 3210
{0 }Ġ
secur ity
ĠĠ__retĠ=Ġ__builtin_shufflevector(__ ret,Ġ
- 4.
f n.
12 94
67 13
CO DE
astype ('
-group -
åĢ ¼
5556 86
u char
0. 7
s:Ġ functionĠ(
87 33252
Ġ=ĠNone ,Ġ
djang o_
2 =
as he
to ge
err .
View (
center 'Ġ/>
/ ')
sĠ perĠ
-- >Ġ
89 2
89 50
ThisĠ isĠaĠ
#defineĠ v
23 84
_COMP IL
Dynam ic
< inputĠtype="
Ġ #
%s ',Ġ
ĠĠĠĠĉa10 24
_list Ġ=Ġ
Ù Ĩ
begin ningĠ
ĠĠĠĠĉa30 3512
364 236
ĠĠĠĠĉa1024 3349
l r_
it ation
ĠĠĠĠĉa1 68
.h ide
countĠ ==Ġ
EVENTĠ SH
ĠĠĠĠĉa168 364236
all er
log inĠ
MO DE
take sĠ
ĠĠĠĠĉa174 5456981
code-block ::Ġ
åĴ Į
ĉ #
:Ġ /
vi sibleĠ
ran d_
image s
transition :Ġ
location =
simple ">
ISĠ PROVIDEDĠ
( z
ĠĠĠĠĠĠĠĠ data_
ĠĠĠĠĠĠĠĠĠĠĠĠĠĠĠĠ _
2,Ġ 3,Ġ
dri ve
ĠĠĠĠĉa88 77075
Y Ġ=Ġ
p si
Ġ voidĠcalculate_outputm
</ script>
66 61
soft max
effe ctĠ
ĠĠĠĠdefĠ__call __(self,Ġ
èİ ·
s low
ĠĠĠĠĠĠĠĠ responseĠ=Ġ
ĠĠĠĠĠĠĠĠself. analysis_
Te am
whe therĠtheĠ
LIN K
provide d,Ġ
Declar ations
hum an
R UN
ĠĠĠĠ a
byte s_
Norm alize
project .com/
61 1011
clou d_
164 107
TAR GET
ed Ġ=Ġ
left ;
548 3538
exitĠ codeĠ
;Ġ__pyx_lineno Ġ=Ġ
: paramĠ
M ON
ĠĠĠĠĠĠĠĠĠĠĠĠ ],
ho to
if ra
Di ct(
sq l.
,Ġ r
version =
block ;
ĠĠĠĠ# ĠĠĠĠĠĠĠĠĠ
Sub scrib
depre cation
650 8
https://developer. mozilla.org/
ĠĠĠĠsymbolĠ=Ġpyxb.binding.content.Element Use(
Q .
ar bitr
ĠĠĠĠĠĠĠĠself. check
ĠĠĠĠĉa1 1074
Bo ss
awaitĠ self.
Widget (self.
fit s.
ĠĠĠĠĉa11074 5935
la y_
11 19
84 36
5489 4080
5 e
j ĠinĠ
no thingĠ
anĠ objectĠ
list -
require d_
RO OT
</td> <td>
Ite ms
import ">
ĉ#Ġ /usr/include/
cali br
$ 1
"] Ġ=Ġ"
NE T_
1,Ġ1,Ġ 1,Ġ1,Ġ
(f" {
(intĠ input)Ġ{
3 ):
j query.
ĠĠĠĠ content:Ġ"\
ĠĠĠ "
Buil dĠ
anĠ errorĠ
27 702
Au dio
span >
null );
arch ite
right 'Ġ/>
level =
27702 668
ĠĠĠĠĠĠĠĠ n_
ĠĠĠĠĠĠĠĠĠĠĠĠ y
ne d_
18 39
54 214
nameĠ ==Ġ
26 32567
that 'sĠ
Sequential (
C: \
OUTĠ OFĠ
andĠ aĠ
ĠĠĠĠĉa10 7
Note sĠ=
attention_ head
6418 5588
trajectory_ loc_
<codeĠclass="sig-nameĠdesc name">
ĠĠ //
ĠĠĠĠ )Ġ->Ġ
sĠ are
:Ġ %
the se
cli .
sizeĠ ofĠtheĠ
cer tainĠ
ĠĠĠĠĉa1484 588960
True )Ġ]))
loa ded_
, _cs.GL
in it.
',Ġ ()Ġ=>Ġ{
loc [
needĠtoĠ beĠ
foun d.
657 48
âĢ¢âĢ¢âĢ¢âĢ¢ âĢ¢âĢ¢âĢ¢âĢ¢
Y ou
ĠĠĠĠ *
ĠĠĠĠ args.
size i,Ġ
text ='
ĠĠĠĠĉa49 851370
blob /
3864 6508
) }
X ,
l b
s_ with_
face book
hi erarch
184 79
( inputĠ==Ġ
6 298
q b
~ Ġ
84 65748
ĠĠĠĠĠĠĠĠĠĠĠĠĠĠĠĠĠĠĠĠĠĠ '
ship ping_
vertical -
{@ linkĠ
fi x_
row ['
Pre fix
)] ,Ġ'
bf {
qui et
} '.format(
50 97
represent ationĠofĠtheĠ
54214 36
ne dĠ
erĠ {
.re shape
ĠĠĠĠĠĠĠĠwithĠ self.assertRaises(
iĠ__ DEFAULT_FN_ATTRS
scenari o
2 ]Ġ=Ġ
3 d(
Ġ==Ġ 4Ġ
ST OP
nameĠ forĠ
ĠĠĠĠĠ*Ġ //Ġ=>Ġ
gle t.
8468 228
at ol
os.path. base
define d
email Ġ
92 6661
ĠĠĠĠĉa1511 723224
18479 047
4 36
n ,
34 1288
ĠĠĠĠĠĠĠĠself.assert Is
collection s.
ĉt ĉtĉfĉfĉfĉf
ĠĠĠĠĠĠĠĠ Ġ*/
Ġ=Ġ ((
conv eni
tool bar
ĠĠĠĠĉa44 67116
L ight
nn. Conv2d(
779 528
django project.com/
() ),
data ĠinĠ
imp ro
39 80
bl ur
Bind ing
750 5444
ĠĠĠĠ y_
ĠĠĠĠ test('
80 70
_type Ġ=Ġ
ĉĠĠĠĠĠĠĠĠ /**
E st
al ityĠ
sĠ shouldĠbeĠ
sco re.
Dire ction
(config )
K o
L .
Ex peri
24 29
score (
hash Ġ
though Ġ
Rece ive
7,Ġ6,Ġ5,Ġ4,Ġ 3,Ġ2,Ġ1,Ġ0);
1989 647
d 4
di dn'tĠ
__ ovldĠ__cnfnĠ
</ label>
behavi orĠ
EVENTĠSH ALLĠ
si ve_
18 18
default ('
json (
point s,Ġ
ĠĠ} )
549 17
mag n
clone ().
Sin ceĠ
è ĥ
ver y
80 4
)ĠforĠ iĠinĠ
stop Ġ
Code Mirror
summar y.
delta _
fr ont
Work flow
almost_ equal(
2400 459
6215 6713
T CP
u th
cl amp
"Ġ rel="
notĠ self.
87 664
!=Ġ "
75 6
inform ation.
wrapper (
inventor y_
Ġ*ĠctypedefĠ npy_
8436 83
} ".format(
pas s_
Qt Gui.
route ('/
CP U
ä½ ¿
Capt ure
di scri
length Ġ-Ġ
min or
href ='
29 50
ME MB
factor y.
cn n_
gradi entĠ
Rel ative
ĠĠ<divĠclass=" import">
R i
cl ine
mask )
200 05
main (
298 18
asynci o
HH:mm :ss
ĠĠĠĠĉa82 195077
ĠĠĠĠdefĠ create_
<spanĠclass=" pre">
8 13
.Ġ ButĠ
17 9
Sub scription
87664 74
d ",
ĠĠĠĠ ax.
ĠĠĠĠĠĠĠĠ e
ro m
mo oth
s[ idx
size .
32 74
unsignedĠ intĠ
ĉĠ* ĉĉ
constant s.
605 57
30 29818
count Ġ=Ġ0
extension s/
_r atio
decode ('utf-8
347 6418
ĠĠĠĠĉa180 3496328
6298 187
/ b
al ive
',Ġ "
vi site
11 15
14 48
result s_
DI SP
differen ceĠ
8 e
S GI
sĠ ifĠtheĠ
ĠĠĠĠĠĠĠĠĠĠĠĠĠĠĠĠĠĠĠĠĠĠĠĠĠĠĠĠĠĠĠĠ '
Return sĠaĠ
shapeĠ ==Ġ
dil ation
7 84
a co
de t_
fromĠ flask
]Ġ ||Ġ
TT ING
cu tĠ
</span> </p>
message s.
initial izeĠ
django. db.
- 6
name ;
gra mĠ
80 69
weĠ needĠtoĠ
2404 370
s() ,
cat alog
287 8199
284 47
ĠĠĠĠĉa155 2878199
Ġcf==1ĠĠ &&Ġ(inputĠ==Ġ
djangoproject.com/ en/
F older
in je
Ġ=Ġ m
ma int
out line
file ):
---------------- --------
s:Ġ Optional[
REF IX
_file _
ĉĉĉĉreturnĠ this.
alig n_
b readcrumb
AST _
yyyy-MM- dd
. mdc-
ĠĠĠĠĠĠĠĠ value
ĠĠĠĠĠĠĠĠ }ĠelseĠifĠ(
id ":Ġ
éĹ ´
ĠĠĠĠĉa75 5041774
a );
',Ġ None
second s=
boxe s,Ġ
Fun c(
T":Ġ" +
820 89
SetupContext ("
2470 28447
ĠĠĠĠĠĠĠĠ label
10 68
20 59
X_ train
State ment
20005 379
( \
ingĠ inĠ
stan ces
SE TĠ
ĠĠĠĠĉa9 82089
s'] :
ĠĠĠĠĉa982089 790Ġ=Ġ
( </span>
_ fast_
d 2
w b
</ html>
33 732
Ġ+Ġ 1]
paren tĠ=Ġ
ĠĠĠĠĉa115 5476296
") ]
Return s
&&Ġ( a
R NN
__ ATTRS_o_aiĠ
name :Ġ"
+Ġ self.
s( {
512 ,Ġ
64 95
classĠ S
pos si
ĠĠĠĠĉa20 9
217 5097
https://docs. djangoproject.com/en/
3566 200
ĠĠĠĠĉa13 19
STRU CT
w3. org/
8950 377
d s_
r :
ur i.
fi ts
defĠ create_
lear n
inline -block
who seĠ
transpa rentĠ
U E
l v
ĠĠ float
ĠĠĠĠ parser.add_argument('
__ ovldĠ
return ed
(f type)
conne cte
Be autiful
iprot. skip
ĠĠĠĠĉa1050 156147
875 2558
872 128
1640 586
E qu
d ĠĠ
f typeĠ==Ġ
iz er(
sol veĠ
ĠĠĠĠdefĠ__init__ (
Valid ator
622 324
synta xĠ
2 ')
E po
g ing
p db
t bl
leg alĠ
iprot.skip (ftype)
ftypeĠ==Ġ TType.
id s
name ('
99 5
ĠĠĠĠĉa16 35128839
ĠĠĠĠĠĠĠĠ /**
re portĠ
method ='
stride s=
assert. strict
ĠĠĠĠĉa5 39216732
With Ġ
certifi cate
I m
10 :
docs/ Web
boo st
ĠĠĠĠĠĠĠĠdelĠ self.
Ġ returnĠ
15 .
url ,
ĠĠĠĠĉa4 1597567
bound ingĠ
ĠĠĠĠĉa77 694717
ĠĠĠĠ main()
De v
ĠĠĠĠĠĠĠĠĠĠĠĠifĠ '
ĠĠĠĠĠĠĠĠ" /
sequenceĠ ofĠ
sess. run(
tutori al
Dum my
r );
s 1
Ø ¨
ĠĠĠĠĠĠĠĠĠĠĠĠĠĠĠĠĠĠĠĠ self._
14 448
statu s,Ġ
256 ,
constru ctorĠ
cls. _
<divĠ role="
L u
d "
ĠĠĠĠ test
',Ġ String.
3Ġ=Ġ 8;
ĠĠĠĠĉa188 6280
ĠĠĠĠĉa112 3246975
ĠĠĠĠĉa1886280 264
E MP
tri angle
[0] Ġ+Ġ
54 246
88 000
hand le.
source ]
Comp ut
s"] Ġ=Ġ
ĠĠ__pyx_ rĠ=Ġ
( s)
D ra
f y(
)) )Ġ&&Ġa
59 314
isĠnotĠ NoneĠelseĠ
dataĠ fromĠ
.ĠThisĠ isĠ
ĉĠĠ ,Ġ
ð Ł
ĠĠ __builtin_
on entĠ
ul Ġ
),Ġ self.
dir ,Ġ'
version .
LE V
comm uni
org. apache
P ADD
e mon
m and
test )
option s['
0Ġ ?Ġ
cap acity
betwe en
ĠĠĠĠĉa2034 14448
QtGui. Q
60557 388
V IE
UL Ġ<<Ġ
rel _
LI ABLEĠ
Function }Ġ
s":Ġ [
59314 050
5 133
l /
| =Ġ
ĠĠĠĠĠĠĠĠ printĠ
00 16
St u
row Ġ=Ġ
in_channel s,
c ,
32 59
Format (
54246 59
8 b
å ¿
th urs
able (
areĠ theĠ
reg _
vari anceĠ
66 11
help =
pret ty
ĉĠ* ĠĠ
po s.
Ġ==Ġ 4
index ):
622 688
ĠĠ__Pyx_RefNanny Declarations
ĠĠ__Pyx_RefNanny SetupContext("
337 3350
P I
ĠĠĠĠĠĠĠĠĠĠĠĠ except:
li ct
ste p.
num_ head
0) )Ġ
create Element
')) ,Ġ
sug gestion
ORĠOTHER WISE
Dist ance
background:Ġ #
WHETHER ĠINĠ
88000 84
reg ard
30 1054
data. html">
yam l.
ĠĠĠĠĉa67 7980036
4949 212
2 DĠ
ĉ {
lo w.
ĠĠĠĠĉa19049 7944
ĠĠĠĠĉa2138 173967
1 )Ġ-Ġ
33 528
weĠ haveĠ
mode .
CONTRAC T,Ġ
r fc
.Ġ PleaseĠ
im mediate
!=Ġ 0:
gg le
_F ORMAT
x py.
ĠĠĠĠĠĠĠĠ k
ĠĠĠĠĠĠĠĠ rĠ=Ġ
orĠ '
16 (
15 57
assum eĠ
570 1718
arxiv.org/ abs/
ARIS INGĠ
- 20
\ 5
Po int(
seri al
last -
__p 1
dist in
numer icĠ
sur ve
C he
P lat
[ $
} }Ġ
classe s,Ġ
enumer able
prev entĠ
promp t_
org. spring
entri esĠ
3 d_
ĠĠĠĠĠĠ caseĠ
Ex itĠ
button -
scen e
B ra
p /
17 40
To dayĠ
Qu arter
.shape [1]
82 32
__s 1.val
Sequential GroupQuota.
Parallel GroupQuota.
sys.stdout .
n x
ĉ 0x
ĠĠĠĠĠĠĠĠ finally:
impor tedĠ
[0] ['
ax isĠ=Ġ
_name =
attr ("
_de pth
1294 5969
b in_
:Ġ 'Ġ+Ġ
op ,Ġ
style ='
76 2429
Constan t
ĠĠĠĠĉa139 2917
12945969 12
u 8
ĠĠĠĠĠĠĠĠ expected_
ent ro
54 11
_re quest_
evalu ation
INĠ NOĠ
897 2500
C lu
;Ġ i++
tom or
zero s
anim ate
Int ro
aussi an
' )ĠasĠf:
- 04
0 },
H i
token s,Ġ
mask ĠofĠ
syn tax
region _
predi ctor
Comple te
(varĠ iĠ=Ġ0;ĠiĠ<Ġ
ĠĠĠĠĉa873933 840Ġ=Ġ
H ex
ĉ forĠ
dĠ importĠ
15 ,
{} .
DE V
point s.
26 385
26385 234
ex tr
val .
Re port
image (
Ġ- =Ġ
unknown Ġ
DESCRIP TION
12 9
99 17
(Ġ cf==1ĠĠ
ĠĠĠĠĠĠĠĠexceptĠ ExceptionĠasĠe:
Dele teĠ
/ x
ĠĠĠĠ' django.contrib.
row s
sol eĠ
ĠĠĠĠĉa20 54894080
Sour ceĠ
10316 836
arg ,Ġ
1,Ġ 0,Ġ
14 Ġ
De ep
_id _
EXP RES
authenti cate
swe ep
205 27
3274 338
3 DĠ
l m_
defĠ get
check ĠforĠ
26 18
/ lib
ĠĠĠĠĉa19 69883560
conv 1
6Ġ=Ġ 6;
fn Ġ=Ġ
tt leĠ
åĪ Ĺ
Ð ¿
0. 3
11 ,
call .
work flow_
std:: stringĠ
Ste pĠ
ĠĠĠĠĉa213 1163210
A gg
s ke
t on
me .get
to ler
border- radius:Ġ
Ġ*ĠĠĠĠĠĠĠĠĠĠĠĠĠ elifĠtĠ==ĠNPY
maske d
075 2136
likeli hood
ĠĠĠĠĉa144 0752136
e y
l )
n y
ĠĠĠĠ /*Ġ"View.MemoryView":
() :Ġ
</ b>
(' -
]Ġ [
ĠĠĠĠĉa20 9520062
_MA X_
occurren ceĠ
st uff
)Ġ #
36 385
session Ġ
21 330
}/${ EL
2757 217
! "
3 Ġ=Ġ35Ġ;
Tra ined
Meta :
* u.
in den
sa _
replace ("
remo teĠ
bas ic_
844 21330
36385 13
S ur
U tili
Y )
p an
Re st
sha redĠ
13 65
{%Ġ urlĠ
custo m-
ĠĠĠĠĉa129 8733252
Secur ity
length )Ġ{
s- v1_3_0.xsd',Ġ
gri d.
THEĠ USEĠ
Ġ*ĠĠĠĠĠĠĠĠĠĠĠĠĠĠĠĠĠ elifĠtĠ==ĠNPY
ĠĠĠĠĉa149 164107
Sel f
_ Ġ
s and
} ());
)Ġ !==Ġ
s. update(
ĠĠĠĠĉa1 694
Py Int_
itĠ inĠ
state mentĠ
54 33
mode )
2710 5133
ĠĠĠĠĉa1694 555686
data frame
10 43
848 50
ĠĠĠĠĉa650 212238
c .Ġ
de sign
ME SS
TYP ES
ĠĠĠĠĉa30 8763
5404 60
cuto ff
). set
element s.html">
cent r
ĉĠĠĠĠĠĠĠĠ },
512 586
HEAD ER
Develo p
à ª
forĠ allĠ
ĠĠĠĠĠĠ Ġ'
32 )
matri x,Ġ
director y,Ġ
cho oseĠ
433 357
67 8070
Right sĠ
format( format
R I
loc ator
Format Ġ
08 355
112 85
679 08355
)Ġ *Ġ(
mo d(
33 74
ĠĠĠĠdefĠ__ eq
ha ve_
/***/Ġ },
280 17
ĠĠĠĠĉa1933 611011
p itch
ĠĠĠĠ u
,Ġ intĠ
11 39
TH H:mm
cle arĠ
result ['
use dĠbyĠ
._ set_
ĠĠĠĠĉa9 2794827
training =
c atĠ
':Ġ (
ag ent_
18 8038
width Ġ
44 70
AC TI
:Ġstr ):
ĠĠĠĠĉa167 188038
caption -text">
combin ation
e ye
qual ifi
128 11285
549 84850
represent ation
repl y_
extern alĠ
6560 1448
C AL
a ffi
19 52
87 732
prediction _
Gener ate
: ssĠ
ĉ g.
ĠĠĠĠĠĠĠĠĠĠĠĠĠĠĠĠĠĠĠĠĠĠĠĠĠĠĠĠĠĠĠĠ ĠĠĠĠĠĠĠĠĠĠĠĠĠĠĠĠĠĠ
context )
mightĠ beĠ
%H:%M :%
E ar
e 0
to /
ĠĠĠĠĠĠ =Ġ
]Ġ=Ġ 1
method sĠ
dd dd
Al most
ĠĠ< ulĠclass="
alpha 1
separ ate
helper .
ĠĠĠĠĉa12 88
( path
ĠĠĠĠĠĠĠĠ task
for (
ĠĠĠĠreturnĠ _
Value Ġ=Ġ
Ġ*ĠĠĠĠĠĠĠĠĠ ifĠ
ĠĠĠĠĉa187 5483538
receive dĠ
8769 378
759 3625
true| false
b ic
ĠĠĠĠ <spanĠclass="
ul dn'tĠ
ma c_
Ch ain
stat s
ING _IN
ĠĠĠĠĉa9 8769378
arti st
}/ {
becauseĠ theĠ
GR AM
registr y.
desi redĠ
ĠĠĠĠNote s
çĲ Ĩ
5411 120
28017 199
bo undĠ
25 94
23 99
ĉĠĠĠĠĠĠĠĠ Ġ*/
TypeError ,Ġ
+ +Ġ
Pub lic
Rou te
no w.
op h
mon o
has attr(self,Ġ
command (
debug Ġ
732 3933
is NaN
Return ĠtheĠ
api _key
instanceĠ ofĠ
plugin .
Load er(
endi an
f x
n :
p x,Ġ
di ms
ĠĠĠĠĉa1 65
dĠ=Ġ false;
parse .
gin eĠ
AllĠ RightsĠ
3259 639
* =Ġ
S hel
a ffe
':Ġ "
TP ROC
createĠ theĠ
95 84
STAT US_
scriptĠtype="text/javascript "Ġsrc="
6611 360
ĠĠĠĠĉa1288 341288
3 Ġ=Ġ36Ġ;
N ORM
b -
list (self.
67 295
Ac cessor
ĠĠĠĠĉa5 27702668
Coun tĠ
browser Ġ
ĠĠĠĠĉa196 2632567
( \\
T rig
node s_
ĠĠĠĠĉa16 38646508
AllĠRightsĠ Reserve
cho sen
lat erĠ
165 6495
bel ong
3232 100
ĠĠĠĠĠĠĠĠ y_
Re al
ho we
_F L
Transp ort
ĠĠĠĠĉa2034 926661
ĠĠĠĠĉa74 8766474
( user
@ "
ĠĠĠĠ key
ĠĠĠĠĠĠĠĠ ``
Ġ=Ġ this._
ve dĠ
ĉĉĉ #Ġ
xĠ forĠxĠinĠ
ĠĠĠĠĉa4 64185588
622 284
logger.debug ('
ĠĠĠĠĠĠĠĠ path
ĠĠĠĠĠĠĠĠ config
14 09
ĠĠĠĠifĠ '
run ĠtheĠ
30 345
NULL ,
ĠĠĠĠĉa177 8468228
Proble m
) ",
ĉ """
88 779528
37 24
NO DE_
ĠĠĠĠĉa5 88779528
ĠĠĠĠĉa34 1989647
tupleĠ ofĠ
( QtCore.Q
T ak
ĠĠĠĠ get_
call (this);
6Ġ=Ġ 8;
217 99
nee ded
2950 11
2 )Ġ+Ġ
é ¡
ĠĠ padding:Ġ
ap _
port Ġ=Ġ
ĠĠĠĠĉa5 18479047
cursor _
aa aa
La Te
ĠĠĠĠ:return :Ġ
INCLUD INGĠ
'][nextState ]Ġ+=Ġ
generated /
"] Ġ==Ġ"
Un ableĠtoĠ
132 16
$ /
P ORT
DE C
][ 0-9
wasĠ notĠ
ĠĠĠĠ-214 720
ĠĠĠĠĉa159 414
1489 22
ĠĠĠĠĉa159414 1612
s List
ro leĠ
Co ordin
object s
.p anel
... ')
WIN DO
rath erĠthanĠ
assert.strict Equal(
7 54917
z on
ĠĠĠĠĠĠĠĠ new
pre serve
1. 0)
join ([
dĠinĠ aĠ
non zero
s[1] )Ġ<<ĠPyLong_SHIFT)Ġ|Ġ(
ĠĠĠĠĉa6 2400459
!! !!
ĠĠĠĠĉa174 754917
StandardĠAtomicĠWeight Ġ=Ġ
INĠNOĠ EVENTĠSHALLĠ
1 ",Ġ
w sd
toĠ use
make sĠ
velo city
Auth oriz
=1 ):
417 1015
25 Ġ
exten ded_
13 /
67 659
----- :Ġ|Ġ:
ĠĠĠĠĉa86 3029818
O k
l :
ĠĠ defĠtest_
ĠĠĠĠĉa 843683
type s(
RE QUEST
cal c
ĠĠĠĠifĠ( unlikely(
termin al
ATION _
base. localAvatar
ĠĠĠĠĉa69 6298187
PyTuple _GET_
angular .
viewcode -link
-1 )Ġ{
thenĠ theĠ
pay ment
ĠĠĠĠĉa39 7505444
de termine
andĠ (
08 64
ĠĠĠĠĉa80 3476418
ĠĠĠĠĠĠĠĠĠĠĠĠĠĠĠĠĠĠĠĠĠĠĠĠĠĠ '
A ri
v 16
col lision
âĢ Ŀ
! (
3 .Ġ
O ct
o ct
,Ġ \
00 ,Ġ
ĠĠĠĠreturnĠ [
29 70
\u0 9
65 8232
slice .
### #Ġ
iĠclass=" fasĠfa-
System. out.
ĠĠĠĠĉa179 5421436
ĠĠĠĠĉa303512 745
* args):
L ea
v ((int
sĠ mustĠbeĠ
ĠĠĠĠĉa1 17
ĠĠĠĠĠĠĠĠreturnĠ x
AN Ġ
Array }Ġ
.set ObjectName("
CON NE
beforeĠ theĠ
ĠĠĠĠĉa17 3566200
stand ard_
theta _
newĠDate (
160 28
29267 09
[i][ j
</span></a> <aĠclass="headerlink"Ġhref="#
549 4470
S [
] ;Ġthen
EN Ġ
left -
',Ġtype= int,Ġdefault=
stim ul
Conta ct
c ;
ĠĠĠĠ this._
name ]Ġ=Ġ
ĠĠĠĠĉa1 38
ĉĉĉ caseĠ"
_in dices
69 088
scope ,Ġ
http://www. w3.org/
ĠĠĠĠĉa34 786
0016 298
ĠĠĠĠĉa34786 215
2 **
In dice
ĠĠĠĠĠĠĠĠ' ''Ġ
grid -
Stru cture
ĠĠĠĠĠĠĠĠĠĠĠĠĠĠĠĠ },
ra vel
|Ġ "
error s
logit s,Ġ
zo o
/usr/include /X
arg s:Ġ
ĠĠĠĠĠĠĠĠ#Ġ IfĠ
functionĠ thatĠ
callback _
çĽ ®
explicit lyĠ
ĠĠ uint32
ĠĠĠĠ image
up per_
importĠ requests
ĠĠĠĠĉa17 62156713
Millisecond s(
34 45
default .
26 17
58 13216
ĠĠĠĠĉa9 2404370
QU ER
../../../ .
org.spring framework.
Ù Ī
67 16028
run time
functionĠ exitĠcodeĠ
stride =
:Ġstring ;
ĠĠ/*Ġ functionĠexitĠcodeĠ
ĠĠ/*ĠfunctionĠexitĠcodeĠ */
Ã Ń
s. shape
11 7
Path .
63 50
Sh if
AU TO
flask .
69088 669
ĠĠĠĠ except:
le -
else :Ġ
star t(
target )
04 2594
inher ite
33732 5
value s[
jo inĠ
109 85
605 33
ĠĠĠĠĉa64 337325
Chro meĠ
metavar ='
C lock
ĠĠĠĠĉa 35
up ĠtoĠ
parse dĠ
transform er
854 1952
154 9917
ä½¿ çĶ¨
#Ġ --Ġ
tr Ġ
{} _
Ite mĠ
ĠĠĠĠĉa4 20005379
LIABILITY,Ġ WHETHERĠINĠ
10985 318
3 54
arg s=
col s=
De fine
index :Ġ
char _
77 59
Long Tensor
optimiz er_
optimiz erĠ=Ġ
325 64
ĠĠ__pyx_t_ 1Ġ=Ġ
co v
ver b
16 49
De f
has attr
makeĠ itĠ
betweenĠ theĠ
charĠ __pyx_k_
V E_
à ¼
ent ropy
int (self.
Ġ*Ġ np.
38 212
byte sĠ
New (
1200 284
Annot ation
5433 669
7593625 7
ĠĠĠĠĠĠĠĠĠĠĠĠĠĠĠĠ ĠĠĠĠĠĠĠĠifĠ(
ex po
__pyx_ clineno
append ("
19 16
token )
Name ('
SE Q
torch. cuda
09 8716
exports. is
bad _
p ,
de fin
el ast
#Ġ cod
ĠĠĠĠĉa 247028447
ph y
Sp ati
wait_ until_
__all __
ĠĠĠĠĉa106 8752558
294 60533
Prior ity
3 1,Ġ
g ameĠ
ĠĠĠĠ printĠ"
ren derĠ
14 0
25 0
Path ,Ġ
01 32564
depend entĠ
yiel d
Max Pool
H z
i Ġ==Ġ
endĠ ofĠtheĠ
yyyy-MM-dd THH:mm
( 1,
d v
arg s(
gro undĠ
"><spanĠclass=" viewcode-link
ĠĠĠĠif ((((a
patter nĠ
< removed@example.com>
\ -
ĠĠĠĠĠĠĠĠĠĠĠĠ }ĠelseĠ{
ne ss_
test er.
Logg er
wiki pedi
ĠĠĠĠĉa138 2222
arg max(
ag ainĠ
cent ral
File .
2 1,Ġ
back end_
mi seĠ
Cont in
change dĠ
senten ce_
509 865
ĠĠĠĠĉa143 872128
2704 744
DOUB LE
1068 16
å ¦Ĥ
or yĠ
Type s-v1_3_0.xsd',Ġ
buff er,Ġ
26 56
</code> <spanĠclass="sig-paren">
ĠĠĠĠĉa94 5424659
3374 79
token sĠ=Ġ
37 84
ĠĠĠĠĠĠĠĠĠĠĠĠreturnĠ '
.re stype
_path ):
Ran do
Setting s
acro ssĠ
# ĠĠĠĠĠĠĠĠĠĠĠĠĠ
2 +
o Ġ=Ġ
r ing
ĠĠĠĠ n_
ĠĠĠĠdefĠ on_
6684 22
1365 27
a 0
no tifi
enti ty_
(),Ġ m.
47 15
under st
8 1057229
Ġ --
is -
Mo reĠ
conne cted
save d_
38 297
Ph ase
Inst all
098716 8
N G
theĠ numberĠofĠ
80 8716
speci fy
65 87
åĮ ĸ
occ up
5555 9
808716 65
K ,Ġ
,Ġ t
fo reĠ
work _
Pre Trained
let on
__all__Ġ=Ġ ['
8 Ġ=Ġ32Ġ;
å ĳ
æ ²
sĠ canĠ
__ doc
output s
search -
ĠĠĠĠĠĠĠĠ i
de .
bo und_
varĠ $
17 ,Ġ
work .
ms li
ĠĠĠĠĠĠĠĠ<li> <aĠhref="
D RO
O UR
re place_
0. 6
24 ,Ġ
{} '
num_ sample
Me ssageĠ
ĠĠĠĠĉa4 3373350
.to String
Pa ren
237 9
ĠĠĠĠĉa739 622324
/***/Ġ( function(module,Ġexports,Ġ__webpack_require__)Ġ{
am big
ig he
date pick
save dĠ
Sy m
data- toggle="
linear -
ĠĠĠĠĉa82 8950377
ĠĠĠĠĉa128 2175097
data_format=data_format ,
ĠĠĠĠĉa16 59314050
_ DIR
do or
',Ġ' .join(
add Days(
tri ck
33 66
nameĠ isĠ
decode (
pow er_
ĠĠĠĠclassĠ Meta:
50 )
normalize _
win 32
4954 809
022 689
3445 5404
4954809 0Ġ=Ġ
: ])
ad ju
Lo w
100 0,Ġ
request s.get(
dateĠ elementĠ
ĠĠĠĠĉa9 49548090Ġ=Ġ
90 16
core /
suppli edĠ
p x.length
vi z
Co okie
Con volution
57 9
37 76
1Ġ=Ġ 8;
count )
lig ht_
( len(
T V
b s
c ra
int 16
ff f;
day Offset
version ="
currentĠ DateĠ
side bar
ĠĠĠĠĉa6 6488
call(this,Ġ s);
ĠĠĠĠĉa66488 4954
è Ģ
,Ġ sub
ke d_
!==Ġ null)Ġ{
matche dĠ
$D.get Day
6470 306
/ 4
fi ed
ref er
64 3980
99 33
error :Ġ
DE VIC
ize (
ĠĠĠĠĉa10 6470306
ĠĠĠĠĉa80 622688
gradi ent_
ĠĠĠĠĉa199 301054
è® ¾
Classifi er
Suc cess
be an
14 45
_id :Ġ
0,Ġ0,Ġ 0,Ġ
menu _
NE W
ĠĠĠĠĉa69 5701718
[1: ]
Dic t_
ĠĠĠĠĠĠĠĠĠĠĠĠĠĠĠĠ print(
0. 0,
22 69
default ="
ĠĠĠĠ< li>
defaultĠ isĠ
Temp or
ĠĠĠĠĉa163 643980
testing. assert_
x tick
__pyx_ pybuffernd_
':Ġ' ',
85 1740
ĠĠĠĠĉa13 60557388
ĠĠĠĠĉa175 88
aboveĠ copyrightĠ
851740 86
æ ģ
table (
_info .
657 891926
FORĠ ANYĠ
ofĠshapeĠ :obj:`
MERCHANT ABILIT
inter rup
car dĠ
Q Q
c ',Ġ'
j Ġ<Ġ
ĠĠĠĠĠĠĠĠ is_
'] ]
Code .
ĠĠĠĠĉa77 762429
primary_ key
I mg
d ',Ġ'
"Ġ isĠ
argument s.
ĉĉĉĉĉĉ break;
dash board
life cycle
coreĠ importĠ
re load
min uteĠ
Te le
issue s/
placeholder ="
sĠ||Ġ this.get
ĠĠĠĠĉa17588 7966
R R
Ġ fromĠ
set sĠtheĠ
et c/
ĠĠĠĠĉa7 26385234
Ġ>Ġ .
added_ to_
F uture
G it
g ar
y [
ĠĠĠĠ -----
":Ġ $R.
context Ġ=Ġ
Set sĠtheĠ
@ app.
.Ġ SoĠ
read ingĠ
base ,Ġ
channel s,Ġ
mean ,Ġ
oper and
Tex t.
depend ent
__s lots
<! --
sort ()
appli edĠ
(C )Ġ
779 1115
BEĠ LIABLEĠ
at ingĠtheĠ
de c_
St re
22 15
(a ction
sequen ces
callback ,Ġ
ĠĠĠĠĉa10 8972500
BO O
perm ute
3 10
7 Ġ=Ġ
b ir
ĠĠĠĠ v
pre c
.Ġ YouĠ
common Types-v1_3_0.xsd',Ġ
Level (
Second s(
pyxb.utils.utility.Location(u'/home/rst/vcs/openmtc-python/serializers/openmtc-onem2m-xml/xsd/v1.3.0/CDT- commonTypes-v1_3_0.xsd',Ġ
uncer tain
610 4715
conven tion
! r
F mt_
g ate_
j .
en sure
)Ġ //Ġ
Me as
å¼ ı
histo gram
s| d)
Buf Fmt_
i ty.
Ar row
88 2384
27 13
Fin dĠ
ĠĠĠĠĉa111 882384
M or
i ]
| \\
ĠĠĠĠĠĠĠĠ L
ĠĠĠĠĠĠĠĠĠĠĠĠĠĠĠĠ print('
ch ase
): ĠĠĠĠĠĠĠĠĠĠĠĠĠ#Ġ<<<<<<<<<<<<<<
ĠĠĠĠĉa19 10316836
3776 1314
ĠĠĠĠĠĠĠĠ log
IN TE
Lay out_
s[1] .
Pri ce
dim= 1)
Face book
GEN ER
426 2028
https://developer.mozilla.org/ docs/Web
( vectorĠunsignedĠ
J Link
in verse
back ĠtoĠ
are a_
ĠĠĠĠĉa15 8800084
status_ code
Event (
click Ġ
edi tĠ
ĠĠĠĠĉa112 4949212
passe dĠtoĠ
templateĠ< typenameĠ
unicode_ literal
e cho
ĉĉ """
",Ġ [
image s,Ġ
nameĠ andĠ
partĠ ofĠ
<T Length
localhost :
G radi
pre f
site .
Index Ġ=Ġ
thereĠ isĠaĠ
__builtin_shufflevector (__p0,Ġ
[ a
Ġ file
ĠĠĠĠĠĠĠĠĠĠĠĠ proc.get_output_
ĠĠĠĠdefĠ run
new line
ĠĠĠĠĉa19 285
UN USE
Abbr ":Ġ"
Eng lish
2948 224
7759 1043
ĠĠĠĠĉa19285 33528
10 174
value s(
week dayĠ
ĠĠĠĠĉa9 2
Spe ed
ĠĠĠĠĉa60 3274338
ĠĠĠĠĉa28 38297
sĠ in
':Ġ 1,Ġ'
sĠtheĠ specifiedĠ
ĠĠĠĠĉa4 2757217
G M
sh ard
17 .
( ["
ĠĠĠĠ data
</ head>
name ',Ġ'
16 77
IĠ needĠtoĠ
check (
37 40
44 9016
ĠĠĠĠĉa9 27105133
fini te
sible -
ĠĠĠĠĉa1484 20527
768 67
url_for ('
S cc
sh ar
da g_
Ġ-Ġ -
Ġ===Ġ 0)Ġ{
ĠĠĠĠĉa100 540460
du ction
79 76867
height )
Cre atedĠ
ISO Ġ
rege xĠ
B order
g )
ff t_
2Ġ andĠ
addĠ aĠ
10174 38
} `
fir m
butĠ itĠ
Ser viceĠ
ww w
ĠĠĠĠĉa3 16
k las
thatĠ itĠ
317 1557
FITN ESSĠ
w m
y etĠ
:Ġ trueĠ
ren de
[' data
config ):
_c y
vectorĠ signedĠ
TypeError ('
F u
F ol
k ,
ex p.
bo x,Ġ
file s:
_P AR
month _
dĠbyĠ aĠ
326 67
Sim ul
ĠĠĠĠĉa79 512586
M IS
content :Ġ
)Ġ->Ġ bool:
ater n
g if
x *
Th en
]Ġ=Ġ 0
python 3
ĠĠĠĠĉa7 84421330
CYTHON _COMPIL
remĠ !important;
<spanĠclass="sig-paren"> )</span>
6745 107
CYTHON_COMPIL ING_IN
- 08
j ac
to po
() ),Ġ
argument s);
85 39
_M sk
mu _
FIL E_
ĠĠĠĠĉa335778 295
ĠĠĠĠĠĠĠĠ key
on om
ol y
':Ġ caseĠ'
join ('
queue _
239 623637
I o
33 36
_S Y
600 9
2059 106
0 Ġ+Ġ
f le
r 8
() ]
py -
ĠĠĠĠĠĠĠĠself. add
padding ='
ĠĠĠĠĉa15 28017199
logging.info ("
blockquote >
ĠĠĠĠĉa316 622284
: "
h n
)Ġ elseĠ
Ex pi
34 77820
default )
44 27
feat _
/g ,Ġ
ĠĠĠĠĉa118 3477820
conside redĠ
pe _
title ('
ĠĠĠĠĉa10 65601448
prox ie
2067 2618
d L_
num )
size (0
ini .
input s
fol lowe
utils. get
gre y
G Py
H IT
ĠĠ defĠ_
swe ep_
variable_ scope
V1 alpha1
4 80
5 1
ç Ń
39 864
argument s,Ġ
Cur rentĠ
text- decor
1139 340
ab s
+Ġ 1
ĠĠĠĠĉa1 12811285
sub mission
30 )
ĠĠĠĠĉa19 54984850
root Ġ=Ġ
m )Ġ{
y 2
co verage
ĠĠĠĠ#Ġ TheĠ
39 25
Value ("
MM M
dateĠ toĠ
68 32667
ĠĠĠĠĉa20 7323933
[3 ],Ġ
r mĠ
ĠĠĠĠĠĠĠĠĠĠĠĠ input
ct rl
bu f,Ġ
ĠĠĠĠforĠ i,Ġ
nn. Linear(
ĠĠĠĠĉa4 7232
atom ic
ĠĠĠĠĉa47232 8069
+ 1
3 Ġ=Ġ0;
Y ,
op s.
\n ";
remo te_
constan t(
è¿ Ķ
q q
â µ
Lo cationĠ
Po w
Button (
N ative
for -
ta k
'Ġ +Ġ(
iz eĠtheĠ
version Ġ=Ġ
ĉĠĠĠĠĠĠĠĠ Ġ*Ġ@
Request (
hook s.
234 032
-in -
V IS
forĠ %}
==Ġ 1:
'] Ġ+Ġ
88 87732
ĠĠĠĠĠĠĠĠ: argĠ
6Ġ=Ġ 12;
ĠĠĠĠĉa3 8887732
admin .
ĠĠĠĠĉa185 3232100
319 639
' t
ĠĠĠĠĠĠĠĠ args.
ĠĠĠĠĠĠĠĠĠĠĠĠĠĠĠĠĠĠĠĠĠĠĠĠĠĠĠĠ Ġ'
weight s
mode ="
ĉĠĠĠĠĠĠĠĠĠĠĠĠĠĠĠĠ }
ĠĠĠĠĉa17 67908355
libr arie
STAR T_
0,0,0,0, 0,0,0,0,
wiki /
ĠĠĠĠĉa28 3638513
yyy yĠ
M F
de cre
con fĠ
ver t
In finity
anĠ emptyĠ
obj ):
encode d_
78 1488
updateĠ theĠ
ĠĠĠĠĉa154 781488
ĠĠĠĠĉa69 6611360
conda /
ĠĠĠĠĉa165 678070
c 9
ne sted_
ĠĠĠĠĠĠĠĠĠĠĠĠĠĠĠĠĠĠĠĠ [
style =
addres s,Ġ
ĠĠĠĠĉa20 3259639
ali asĠ
accord ingĠtoĠtheĠ
Ã ³
ĠĠĠĠ PyObjectĠ*
me s
head .
request ('
__p 2,Ġ
ĠĠĠĠĉa79 4171015
5969 2617
alet te
1879 552445
FORĠAĠPARTICULARĠPURPO SEĠ
/ lib/
a ')
de li
(self,Ġ value):
filter =
numberĠ isĠ
38 00
ĠĠĠĠdefĠ__init__(self,Ġ *args,Ġ**kwargs):
indi cator
Ġ==Ġ32 )Ġ&&Ġa
adj ac
ĠĠĠĠĉa92 1656495
> `
value s_
32 ,
referen ces
ĠĠĠĠĉa7 211
234 219
ddd d,Ġ
os.path.is file(
464 31
ĠĠĠĠĉa7211 46431
2 298
L P
ĉ 2
fig .
ĠĠĠĠĠĠĠĠ""" TestĠ
99 22
response ,Ġ
%s \n
999 234
ĠĠĠĠĠ*Ġ _.
Multi Iter
AV R
", ĠĠ#Ġ
Get Attr
ĠĠĠĠĉa48 295011
hl js-
999234 816
> ();
E D_
M arg
ue _
res ample
57 19
ĠĠĠĠĉa88 5411120
ĠĠĠĠĉa808 30345
sil ent
4 *
ĠĠĠĠĠĠĠĠ gl
res )
kernel Ġ
Position ĠofĠ
æĸ ¹
WR IT
\ /
_ format
u sageĠ
x ;
no op
so up.
su sp
ID Ġ=Ġ
Me di
sum ()
man ual
embed dingĠ
next ().
Can vas
(self)Ġ->Ġ str:
Calcul ateĠ
f 2
#Ġ theĠ
au gment
Mo z
node s.
instance .Ġ
DB Ġ
free _
180 9933
_MO DE
55120 106Ġ=Ġ
m v
st ation
me d
fromĠ astropy.
var ,Ġ
and -
AC E_
filename ):
ĠĠĠĠĉa4 55120106Ġ=Ġ
metho dĠtoĠ
button .
.to LowerCase
permission Ġ
__b );
<pĠclass=" caption
4 -
ue s
par ty
ho t
33 69
AP _
dayĠofĠtheĠ week
2058 14
Observ able
S Ġ=Ġ{
T ABLEĠ
ç ¨
ĠĠĠĠĠĠĠĠĠĠĠĠ ifĠ(!
qu it
po s=
vari an
distance _
Pr intĠ
ing= utf-8
3 894
q i
ĠĠĠĠĠĠĠĠself. b
cor r
long erĠ
training )
compute dĠ
undefined )Ġ{
SH A
107 13
i ri
ĠĠĠĠ /*Ġ"
al ty
sĠ <Ġ
vi rt
29 44
</p> </li>
Cle an
(</span> <emĠclass="sig-param"><spanĠclass="n">
ĠĠĠĠ ForĠ
29 049
param .
nameĠ=Ġ name
Off set(
287 67
ä¿ ¡
ĠĠĠĠĉa1157 658232
' PFNGL
e ))
#Ġ @
ter mĠ
IN D
Po s)Ġ
update ({
ES S_
ĠĠĠĠ: typeĠ
sizeof( __pyx_k_
] =
å »
Py Unicode_
map ,Ġ
makeĠ aĠ
æľ Ī
744 4449
ĠĠĠĠĉa137 7444449
ws gi
fair seq
os.list dir(
% 3
S ide
.Ġ DefaultĠ
age _
_de te
UT T
3Ġ=Ġ 6;
user_ guide/
/v 1/
approx im
cre ation
sĠtoĠ thisĠ
200 0Ġ=Ġ
err no
Option s.
attribute s
applic ation.
63 8734
xml _
replace ment
ĠĠĠĠĉa132 0016298
638734 8
- down
w on
ĠĠĠĠ /*Ġ
as signe
con struct
79 8785
gre eĠ
cast (
lst m_
647 2269
ĠĠĠĠĉa2013 934
798785 87
S S_
Ø ³
Ġ=Ġ Q
so ,Ġ
im show
{%Ġ forĠ
r' \
Proto type
_CON TI
VERIF Y_
B T
n erĠ
ç ¤
te dĠ=Ġ
sc rol
<liĠclass="toctree-l 1Ġ
ĠĠĠĠĉa15 69088669
STAR TĠ
:Ġstr,Ġ defaultĠ'
deploy ment
ylabel ('
ĠĠĠĠĉa65 148922
explici tĠ
ĠĠĠĠĉa29 5433669
. gz
h ouse
k v
y ",
ma .
config (
44 94
ĠĠĠĠĉa177 046
5 170
in spect
Po wer
exp (-
ĠĠĠĠĉa4 5494470
description Ġ
Colum nĠ
ĉĠĠĠĠĠĠĠĠĠĠĠĠĠĠĠĠ varĠ
EM ENT
sphin x.
ĠĠĠĠparser.add_argument (
group. Group.
Constra int
67659 85
S ame
b log
h df
19 34225638
36 15
channel s,
23 55
ĠĠĠĠĉa15 1200284
car d_
ĠĠĠĠĉa14 6765985
ĠĠĠĠĉa109 5813216
åıĤ æķ°
k :Ġ
(self. __
17 0719
min Ġ=Ġ
CRE ATEĠ
> </
th .
work er_
executor .
ACH E_
xlabel ('
Sphin x
ĠĠĠĠĠĠĠĠ hidden_state
re vision
en ded
ab cĠimportĠ
string Ġ=Ġ
ĠĠĠĠĉa187 210
ĠĠĠĠĉa187210 9584
C ri
T ai
æ Ľ
verbose :
===Ġ' function
para graph
Zo om
ĠĠĠĠ self._
forĠ moreĠ
ne t(
ca se_
640 2656
substring (0,Ġ
@ medi
ĠĠĠĠ Example
"Ġ \
ou sel
ml .
EN V
index .html">
54 77
\n ',Ġ
36 00
66 69
plt. plot(
Edi tor
dayOf Year
AME TER
3784 2215
t )Ġ{
ĠĠ </a>
reg res
database .
__Pyx_Py Int_
PyArray_ MultiIter
Ġ [
1] ,Ġ[
output ;
Fiel dĠ
_list .append(
Activ ation
spar se_
ĠĠĠĠĉa200 8541952
Sw itch
atern ion
s )))
the m.
header s,Ġ
l. h:
133 9
scale_ factor
ĠĠĠĠĠĠĠĠself.assertEqual (self.
os.get env
" %s
* }Ġ
A mer
ç º
de cessors
Ġ*Ġ u.
ĠĠĠĠĉa19 8
(int )
keras. layers.
logging.info ('
Ġ ?Ġ
in valid_
ĠĠĠĠĠĠĠĠ< scriptĠsrc="
ĠĠĠĠif ((((
measure ment
ĠĠĠĠĉa164 6716028
hasOwn Property(
j w
r ate_
,Ġ h
curren c
tf. nn.
followingĠ condition
8 Ġ=Ġ34Ġ;
m itĠ
y et
ĠĠĠĠĠĠĠĠ yĠ=Ġ
co _
set sĠ
34 894
57 6955629
argument s[0]
GL_ TEXTURE
556 37
White space
valueĠ ==Ġ
ĠĠĠĠĉa132 2926709
getitem __(self,Ġ
6009 326
5170 448
34894 54
: ĠĠĠĠĠĠĠ
e chart
Se par
29 364
mi le
stack Ġ
Ġ" $
ĠĠĠĠĉa7 220
Pri mitive
åĲ İ
probabili tyĠ
ĠĠĠĠĉa808 9911
reas onĠ
1119 1414
ĠĠĠĠĉa7220 55559
notĠ aĠ
ĠĠĠĠĠĠĠĠ#Ġ theĠ
2Ġ=Ġ 4;
https:// api.
Ġ&&Ġ( ((
cer t_
pretraine d_
notif y
ĠĠĠĠĉa188 718
ĠĠĠĠĠĠĠĠforĠiĠinĠrange( len(
LEV EL
ĠĠĠĠĉa188718 0864
C AT
mo tor
ĠĠĠĠĠ*Ġ@ returnsĠ{
verte x_
PyErr _Set
3366 14
1445 1839
T wo
a ",
37 48
sĠimportĠ (
EX IST
ĠĠĠĠĉa4 59
1319 3894
29364 94
p ul
ap is.
ĠĠĠĠĉa1 2009
link Ġ=Ġ'
staticĠ inlineĠ
predi cted_
Variable (
GU O
694 2000Ġ=Ġ
Beautiful Soup
Amer ic
ĠĠĠĠĉa198 1549917
ĠĠĠĠĉa12009 38212
a ",Ġ"
d 0
"" ;
0. 5,Ġ
ax esĠ
ĠĠĠĠ@ constraint(
position _id
ĠĠĠĠĉa19 0132564
cat ([
na ke
Message (
ĠĠĠĠĉa30 6942000Ġ=Ġ
insideĠ theĠ
2727 7
C enter
result ingĠ
stop ()
aspe ct
P AT
t ro
De pth
`` None
27 11
_F rom
970 1260
ĠĠĠĠĉa111 9701260
8817 48
chun k_
4494 25
i se
36 549
2Ġ=Ġ 10;
Ġ*ĠĠĠĠĠ returnĠ
HTTP _
Ġ==Ġ32 Ġ&&Ġ(a
rc Param
ĠĠĠĠĉa459 042594
"] Ġ==Ġ
ang le_
37 27277
null _
epoch ,Ġ
pend ing
ĠĠĠĠĉa199 106816
61188 8
E .
sel eni
ĠĠĠĠĠĠĠĠreturnĠself. __
ĠĠĠĠĉa7 2704744
wra pĠ
recor d_
Sched ule
os.path.dirname (__file__
shut down
v in
ĠĠĠĠĠĠĠĠ test
ĠĠĠĠĉa1 57
sa yĠ
Pro te
29 55
open (self.
TH READ
49 80
\2 \u0
68 332
Fe ed
320 834
en sure_
start :
version s/
68 20
cryp to
Ġ+Ġ" /
copy. deep
( result
ĠĠĠĠĉa1 2710
ĠĠĠĠĉa10 34455404
{%Ġend forĠ%}
ĠĠĠĠĉa12710 3724
U C
ch ap
ĠĠĠĠĠĠĠĠreturnĠ _
cur sorĠ
35 68
ĠĠĠĠĠĠĠĠself.assert False
bad ;
ĠĠĠĠĠĠĠĠ name
([ ^
User s/
calcul ate
.shape )
234 68332
808 3336
3x 3
R ,Ġ
do main_
':Ġ True
11 1320
gro und_
pl y(
den om
senten ceĠ
æľ ¬
ĠĠĠĠĉa1511 337479
2060 315
}),Ġtrue), ĠĠ'
x 2,Ġ
li ttleĠ
Ġ+Ġ 1)
char t.
exp onent
ï¼ Ī
345 14
ĠĠĠĠr """
emit ter
ĠĠĠĠĉa350 668422
<!DOCTYPEĠ html>
0 ',Ġ'
3 ",
sĠ withĠtheĠ
ĠĠĠĠĉa1 846
item Ġ=Ġ
uint 16
Fil l
Parti cle
ĠĠĠĠĉa189 0987168
1640586 548
ĠĠĠĠĉa1846 509865
S ent
le dĠ
ĉĉ #
(( self.
ĠĠĠĠĠĠĠĠĠĠĠĠĠ bygroups(
tag ,Ġ
help erĠ
âĢ ľ
111320 85
5 Ġ=Ġ36Ġ;
Proper ties
req _
106 3369
1063369 04
Z _
h ack
ĠĠĠĠ H
ĠĠĠĠĠĠĠĠ sub
":Ġ 0,
python -
sizeĠ ofĠ
device =
Per cent
æį ¢
Other wise
anno unce
############ ###
alphab et
tabindex ="
2713 55
. 9
pi cture
200 3925
parti cle
(__m 128
Da y(
public :
Ter min
9922 864
34514 501
D AY
E scape
st d_
"Ġ %
.Ġ WeĠ
'Ġ '
we ath
Error ,
m. format(format
29 77
))Ġ ĉ#ĠGL/glext.h:
ï¼ ī
92 38
3 dĠ
D ot
:Ġ |
50 ,
AL PH
ss l.
over lay
regist erĠ
sd ">
moment( m.format(format
x1_ tĠ
ĠĠĠĠĠĠĠĠĠĠĠĠĠĠĠĠassert.equal( r.
ĠĠĠĠĠĠĠĠĠĠĠĠĠĠĠĠrĠ=Ġ moment(m.format(format
[ 2:
ĠĠĠĠ long_description
ĠĠĠĠĠĠĠĠ mock_
11 31
UL TI
Pa cket
æĹ ¥
_PO ST
BitĠ maskĠofĠ
Po sĠ(
kwarg s.get('
/*!<Ġ BitĠmaskĠofĠ
ĠĠĠĠPre decessors
#Ġcod ing=utf-8
Pos)Ġ /*!<ĠBitĠmaskĠofĠ
ĠĠĠĠĠĠĠĠ np.
AR D
method s
vari ant_
gotoĠ bad;
ĠĠĠĠĉa27 022689
visu aliz
- 9
b p">
Ġ </li>
11 9
14 318
[0] [0]
parse Int(
save _dir
)? ",
num =
ĠĠĠĠ< inputĠtype="
ĠĠĠĠassertĠ isinstance(
LOC AL
Object. define
4 116
g p
ĠĠĠĠ x_
mo useĠ
attr _
box esĠ
ĠĠĠĠĉa5 85174086
è¾ ĵ
386 39
2 86
X MLĠ
k p_
x lim
à ²
defĠ load_
com bo
param s:
channel s
Fra meĠ
likel yĠ
(int 8x16_t)
authenti cation
æł ¼
892 187
[ 7
n /
key s,Ġ
false ,
Key s.
under ly
perform anceĠ
ĠĠĠĠĉa35 892187
-- ;
inĠ yourĠ
ĉĉĉ forĠ
SE QU
(x ):
74 8
symp y.
Identifi er
accord ingĠtoĠ
6 0,Ġ
i or
num Ġ
59 79
represent ingĠtheĠ
_SE T_
ĠĠĠĠĉa112 7791115
comparis on
VERIFY_ RETURN
In ten
ite mp
match ,Ġ
65 854
47 40
ĠĠĠĠĉa154 2948224
otherwiseĠ false.
f lip
is Valid
et ree
Element .
stor ageĠ
m2 m
Clo ud
528 369
recei ver
) ])
ĠĠĠĠĠĠĠĠ image
"Ġ notĠinĠ
ThisĠ isĠtheĠ
Function Ġ
inn erĠ
average _
_SESSION ["
[ 1-
u 64
de cision
TO ,Ġ
ele ct
ĠĠĠĠĉa10 77591043
boxe s_
[2 ]Ġ=Ġ
96 1339
4 194
yĠ andĠ
length ;
_id entifi
ĠĠĠĠĉa15 1017438
ED IT
ĠĠĠĠĉa16 37761314
Modifi ed
shr ink
Ġ Ñģ
fromĠ './
14 457
). get
head erĠ=Ġ
pla inĠ
new __(
stride ,Ġ
pick le_
(__m mask
histor y.
? :
ingĠ onĠtheĠ
ta kenĠ
logg ing_
3,Ġ 4
ob er
Jo in
'][nextState ]Ġ+=Ġ1
D AG
_ len
te sian
fa de
',Ġ' gl
St atic
equ ation
relative ;
PH PĠ
8957 60
swit chĠ
3568 204
k it.
y out
ĠĠĠĠ package
te llĠ
ĠĠĠĠĠĠ forĠ
wor dĠinĠ
De cl
vocab ul
Scal ar
ĠasĠaĠ decimalĠ
ĠĠĠĠ@constraint( m,Ġ
g ree
do ĠtheĠ
è¿Ķ åĽŀ
s am
s,Ġ soĠ
cf g_
_. rtoken(
configur ation.
formatĠ stringĠ
sĠ youĠ
un d.
fi b
}Ġ {
mode =
\3 \
backend .
))Ġ&&Ġ( a
Ġ;Ġ i++)Ġ{
k g
the _
Comp il
parent ">
schema Ġ=Ġproperties.Schema(
done )Ġ{
14457 60
) ')
in side
on tolog
+Ġ "Ġ
kwarg s):
height =
inver seĠ
restri ction
"Ġtype="text/css "Ġ/>
q )
col .
.ĠIfĠ theĠ
ye ster
736 5477
_CONTI GUO
P OR
ab c.
') )Ġ{
ref :`
sub process
29 33
0Ġ <Ġ
https:// arxiv.org/abs/
Bot tom
ĠĠĠĠĠĠĠĠout Ġ=Ġself.
2355 3615
/ {
x sl
code >Ġ
load .
s[i ])
MO D
997 6350
> &nbsp;</td>
ter m_
BU IL
IPython .
yel low
dĠĠ >&nbsp;</td>
4980 960
s. com/
** 2)
pr _
85 509
nd arrayĠ
ĠĠĠĠĉa39 4262028
} ĠĠ
ç ł
ĠĠ padding-
as so
self. get
32 19
85 20062
PROC Ġ=ĠCFUNCTYPE(None,ĠGL
entri es
. rst
C la
T (
tra inedĠ
64 350700
tor chĠ
84 64
expecte d)
ĠĠĠĠĉa12 20672618
F etch
this. month
site ':Ġ'
s[1] ,Ġ
3 ',Ġ'
c token
f w
s x
ĠĠĠĠĠĠĠĠ' sc
()Ġ *Ġ
PyObjectĠ* __pyx_v_
ĠĠĠĠĉa5 6832667
pd. Serie
deriv ative
Pack age
# "
/ 2
ingĠ thisĠ
ĠĠĠĠĉa1 8468
config =
glob al.
ĉĠĠĠĠ Ġ*Ġ@paramĠ{
ĠĠĠĠĉa214 449016
ĠĠĠĠĉa32 2059106
ĠĠĠĠĉa25 7976867
ĠĠĠĠĉa18468 67295
ĠĠĠĠ return
as sumption
#Ġ (
ima gen
180 6280
b lyĠ
s !
per forme
.Ġ INĠNOĠEVENTĠSHALLĠ
pay ment_
Ġ=ĠnewĠ Date
rec entĠ
Ø§ Ø
ĠĠĠĠu' \u
" useĠstrict";
7 69
K in
f ron
m ult
ba z
date Element
sub str(
use _bias
usedĠ withĠ
ĠĠĠĠĉa40 3171557
l m
",Ġ {
IN IT
ĠĠĠĠĠĠĠĠ#Ġ WeĠ
13 9
84 39864
59 54
()Ġ :Ġ
ĠforĠ aĠ
EX CEP
ĠĠĠĠĉa3 8439864
ĠĠĠĠĉa134 1139340
' GL
L AY
[ {
1,Ġ self.
url ):
top ,Ġ
field s_
49 1131
long _
Property <TLength
answ er_
ĉ$P .add
gue s
System.out. print
To String
mi di
tive _
2944 9238
ĠĠĠĠĠĠĠĠ set
sp ine
name s.
dis claim
2955 13
c ing
f inger
',Ġ' PFNGL
ç» ĵ
6929 19
memberOfĠ _
( w
8 60
_ event
re action
20 48
1. 2.
temp ':Ġ
Per form
Res ultĠ
Poly gon
433357 5
d )Ġ{
ĠĠĠĠ parserĠ=Ġargparse.ArgumentParser
le ak
ser veĠ
ĠĠĠĠĠĠĠĠĠĠĠĠĠĠĠĠĠĠĠĠ //Ġ
19 .
layer s
_index Ġ=Ġ
Attribute ("
['name ']
2 99
M Y
self -
con ce
ingĠ isĠ
flag Ġ
extra ctĠ
3Ġ=Ġ 4;
any oneĠ
RA ME
/***/Ġ function(module,Ġexports,Ġ__webpack_require__)Ġ{
99204 38
ĠĠĠĠĉa186 9920438
Invent ory
3740 255
tabindex=" -1
4116 756
ĠĠĠĠĠĠĠĠ classĠ
fi tĠ
() ):
py cli
bu fĠ=Ġ
50 2970
row ">
style s.
err )Ġ{
sĠandĠ theĠ
find_ package
processe d_
ov hg
hours,Ġ minutes,Ġ
ĠĠĠĠĉa157 502970
T Y
an onymo
s. _
var Ġ=Ġ
line s(
min .js"></script>
util s_
iter ateĠ
". /
\xff \x00
sĠ=Ġnp. zeros(
10 4
`` ĠandĠ
max_ iter
</h 4>
__b )Ġ{
_BU FFER
3800 3748
l w
} -
res net_
ĠĠĠĠĠĠĠĠĠĠĠĠĠĠĠĠĠĠĠĠ elifĠ
':Ġ returnĠ
be at
36 12
sec ure
Pie ce
p v
} ).
path ))
Py Type
command ,Ġ
Abbr ",Ġ"
Cam era
usu allyĠ
ĠĠĠĠĠĠĠĠĠĠĠĠ data
importĠ (
16 25
train er.
menu item
Ġ*ĠĠĠĠĠĠĠĠĠĠĠĠĠ ifĠ
0,Ġ len(
re. search
modeĠ ==Ġ'
Imple ment
activation ='
code-block::Ġ python
F it
M K
d ")
x [
ĠĠĠĠĠĠĠĠĠĠĠĠ AĠ
image s.
Integ er(
COPYRIGHTĠHOLDER SĠ
ĠĠĠĠĠĠĠĠ' fst
ĠĠĠĠĠĠĠĠ' ovhg
':Ġ' \u0
3,Ġ 3,Ġ
_path _
28 00
-v 1_3_0.xsd',Ġ
Stri ct
< head>
E 0
F SM
si m_
ref .
St ate_
To kenĠ
pol ar
rule .
acce ptĠ
æĪ ·
paddle ::
Chro me
660 57
( num_
() ;Ġ
end )
1Ġ=Ġ 2;
_list :
ide aĠ
IĠamĠ tryingĠtoĠ
negative _
ĠĠĠĠĉa45 6745107
match Ġ=Ġ
ĠĠĠĠĠĠĠĠassertĠ np.
"><spanĠclass=" caption-text">
support sĠ
ĠĠĠĠĉa1916 234219
L ate
ĠĠ Ġ=Ġ
1. 0.0
30 795
RES ULT
<pĠclass="caption "><spanĠclass="caption-text">
' sĠtheĠ
ĠĠĠĠ log
sh allĠ
Col orĠ
env s/
58 57
Context ,Ġ
__m 256
strftime ("
ĠĠĠĠĉ} elseĠ{
h w_
ĠĠĠĠ {Ġ
ĠĠĠĠĠĠĠĠ sĠ=Ġ
at an
ĠĠĠĠĉ }Ġ
value s)
St ati
ĠĠĠĠĉa19 59692617
Index ,Ġ
**Ġ |Ġ**
format )Ġ{
s:Ġ functionĠ()Ġ{
lang ="
s[i ];
Event .
Dict ,Ġ
)?/ ":Ġ"
)?/ ":Ġ"^
exi st_
V M
~ /.
day :Ġ
39 4427
ĠĠĠ*Ġ |Ġ
ĠĠĠĠĉa214 319639
fu zz
</span></em> <spanĠclass="sig-paren">)</span>
1 Ġ=Ġself.
ĠĠĠĠĠĠĠĠ *
ĠĠĠĠĉa1 999234816
Tr u
ĠĠĠĠ@ pytest.
field sĠ=Ġ
orig in_
Cli entĠ
current ">
seeĠ LICENSE
TEX T_
k -
ĠĠĠĠ andĠ
ĠĠĠĠĠĠĠĠ ...
[0] Ġ*Ġ
57 0909
ĠĠĠĠassertĠ notĠ
right -
Function (
Ġ===Ġ "
controll er.
env/ versions/
h ap
sĠ +=Ġ1
Col lision
cache (
Base .
django.db. models.
2977 2711
D :
h ic
:Ġ ['
col span='
15 2893435
57 08
link age
NUL LĠ
3637 5
5 Ġ=Ġ35Ġ;
.Ġ SeeĠ
33 67
shape .
head ing
prop erĠ
Integ er,Ġ
operator .
modif yĠ
- inĠ
v ron
ĠĠĠĠĠĠĠĠĠĠĠĠĠĠĠĠ new_
<spanĠclass=" hljs-
request Ġ=Ġ
Time Ġ=Ġ
frame )
cho iceĠ
Fo re.
GIVEREF (__pyx_
ĠĠĠĠĉa56 336614
( inĠ
S howĠ
ĉ ĠĠĠĠĠĠĠĠĠĠĠĠreturnĠ
ur len
14 0Ġ=Ġ
[0] );
butĠ theĠ
ĠĠĠĠĉa10 316
pur pose
vertical- align:Ġ
ĠĠĠĠĉa10316 28767
ĉ ĠĠĠĠ};
toĠ getĠ
12 "
this Arg
ĠĠreturnĠ __pyx_r;
01 ">
delete ()
')Ġ ifĠ
AddĠ aĠ
may beĠ
RC NN
èİ· åıĸ
( os.path.join(
e -0
month ly
alfred3_interact. page.
</tt >
D A
N Ġ=Ġ
c )Ġ{
p );
q Ġ
re store
</ code>Ġ
'Ġ )
_list )
640 36375
# ĠĠĠĠĠĠĠ
fo und_
ker as_
ĠĠĠĠĉa4 79878587
SS /
ever Ġ
.py env/versions/
debu g_
252 194
( l
d =
ĠĠĠĠĠĠĠĠ#Ġ TODO:Ġ
label s=
parent =
ĠĠĠĠĉa137 252194
554 7
çĤ ¹
èĥ ½
E )
ĠĠĠĠ k
ĠĠĠĠĠĠĠĠ oprot.write
10 1
ĠĠĠĠĉa18 6402656
Pl an
ĉĠ intĠ
nnĠ asĠ
1818 5979
3 ],
; ;
m ie
ver ticalĠ
0. 1
Numb erĠ
ĠÐ ¿
placehold er(
">[ source]
H orizont
ter mini
ne ssĠ
sc r
char (
Pre pa
dra gg
Rai ses
: ],Ġ
E numer
f Ġ=Ġ"
importĠ cv
ub er
60 170719
ĠĠĠĠĉa9 60170719
( fig
5 205814
Ex port
param s):
bi ase
sign atureĠ
<t t>
ĠĠĠĠĉa2 170
ĠĠĠĠĠĠĠĠre sĠ=Ġ
(x,Ġ y,Ġ
ĠĠĠĠĉa150 6387348
ĠĠĠĠĉa139 5205814
ĠĠĠĠĉa2170 29049
- id
ĠĠĠĠĠĠ /*Ġ"
89 209
DAT AB
ĠĠĠĠĠĠĠĠ Examples
"" );
ĠĠĠĠĠĠĠĠ#Ġ ifĠ
config ĠimportĠ
foo bar
ĠĠĠĠĉa1430 77820
_ time
sĠ usingĠ
ĠĠĠĠĉa19 37842215
left :Ġ0;
">[source] </span></a><aĠclass="headerlink"Ġhref="#
u v
~ /
add_ argument
46 10713
ĠĠĠĠĉa124 4610713
__builtin_shufflevector(__p0,Ġ __p0,Ġ
B undle
é ĺ
ĠĠĠĠĠĠĠĠ train_
ĉĉ '
ro le_
name ',
kwarg s={'
STRING ,
axe s.
U IĠ
z eĠ
ĠĠĠĠĠĠĠĠ H
data ĠandĠ
item ()
55 55637
num_ worker
func )
bt n_
76 54
buttonĠ type="
âĢĵ Ġ
130 58
ĠĠĠĠĉa178 5555637
tensorflow /
j as
>Ġ {
DI M
onlyĠ theĠ
Ġ*ĠĠĠĠĠ ifĠ
Fil ter(
COMP LE
dependenci e
zr Util.
T x
[ m
y ang
sĠ '
SE CRE
ir t
dro pĠ
allowe dĠ
12345 6789
re pla
fiel dĠ=Ġ
youĠ needĠtoĠ
Option alĠ
list_ of_
Local <v8::
ĠĠĠĠĉa167 934
ĠĠĠĠĉa188 1809933
collap sible-
ĠĠĠĠĉa150 3489454
36549 140Ġ=Ġ
4194 89
ĠĠĠĠĉa167934 2379
this. options.
output s,Ġ
msg Ġ=Ġ"
hy p_
ĠĠĠĠĉa16 36549140Ġ=Ġ
ĠĠĠĠĉa18 14451839
Identifi er(
bp"> self
C N
ĠĠĠĠ py
Ġ=Ġ Math.
ta ge
onlyĠ beĠ
onlyĠ oneĠ
PyO bjectĠ
[i] );
seq_ len
42 13058
ĠĠĠĠĉa187 800
Interval (
ĠĠĠĠ__Pyx_ GOTREF(__pyx_t_
ĠĠĠĠĉa187800 5719
,Ġ __pyx_L1_error)
ĠĠĠĠ""" AĠ
2,Ġ 0.
()Ġ andĠ
device .
Property ('
</span><spanĠclass="p"> :
a ;
r x.
t v_
ar ge
alĠ asĠ
13 .
dict :
_id ):
_type _
0)Ġ ?Ġ
exc :
{%ĠurlĠ '
- lineĠ
ma _
per sonĠ
De sk
37 459
std in
a,Ġ b,Ġ
done ();
Distri bution
trig ge
= models.
line s,Ġ
iter atorĠ
parameter _
_M IN
ĠĠĠĠĉa10 881748
01 </a>
'),Ġ ('
countĠ +=Ġ1
transp ort.
__PYX_ VERIFY_RETURN
Ġ=Ġ data
ig ration
_list ,Ġ
look ingĠ
dra g
sinceĠ theĠ
removeĠ theĠ
ĠĠĠĠĉa100 320834
MITĠ License
Bytes IO
th et
sĠ=Ġ functionĠ()Ġ{
"Ġ ng-
res on
'Ġ isĠ
17 16578037
sele ctorĠ
colum n.
weight sĠ
assign ment
limi t_
ĠĠĠĠĉa8 13193894
**ĠĠ| Ġ**
5954 259
pro p_
ĠĠĠĠĠĠĠĠself. set_
AN G
event ):
exist ing_
Ext ent
ĠĠĠĠĉa843683 324
_ ST
ĠĠĠĠ all_
ap Ġ
"] );
index =
refresh _
ĠĠĠĠax .set_
ĠĠ $
re li
',Ġ Name.
') [0]
287 0
Sup er
ĠĠĠĠĉa40 449425
æµ ĭ
1916 668477
ĠĠĠĠ ("
ĠĠĠĠĠĠĠĠ arg
In vo
thisĠ isĠaĠ
_p tr
tab _
dtype= torch.
__rev 1;
ĠĠĠĠĉa199 2936494
Saf ari
fromĠdatetimeĠ importĠdatetime
3612 694
or t_
type ):
batch .
49 57
perform ance
#!/usr/bin/envĠpython 3
///Ġ\ paramĠ
+-+-+-+- +-+-+-+-
nnĠasĠ nn
D b
ĠĠĠĠĠĠĠĠĠĠĠĠ `
var (
orĠ self.
ORĠOTHER Ġ
"><spanĠclass="viewcode-link ">[source]</span></a><aĠclass="headerlink"Ġhref="#
[ @
i ))
t ing.
ĠĠĠĠ padding-
content ">
Return s:
(int 8x8_t)
Multi ple
ĠĠĠĠĉa39 5170448
main. config.get('
datalo ad
C i
C el
l 2_
x ',Ġ'
numberĠ toĠ
ĠĠĠĠĉa132 9922864
trajectory_loc_ prediction.
6 29
W illĠ
sĠ=Ġ set()
ĠtoĠ aĠ
ĠĠĠĠĉa19 23468332
38 233
sli der
broad cast
Authenti cation
q r
Ġ byĠ
24 8
px ;Ġ}
Almost Equal(
4740 989
5 18
N ONE
e igen
k /
ĠĠ :Ġ
con structĠ
count =
Ap pro
warn ("
- '
0 px;
m iĠ
arg s)Ġ{
bo to
25 ,
default ,Ġ
normalize d_
ĠĠĠĠĉa155 314
" })
i o_
x h
ĉĉ });
ren ameĠ
pa ste
che dĠ
11 )
),Ġ 0,Ġ0,Ġ1,Ġ
EN SION
network .
io. k8s.
SC AL
ĠĠĠĠĉa86 3727277
trafficdl. model.
__Pyx_PyObject_ Call
5708 3219
ĠĠĠĠĠĠĠĠ outĠ=Ġ
0) )Ġ{
>> >
s.Ġ ThisĠ
ĠĠĠĠĉa2 106336904
ĠĠĠĠĉa67 8083336
2 ',Ġ
S endĠ
r ĠinĠ
se ct
al go
de d,Ġ
ĠĠĠĠĠĠĠĠĠĠĠĠĠĠĠĠ caseĠ
ret ch
_name Ġ=Ġ"
base -
offset ;
depth _
S ci
ĠĠĠĠĉa1 265
',Ġ' w
mon key
0Ġ /Ġ
37 99204
feature sĠ=Ġ
Ro om
condition sĠandĠ
ĠĠĠĠĉa17 11132085
FLAG S
paralle l_
2933 970
ĠĠĠĠĉa1265 808
E A
c g
imp l_
web site
07 65854
ĠĠĠĠĉa167 0765854
æģ ¯
ĠĠĠĠ F
ver tex
_p attern
ĠĠĠĠĉa20 38639
ĠĠĠĠĉa57 6009326
M ach
g ol
ĠĠĠĠĠĠĠĠ <tdĠ
date (
produ ct.
Mas ked
ĠĠĠĠĉa149 436
ĠĠĠĠĉa657 2727
BEĠLIABLEĠ FORĠANYĠ
ç¤ º
Tai wan
ĠĠĠĠĉa149436 169
ĠĠĠĠĠĠĠĠĠĠĠĠ max_
form Ġ=Ġ
ll _
ĠĠĠĠĉa199 3568204
ĠĠĠĠc c_
focu sĠ{
ĠĠĠĠĠĠĠĠ andĠ
ĠĠĠĠĠĠĠĠĠĠĠĠĠĠĠĠ test
dĠ +Ġ
defĠ gl
ĠĠĠĠĠĠ throwĠnewĠ
string ify(
style _
UR S
arr ,Ġ
alreadyĠ exist
ITEM (__pyx_t_
B alance
` ${
ĠĠ ,Ġ
ic allyĠ
RE GI
sigmo id
5 ):
(" <
lay outĠ
test /
pi pĠ
67 225
confiden ce
ĠĠĠĠĠĠĠĠ functionĠ
ĉĉ get
ofĠ typeĠ
he ight_
unit s.
classe s=
ĉĠĠĠĠ Ġ*Ġ
ĠĠĠĠĉa135 271355
T 2
ĠĠĠĠ op
id s,Ġ
** 2
np. sqrt(
17 5857
parse d
ĠĠĠĠĉa18 34514501
________________ ________________
ĠĠĠĠĉa1715 961339
+ --------
t |
ĠĠĠĠdefĠ update
label s(
attr .i
86 116
Ġ=ĠNone ,
ĠĠĠĠĠĠĠĠĠĠĠĠĠĠĠĠĠĠĠĠĠĠ Ġ'
Sig nal
ra in
line sĠ
ator _
ĠĠĠĠĠ Group.
ĠĠĠĠĠĠĠĠself.assert True
))Ġ __PYX_ERR(1,Ġ
186 304449
ĠĠĠĠĉa840 87
åī į
collapsible- parent">
+ =
i =0
u li
ĠĠ forĠ(
ĠĠĠĠ Attribute
ĉĉĉĉ [
ed (
atĠ aĠ
gro u
ationĠ andĠ
Week day
Ġ*ĠĠĠĠĠĠĠĠĠ returnĠ
decl areĠ
UL)Ġ/*!<Ġ PositionĠofĠ
\ math
Ļ ¨
ĠĠĠĠ input_
15 )
ĠĠĠĠĉa48 2003925
% s:Ġ
J W
ro bot
p. types(
sign ifi
ĉĉĉĉĉĉ returnĠ
@_ p.types(
l bl
"Ġ ||Ġ
84 3367
Block (
Ma il
@ _f
at (
con soleĠ
pro b_
"] ,Ġ"
option .
net ,Ġ
conne ctedĠ
eval (
ĠĠĠĠĉa4 3549
Ph one
typing. Optional[
%H:%M:% S
ĠĠĠĠĉa43549 2298
B io
n ativeĠ
ĠĠĠĠ awaitĠ
Ġ=Ġ f
name "><spanĠclass="pre">
this ;Ġ}
ĠĠĠĠĉa20 23553615
thread .
content_ type
Maxim umĠ
Ġ+Ġ 1,Ġ
CON TR
ĉt ĉf
amoun tĠofĠ
ĠĠ0,Ġ/* tp_
- label
5 ),Ġ
S W
ĠĠĠĠ autoĠ
com ingĠ
[" name
VER TEX
scope =
alph aĠ
compo und
config_ and_
_ base
ê °
ĠĠĠĠĠĠĠĠ printĠ"
er /
input ("
98 540
Sav ing
DEP TH
Ġ=Ġ 17;
mat _
path :
f. close()
check pointĠ
host name
_file )
stride =1,Ġ
Tensor FlowĠ
tear Down
co in
defĠ is_
spe ech
Data Type
Ġ=ĠNone ):
batch_size Ġ=Ġ
(value );
Arti cle
98540 377
ĠĠĠĠĠĠĠĠĠĠĠĠĠĠĠĠ ĠĠĠĠĠĠĠĠreturnĠ
ex change
In di
ĠĠĠĠforĠ iĠinĠ
75 1409
ATE G
ĠĠĠĠĉa69 751409
ban ner
jupy ter_
sphinx. ext.
: (
ĠĠĠĠĠĠĠĠĠĠĠĠ url
0Ġ elseĠ
sĠforĠ aĠ
-=Ġ 1
computeĠ theĠ
backb one
ĠĠĠĠ R
se emĠ
ar ri
ĠĠĠĠĠĠĠĠĠĠĠĠ value
'Ġ ?Ġ
che vron
tra it
Str ing_
rai sedĠ
copy right
_data (
mid d
'Ġ %
ĠĠĠĠĠĠĠĠ#Ġ self.
Pro b
kw d
dataset (
Ver ifyĠ
rg b_
088 6820
ĠĠĠĠĉa179 0886820
ambig u
x ĠinĠrange(
un Ġ
train Ġ=Ġ
initial -
divid ual
j pe
(' <
ĠĠĠ -Ġ
key ,
width )
Fo undĠ
datetime. datetime.now
[0-9 ]+
4957 11
6 85
,Ġ Q
',Ġ Punctuation
Ke y,Ġ
ĠĠĠĠĠĠĠĠĠĠĠĠĠĠ "
ĉĉĉreturnĠ this;
ĉĠĠĠĠĠĠĠĠĠĠĠĠ ifĠ(
parti alĠ
cursor :Ġ
æ¨¡ åŀĭ
abbreviated TimeZone
( obj,Ġ
é Ŀ
comp ileĠ
15 85509
au x
transform ation
LOG .
ĠĠĠĠĉa175 1585509
ĠĠĠĠĉa200 7365477
C SS
ĠĠĠĠ yĠ=Ġ
pa stĠ
test sĠ
sub scrib
ĠĠĠĠĉa19 4980960
Pre viou
ĠĠ#defineĠ __Pyx_Py
Protocol .
ĠĠĠĠĉa56 8520062
ĠĠĠĠĠĠĠĠ P
55 295513
example .com/
STAT E
apply( null,Ġ
ĠĠĠĠĉa8 55295513
Q A
te dĠinĠ
width ,
66 369
tensor ,Ġ
ĠĠĠĠĉa4 83
pixel Ġ
eng lish
Column ('
Gre en
795 57
ĠĠĠĠĉa483 895760
date =
layer ,Ġ
classe sĠ
ĠĠĠĠĉa15 38003748
prefi xĠ=Ġ
ĠĠĠĠĉa1050 528369
329 3534
66369 147
ĠĠ [
"Ġ ifĠ
.Ġ WhenĠ
12 ))
12 44
size ':Ġ
Ġ*Ġ@ returnsĠ{
args,Ġ "
sĠ=Ġnp. array(
wait_ for_
:Ġbool Ġ=ĠFalse
accept ableĠ
registe redĠ
</span>Ġ<spanĠclass="o"> =
7 046
ç «
ĠĠ border
ĠĠĠ {
Per sist
ĠĠĠĠĉa15 29449238
allo cate
datetime. timedelta(
invo cation
Ø§Ù Ħ
a ve
ĠĠĠĠ asyncĠ
th an
IN PUT
data_ path
score sĠ=Ġ
fore ach
__rev0;ĠĠ__rev0Ġ=Ġ __builtin_shufflevector(__p0,Ġ__p0,Ġ
3 ,Ġ'
U r
æ Ĭ
ct xĠ=Ġ
set state
ac count.
a. org/
ĠĠĠĠĉa15 1445760
ciph er.
%Y-%m- %d
virt ual
79557 857
9 ]
æ ¬
sp in
ax es
Type ':Ġ'
step s
callback )Ġ{
DateĠ objectĠ
A verage
M one
W ild
ĠĠĠĠĠĠĠĠĠĠĠĠĠĠĠĠ ),
ingĠ anĠ
sen ti
{} "
]Ġ !=Ġ
AL I
oneĠ orĠmoreĠ
[i ,
save d
ĠĠĠĠĉa7 3740255
Be an
ĠĠĠĠĠĠĠĠĠĠĠĠ(r' [
ĠĠĠĠĉa34 9976350
. fa-
? ",
star tedĠ
29 36
vectorĠ boolĠ
NE TĠ
makeĠ theĠ
WARRANTIESĠ OFĠ
ato m_
ĠĠĠĠĠĠ__Pyx_ GOTREF(__pyx_t_
ĠĠĠĠĠĠĠĠproc.init_oct( 0)
1 Ġ=Ġ35Ġ;
F lu
è ·
Ġ=Ġ b
ME T
by :
Imp l.
dynam icĠ
.execute (
ĠĠĠĠĉa734 491131
F T_
simil arĠ
rgba(255,Ġ255,Ġ255,Ġ 0.15
4 ),
F ORM
S lo
dĠ */
mo dĠ
([ 0-
conv 2d(
:ĠOptional[ str
Sm v
ForĠexample ,Ġ
Referen ces
f 9
co ve
ch i
lo o
aĠ stringĠ
res ['
ĠĠĠĠĠĠĠĠĠĠĠĠĠĠĠĠĠĠĠĠĠĠĠĠĠĠĠĠĠĠĠĠ "
row )
alsoĠ beĠ
ATTR IB
/home/ kca/vcs/openmtc/openmtc-python/tmp/XSDsĠv211/
storeĠ theĠ
= {"
ĠĠĠĠĠĠĠĠ __Pyx_
wh ate
echoĠ -eĠ
Network X
ĠĠĠĠĠĠĠĠself.assertEqual s(
1 d(
: ")
[ b
y a
y m
y ="
ĠĠĠĠĠĠĠĠĠĠĠĠ theĠ
me d_
vo xel
04 /
side -
browser .
Custo mĠ
ĠĠĠĠĉa3357 1739
EMA IL
,Ġ copy
ret a
sĠ=Ġ {"
ph aseĠ
ug ging
Pub licĠ
(self,Ġctx :
__builtin_ia 32_
t x_
de greeĠ
value )Ġ{ĠreturnĠ
down sample
__m 512
prote in
ĠĠintĠ __pyx_t_
(min =0
g d
yĠ *Ġ
"] }
length ;Ġi++)Ġ{
60 44
Token (
DEFAUL T
ĠĠĠĠĉa3 67
STAT US
éĩ ı
tk inter
@click. option
forĠ example
Ġ+Ġ -
Sto reĠ
INCREF (
Dense (
FIX ME
ĠĠĠĠĠĠĠĠ target_
',Ġ Number.
ĠĠĠĠĠĠĠĠself. notify.debug('
Ġ+Ġ self.
27 29
m t.
ĠĠĠĠĠĠĠĠĠĠĠĠ input_
ver sal
out ine
ĠĠĠĠĉa12 30795
Declar ation
ĠĠĠĠĉa33 4116756
264 8
theĠfollowingĠ disclaim
conditionsĠandĠ theĠfollowingĠdisclaim
D IC
ĠĠĠĠ </li>
ar ith
":Ġ "",
ize d_
nameĠ orĠ
RO W_
))Ġ __PYX_ERR(0,Ġ
User .
ĠĠĠĠĉa74 394427
LOGGER .
wait_until_ visible(
F on
arg ument_
De mo
ob tain
produ ceĠ
128 -bitĠ
Ġ< =ĠĠ
/ %
T X
o re
-Ġ self.
"] Ġ
late stĠ
ĠĠĠĠĠĠĠĠĠĠĠ "
rĠ=Ġ null;
acces sion
resize (
frequ encyĠ
4444 18
ĠĠ /*
ĠĠĠĠ __slots
ĠĠĠĠĠĠĠĠ self,Ġ
arg sĠ
replace ('
ĠĠĠĠĉa120 570909
Geometry (QtCore.Q
7046 36
- name
2 3.
_ email
ĠĠĠĠ Ġ(
ĠĠĠĠ app.
ti cket
to ,Ġ
doc ument_
86 8869604
step ,Ġ
fac. Counter
probabili ty
implemen tedĠ
........ ........
s.add (cc_
`,Ġ`optional `):
experim ent_
ĠĠĠĠcounter s.add(cc_
fac.Counter Condition
w k
12 );
line width=
year _
byte s,Ġ
Tra ffic
next Ġ=Ġ
if( !
void _p
be_ shown
L,Ġ max
C AN
l p
sub sequ
tf. variable_scope
re. compile
ĠP attern
2D (
oph ase
8 69
<aĠclass="referenceĠinternal"Ġhref=" ../_
State ('
gre pĠ
Man age
mini str
jQuer yĠ
text-align:Ġ center;
(min=0 L,Ġmax
fac.CounterCondition (min=0L,Ġmax
<aĠclass="referenceĠinternal"Ġhref="../_ modules/
4 62
:Ġ 0,
ingĠ ofĠtheĠ
ĠĠĠĠĉa1 300
with out_
line ()
ĠĠĠĠĠĠĠĠĠĠ #Ġ
module (
Ġ-Ġ 1
lang .
my -
cy cleĠ
query )
interpol ation
manu al_
ĠĠĠĠĉa1300 66057
8 d
y ;
arg .
):Ġ theĠ
ĠĠĠĠĉa10 611
bra cket
ĠĠĠĠĉa10611 8539
E PS
ab ort
run ()
late st_
scale ,Ġ
_c m
fan art
ĠĠĠĠĉa84087 155
ë ĭ
war n(
encode dĠ
handl erĠ=Ġ
Sec ret
14 .
Value ,Ġ
event s
IC _
orig inĠ
Config ,Ġ
_f ull
Hour s()Ġ
)Ġ%Ġ14999 )Ġ-Ġ
staticĠPyObjectĠ*__pyx_ n_s_
ĠĠ{& __pyx_n_s_
A z
st Ġ=Ġ
data ĠimportĠ
andĠ itsĠ
newĠ RegExp
cent roid
================ ====
TI ER
navigation "Ġaria-label="
Alph a
x ))
ĠĠĠĠĠĠĠĠĠĠĠĠ +Ġ
fin iteĠ
element =
... )
example _
dateĠ toĠtheĠ
Au di
leadingĠ zeros
çł ģ
@ paramĠ
ĠĠĠĠĠĠĠĠ current_
13 ,
.re lu
Argument s:
Tim er
pand as.
.restype Ġ=Ġ
: not(
O ri
()Ġ ===Ġ
.re shape(
#defineĠ __Pyx_Py
cursor .
matchĠ theĠ
guil d_
ĠĠĠĠĉa739 6669
c umul
ĠĠĠĠĠĠĠĠ user
ge st_
str ument
",Ġ help="
los s)
999 2800
Wor ker
ĉtĉtĉfĉfĉfĉf ĉ
_CONTIGUO US
( char
ĠĠĠĠĠĠĠĠself. num_
image s_
pack etĠ
count ()
session ,Ġ
Inter rup
visi tor
.* ?
enumerate (self.
Ent ropy
R IGHT
e 9
o sĠ
wid getĠ
')Ġ #Ġ
a- f
memview sliceĠ
} :
en cryption
ĠĠĠĠĠĠĠĠĠĠĠĠĠĠĠĠ .
ur Ġ
mp a
Th resh
key );
min fo
parse DOM
.set Text(
file. write(
ĉĉĉreturnĠ functionĠ()Ġ{
possibleĠ toĠ
z ",
ĠĠĠĠĠĠĠĠĠĠĠĠ g
ge om
id ]
',Ġ functionĠ()Ġ{
_name ):
sum Ġ
scal arĠ
long Date
cd n.
invo kedĠ
rep lic
Ã£ oĠ
6 b
C Function
_ or
ĠĠĠĠĠĠĠĠĠĠĠĠ file
0. 0)
xĠ <Ġ
column sĠ
PY _L
Format ĠPattern
Ġ==Ġ32 Ġ&&Ġa
A ir
_ g
x 86
mp f_
sc an_
block ,Ġ
2Ġ=Ġ 11;
tf. Tensor
horizont alĠ
FOR CE_
tempor aryĠ
IMPLI EDĠ
reach _
CONTR IBUT
4 Ġ*Ġ
is Array
In te
EN CE
tool ti
ĠĠĠĠĉa2 64036375
_dict [
look sĠlikeĠ
Ma inĠ
develo per_
correct ly
ĠĠĠĠĉa199 4213058
implemen ted_
underst andĠ
/ ',Ġ
b al
v m
pre process_
model ,
34 58
24 Ġ
default dict(
port )
ĠĠĠĠĉa19 29772711
isinstance (self.
)Ġ*Ġ 1);
ĠĠĠĠ<aĠclass="referenceĠinternal"Ġhref="alfred3_interact. group.Group.
focus ,
thrift_ spec
A Z
I 2
p n
ĠĠĠĠĠĠĠĠ dĠ=Ġ
ne w.
",Ġ lineĠ
format tedĠ
\n Ġ
dĠ=Ġ true;
vide o.
Node Path
CONNE CTION
t one
') :Ġ
ĠĠĠĠĠĠĠĠĠ ]))
CON ST
sur face
os.path.base name(
PyErr_Set String(
S ite
X ml
ĠĠĠĠ caseĠ
un lock
param s["
1Ġ=Ġ __p1
Ch art
ĠĠĠĠĠĠĠĠĠĠĠĠĠĠĠĠifĠ len(
left 'Ġbgcolor='#0000FF'><fontĠcolor='#FFFFFF'>
listĠofĠ conditionsĠandĠtheĠfollowingĠdisclaim
__s 1Ġ=Ġ__p1
sĠ=ĠfunctionĠ( value)Ġ{
__s1Ġ=Ġ__p1 ;Ġ\
H DU
L amb
\ tĠ
ĠĠĠ }
key ;
node TypeĠ
logg ingĠ
.p df
AS SE
ĉĠ*Ġ Add
load_ state_
cv t
:class:` .
sampl ing
Diction ary
days,Ġ hours,Ġminutes,Ġ
h ighe
Ġ( Ġ
fromĠ k
del _
0Ġ <=Ġ
ĠĠĠĠĉa19 18185979
Request .
center 'Ġbgcolor='#0000FF'><fontĠcolor='#FFFFFF'>
secur ityĠ
ç±» åŀĭ
. csv
1 Ġ=Ġ36Ġ;
3 c
ĠĠĠĠĠĠĠĠĠĠĠĠ data_
yĠ forĠ
tf. reduce_
some oneĠ
CUR REN
B Ġ=Ġ
d [
mo use_
fig .add_
ĉĠ*Ġ Determine
tmp Ġ=Ġ
email .
DateĠ objectĠtoĠ
p( this.get
ĉĠ*Ġ@paramĠ{ Date}
indexOf (
ĉĉifĠ(! value)Ġ{ĠreturnĠ
ĠĠĠĠdefĠforward(self,Ġ x):
tan h
ĠĠĠĠĠĠTheĠ CultureInfoĠ
ĉĠ*Ġ@paramĠ{Date} ĠĠĠĠĠ
ĉĉifĠ(!value)Ġ{ĠreturnĠ this;Ġ}
M AN
n ad
name ,Ġ'
is :
ON LY
wn Ġ
]Ġ=Ġ {
day )?
Di mĠ
type= By.
IG N
nor mĠ
ĉ$P .get
even ">
8464 106Ġ=Ġ
S N
i k
n ;
ĠĠĠĠĠĠĠĠĠĠĠĠĠĠĠĠ ĠĠĠĠĠĠĠĠĠĠĠĠifĠ
fa ces
log ge
sy ll
Ch angeĠ
ĠĠĠĠĉa60 8464106Ġ=Ġ
ĉ$D. validate
fm tĠ
\\d \\d
proce du
Answ er
5 ),
j sĠ
,Ġ self._
label s,
DE CL
pri orĠ
method ">
ĠisĠnotĠ None
multip le_
ÂłÂł ÂłÂł
_sched ul
= np.
C allĠ
sĠ ease
ith erĠ
python .
header s)
cache _dir
directory data
pep ti
B r
ĠĠĠĠĠĠĠĠĠĠĠĠ importĠ
option s)Ġ{
Fi sh
List Ġ=Ġ
.com mon
figure ()
ĠĠĠĠĉa109 4740989
6 ]
)Ġ ĉ#ĠGL/glext.h:
{Ġ returnĠ
ĠĠĠĠforĠ (
)Ġ==Ġ 1
Context .
(i )
sĠ=Ġself. get_
ĠĠĠĠĉa734 89209
735614807 Ġ*Ġa
_sat _r
1 Ġ=Ġ0;
s D
#Ġ ================================================================
ati s
-ms- flex-
Fig ure
1 *
ĠĠĠĠ end
ex c.
xĠ andĠ
dd d,Ġ
right ,Ġ
(G ,Ġ
toString( c.
ĠĠ poly
pro file_
er. get_
da emon
\\ s
stream ing_
ĠĠĠĠĉa14 37459
progres s_
scores ,Ġ
- c
0 ')
R Token
re port_
as i
fi xt
obj ;
Date Nth
0, 1,
tree _
ĉĉĉĉcaseĠ" %
progra m.
geome try
Respon seĠ
Ġ/Ġ 5
ĠĠĠĠĉa112 515
165 1625
datalo ader
CONTRIBUT OR
3 "
head line
stri ctĠ
util s/
_block _
149 4769300
longĠlong Ġ__
id ent
fa c
(f ull
schema ::Ġ
Deprecation Warning
importĠtorch. nnĠasĠnn
æĮ ĩ
sĠ=Ġ this.
__pyx_t_ 6
attr ,Ġ
conta ct_
clo sure
filename );
nullĠ ?Ġ
schema::Ġ io.k8s.
/ <
b ;
t ("
ch or
</ em
da il
item (
Fil terĠ
ĠĠĠĠĉa64 419489
8 30
file s_
content ,Ġ
AS H
74 2936
san s-
742936 20
F ,Ġ
U i
fi dĠ==Ġ
am ination
1Ġ &&Ġ
Lay out.
_data )
ĠĠĠĠĉa196 3612694
- of-
E mit
add Widget(self.
length ĠofĠ
Data setĠ
right 'Ġbgcolor='#0000FF'><fontĠcolor='#FFFFFF'>
74 727
ĠĠĠ*Ġ |Ġ:
rever seĠ
* )Ġ
= ="
å Ļ¨
cl s
size ):
withĠ the
check ĠtheĠ
-------------------------------- --------
dĠinĠ self.
459 2648
ĠĠĠĠĉa155314 5547
# define
/ ":Ġ"^
E q
Ã º
é ľ
at -
si x
In cre
ize _
ĠĠĠĠĉa54 175857
fromĠOpenGL .
- specificĠ
T G
V C
p t(
ĠĠĠĠ valĠ
to o
En ti
module s
execu tedĠ
storage .
width= device-
PyBU F
ĉĠintĠ a
sĠ=Ġ int(
file s,Ġ
nameĠ ofĠ
kwarg s
cache [
car ousel
pipe lineĠ
mk dir(
ĠĠĠĠĉa49 3799204
Andro id
Ġ*ĠcdefĠ inlineĠ
vectorĠofĠ [
x Ġ*Ġ
:Ġ null,
sw agg
step Ġ=Ġ
now ,Ġ
aw x.
Output (
éĩ į
fluid. layers.
patter n.
b n_
Ch ina
'' ;
_mask _
WIT H_
Point 3
asset s/
ĠĠĠĠĉa118 74727
ĠĠĠĠĉa11874727 63
( key,Ġ
it selfĠ
date )Ġ{
ie s
input s.
bod y,Ġ
ç¨ ĭ
PY_L ONG_LONG
yĠ (
)Ġ+Ġ 1
info (
NO T
[j ]
deprecate d
re d,Ġ
id le
00 38233
end pointĠ
ca reĠ
2Ġ elseĠ
gener icĠ
65 6
ĠĠĠĠĉa18 57083219
wel come
ĠĠĠĠĉa143 0038233
Mer ge
loggerĠ=Ġlogging.getLogg er(__name__)
64350700 6
sans- seri
w x
ĠĠĠĠĠĠĠĠĠĠĠĠĠĠĠĠ this.
ad am
sub title
87 0
fileĠ toĠ
ĠandĠ theĠ
Progres s
propos al_
guil d.
C W
pre mi
(self,Ġ i
withĠ anĠ
69 84
doc test
conver tedĠ
ĠĠĠĠĉa49 5954259
metaĠname=" viewport
0 ;Ġ
ĠĠĠĠĠĠĠĠ start_
ĠĠĠĠĠĠĠĠ sys.exit
__ attribute
flag s
Windo w.
SER VICE_
I'mĠ tryingĠtoĠ
sIn Month
I PythonĠ
S I
S imp
tr _
fro mt
output (
doc ,Ġ
_P ER
asyn chron
factor y(
observ able
DoĠ notĠ
6 c
: -
ro t_
di alog.
one -
evalu ationĠ
LIN E_
language _
metaĠ charset
ĠĠĠĠĉa94 2933970
Mis sing
Sun day
S Ġ=Ġ[
se g_
ex erci
67 457
75 68
stack ([
self.__class__ .__name__
L ineĠ
ĠĠĠĠ padding:Ġ
"Ġ placeholder="
Ġ==Ġ 3Ġ
"] ),
ĠĠĠĠĠ #Ġ
buil tĠ
game _
ĠĠĠĠĠĠĠĠassert.equal( moment
qb ophase
! ",
2 "
N AN
k w_
thisĠ isĠtheĠ
shouldĠ notĠbeĠ
We ak
Sh ad
.0 /
-1,Ġ -1,Ġ
ĠĠĠĠĠĠĠĠ:return :
n =
{ i
ĠĠĠĠĠĠĠĠ line
ser vices
',Ġ' __
Re cog
ip ul
ĠĠĠĠdefĠtest_ get_
tick _
some _
Component .
è¿ Ľ
"Ġrole=" menuitem
Giv enĠ
@_p.types( None,
+ )
d typeĠ
sp Ġ=Ġ
text "Ġname="
],Ġ "
hidden "Ġname="
lat ent_
PRO TO
pyedbglib.protocols. av
S F
ĠĠĠĠĠĠĠĠ break;
Ġ*Ġ TheĠ
",Ġ None)
False ),
Li st_
evalu ate_
search. html
H idden
L ab
co ok
ac _
app ,Ġ
Ex ce
ear li
point ,Ġ
ĠĠĠĠĉa10 98540377
random. choice(
console. log('
proj _
* t
0 1Ġ
H Object
no stic
path :Ġ
diff (
{%Ġ extendsĠ
åĬ ¨
exter nĠ
fromt xt
M gr
ĉĉ else:
fin alize
ĠĠbackground- image:Ġ
r ,
à ·
inĠ range(
16 :
the ad
train ing.
context )Ġ{
key,Ġ valueĠinĠ
92 3657
ĠĠĠĠĉa154 214
ĠĠĠĠĉa164 923657
ĠĠĠĠĉa89 2870
ĠĠĠĠĉa154214 7654
0 "
P ASS
ĠĠĠĠ output_
file ,
fo o.
result :
)Ġ-Ġ 1
pol l
ĠĠĠĠĉa80 843367
.length ;
è¯ ·
prote ctedĠ
represen tingĠ
Ordin al
Spati al
- 09
sĠ :Ġint
sĠ=Ġ g
ĠĠĠĠĠĠĠĠself. label_
end ingĠ
.Ġ AĠ
s= True,
RE ST
group ,Ġ
port =
new s
Ro wĠ
ĠĠĠĠĠĠĠĠ>>>Ġ fromĠsympy.
à¤ °
writeĠ theĠ
TIME OUT
contra ct
MODEL .
e (
ur i_
None (
ĠĠĠĠĠĠĠĠĠĠĠĠĠĠĠĠĠĠĠĠĠĠĠĠ else:
channel ,Ġ
(((( ((a
optimiz er,Ġ
Declar ation(
destro y()
: first-
F ac
to dayĠ
":Ġ 1,
88 98
String Ġ=Ġ
2Ġ 2Ġ
Ġ-Ġ 1]
[:, :,
Develop mentĠ
< htmlĠ
P ageĠ
config )Ġ{
De code
keep dim
Ġ=Ġnp.zeros( (
ĠĠĠ*Ġ@ seeĠ
. form-
U ri
d '
l li
en codeĠ
as (
ce mber
ate d.
onĠ thisĠ
cle anĠ
graph ,Ġ
_tĠ *
_c v
__p 0
âĸĪâĸĪ âĸĪâĸĪ
Anal y
Middleware ',
0 ',
2 [
Ġ=Ġ cv2.
Numb er_
Dis ableĠ
ĠĠĠĠĠĠĠĠĠĠĠĠĠĠĠĠĠĠĠĠ iprot.skip(ftype)
error Ġ=Ġ
()Ġ /Ġ
ĠĠĠĠĠĠĠĠĠĠĠĠĠĠĠĠifĠ ftypeĠ==ĠTType.
resol ver
frequ ency
filte red
Ju py
ĠĠĠĠĠĠĠĠĠĠĠĠoprot.writeField End()
ĠĠĠĠĠĠĠĠĠĠĠĠoprot.writeField Begin('
<void *>
k ill
box set
edge _index
constan t_
à¤ ¾
runn er.
ĠĠĠĠĉa822 86116
_FL AG
re view
"Ġ method="
)) ]
ed )
tran si
temp Ġ=Ġ
Di Graph
source Ġ=Ġ
butĠ notĠ
ĉĉĉĉĉĉ this.
match. group
FITNESSĠ FORĠAĠPARTICULARĠPURPOSEĠ
metaĠname="viewport "Ġcontent="
2 ],Ġ[
Z ER
Ã ¼
node s,Ġ
[:,Ġ 0]
positiveĠ orĠ
e mul
per mit
25 5.
37 1677
:Ġint Ġ=Ġ
tv show
Hist ory
371677 04
P A
le dge
',Ġ default
_id x,Ġ
willĠ notĠ
scale Ġ=Ġ
SO C
wait_until_visible( type=By.
m mĠ
#Ġ ------------------------------------------------------------------------
57 67225
cm dĠ=Ġ
complete _
.replace( /
ĠĠĠĠĉa134 5767225
A ct
y 1
arg s[
',Ġ' i
TER Ġ
Sh ared
idx )
<codeĠclass=" docutilsĠliteralĠnotranslate"><spanĠclass="pre">
T Ġ=Ġ
li Ġ
config ._
sub classĠ
s.Ġ IfĠ
padding =
Star tingĠ
inner HTML
google .com/
seman tic_
WARRANTIESĠOFĠ MERCHANTABILIT
. md
de codeĠ
ĠĠĠĠĠĠĠĠreturnĠ notĠ
EN CL
pxĠ #
window ,Ġ
ĠĠ__rev 1Ġ=Ġ
text-decor ation
__rev1; ĠĠ__rev1Ġ=Ġ
N B
un t
00 820
ĠĠĠĠĠĠĠĠĠĠĠĠĠĠĠĠĠĠĠĠ Ġ"
elseĠ "
.p lay
DO MĠ
_re cord
custo mer
features =
HE IGHT
ĠĠĠĠĉa650 495711
load_state_ dict(
A tĠ
b 4
ĠĠ voidĠ
ĠĠĠĠĠĠĠĠ caseĠ
to_ csv
objectĠ isĠ
Conv2 D(
/C SS/
strftime ('
5 99
Ġ=Ġ set()
con st_
ex plan
sh util
key :Ġ
be come
[1] Ġ-Ġ
iĠ +=Ġ1
filter s,Ġ
popul ation
ĠĠĠĠĠĠ__Pyx_ DECREF(__pyx_t_
insert( 0,Ġ
B io.
di g
input -
ĠĠĠĠĠĠĠĠĠĠĠĠĠĠĠĠreturnĠ False
delete (
Not Set
card -
Environ ment
-1 ).
bi asĠ
2729 25
P IN
u u
Ġ=Ġ c
ĠĠĠĠĠĠĠĠĠĠĠĠ new
ĠofĠ thisĠ
LĠ :Ġ'
query set
case ,Ġ
Fe atures
ĠĠĠĠĠĠĠĠ"""Return Ġ
Djang o
N )
ĠĠĠĠĠĠĠĠĠĠĠĠ out
Ġ==Ġ 3
pl y_
]Ġ=Ġ []
youĠ shouldĠ
Day light
parser.add_argument (
client. parseDOM
audi o_
astropy /
e fficient
o cr
:Ġ http://
isĠ None
s= False,
88 59
100 0);
ĠĠĠĠĉa4 79557857
addres s.
evalu ator.
domain .
ABLE D
******************************** ****************
CM SS
Ġcf==1ĠĠ &&Ġa
ĠĠĠĠĠĠĠĠproc.set_input_tuple (1,Ġ
f tp
k t
p ):
p print
or th
key sĠ
late x
left Ġ=Ġ
FUN CTION
- 07
ĉĉ 0x
s[ :,
Di v
Wid get_
soft max(
Wi ki
PyObjectĠ **
Y E
ĉ Ġ*Ġ@
Ġ=Ġ dict(
ro undĠ
con d_
Ġ( 0x1
end .
_type )
)ĠforĠ iĠinĠrange(
,ĠandĠ theĠ
self).__init__ ()
è¿ Ļ
visi t
520 390
_ ref
ĠĠĠĠĠĠĠĠĠĠĠĠ </
user sĠ
clo singĠ
LO G_
lang _
emb _
None,Ġ None,Ġ
quo ta
generator .
ĠĠĠĠĉa16 3293534
ĠĠĠĠĉa213 520390
coor d_
1 999
ĠĠĠĠ printĠ'
id ',Ġ'
impor ts
s,Ġ n_
inter action
wi k
contin ueĠ
gu ild
credential s.
inline-block ;
Clu ster
d w
n g.
id ":Ġ"
ation alĠ
10 ):
start )
defĠ_ get_
pow erĠ
__builtin_shufflevector (__p
amp li
collapse -
evid ence
ĠĠĠĠĉa127103724 0Ġ=Ġ
7568 3458
F IN
T M
ĠĠĠĠ font-size:Ġ
ar rowĠ
dĠ __
val ĠinĠ
data ĠforĠ
Ch unk
ĠĠĠĠĉa20 66369147
Wh i
Map .
)ĠandĠ (
patch _
base. cr
Ele v
render_ template
\ frac
s( )Ġ{
load ing
color s.
ĠĠĠĠĠĠĠĠĠĠĠĠĠĠĠĠĠĠĠĠĠĠĠĠĠĠĠĠ returnĠ
base Ġ=Ġ
ĠĠĠĠĠĠĠĠself.assertEqual( len(
colle ctor
çĶ¨ æĪ·
);ĠifĠ(unlikely(!__pyx_t_ 3
3 a
A FF
15 255
_name ='
Ret ri
buff er(
TypeError (
ĠĠĠĠĠĠĠĠĠĠĠĠ l
ro pe
diction ary.
remove dĠ
transform ationĠ
col- sm-
')Ġ andĠ
custom er_
ä¹ ī
coutĠ <<Ġ"
INTE GER
f v
arg s);
.Ġ DefaultsĠtoĠ
line ):
ĠĠĠĠĠĠĠĠĠĠĠĠĠĠĠĠĠĠĠĠĠĠĠĠĠĠĠĠĠĠĠĠ ĠĠĠĠĠĠĠĠĠĠĠĠĠĠĠĠĠĠĠĠĠĠĠĠ
sĠtoĠ add
sample (
specifi ed,Ġ
Do esĠ
md 5
pretraine d(
paddle /
( long
H D
K )
in v_
data ()
ĠĠĠĠĠĠ $
head er,Ġ
ĉĠĠĠĠĠĠĠĠ //Ġ
<dtĠ class="field-odd">
# html_
3 );Ġ__pyx_t_
Ø ¯
size _t)
ĠĠĠĠĠĠĠĠĠĠĠĠĠĠĠĠĠĠĠĠĠĠĠĠĠĠĠĠĠĠĠĠ ĠĠĠĠĠĠĠĠĠĠĠĠĠĠĠĠĠĠĠĠĠĠ
ag entĠ
MM MĠ
fet chĠ
äº İ
indicat ingĠ
f s_
ĉ //
th ou
di scre
length Ġ>Ġ
UN IC
lef t.
Mod al
Speci fyĠ
class="field- even">
PyErr_SetString( PyExc_
se cu
con struction
par sing
curren tĠ=Ġ
ĉĉĉĉĉ this.
case ĠĠ
sĠ=Ġ{} ;
Object. keys(
Java ScriptĠ
Marg in
metaĠname="viewport"Ġcontent=" width=device-
h m
h or
er =
response ['
fileĠ andĠ
<divĠclass=" highlight
testĠ importĠ
:Ġ%s 'Ġ%Ġ
maj or_
<emĠ class="
s ],Ġ
ĉĉĉĉ }ĠelseĠ{
parser _
shouldĠbeĠ aĠ
Star t,Ġ
pyxb.binding. basis.
C EL
Ð ±
ĠĠĠĠĉa1 58
ĠĠĠĠdefĠ to_
10 /
fo ot
key ="
index Ġ<Ġ
<spanĠclass=" sd">
document ation_
:Ġ1 pxĠsolidĠ#
P ur
s ing.
[' a
length (
allĠ ofĠtheĠ
match ing_
File Name
Id x
TI F
_file (
Mix in,Ġ
Altern ative
8 0,Ġ
\ ">
ĉĉĉ forĠ(varĠ
serialize _
builtin s.
boxset .png
re cover
s. size
ĉĉĉ }ĠelseĠifĠ(
15 -
user name,Ġ
13 7
vo ice_
first ()
Inter pol
################################ ################
numpy. ndarray
someth ing
SA MP
- g
a ren
y tick
se mi
ent .
id ;
sub str
Serie s
Atta ck
ĠĠ__retĠ=Ġ__builtin_shufflevector(__ret,Ġ __ret,Ġ
developer_ guide/
P ,Ġ
P ad
load erĠ=Ġ
1, )Ġ#Ġ
En sureĠ
ctx. send(
Raise s:
<dlĠclass="pyĠ method">
ĠĠĠ*Ġ**Syntax**:Ġ` <
W r
c it
ĠĠĠĠĠĠĠĠĠĠĠĠĠĠĠĠ });
ĠĠĠĠĠĠ </
am m
per -
Mo veĠ
color )
proto */
ES ,Ġ
sizeĠ -Ġ
Of (
vol umeĠ
os.environ ['
AllĠRightsĠReserve d.
linear- gradient(
get ("
AT T
node (
zero s_like
disable _
distribution .
å½ ķ
contrib utor
l n(
ĠĠ __
ĠĠ Py_ssize_tĠ
in to
#Ġ AddĠ
trans fer
.set ter
ai o
hy :Ġ
_CON T
a de
ĉ });
sc atter
ĠĠĠĠĠĠĠĠĠĠĠĠĠĠĠĠĠĠĠĠĠĠĠĠĠĠĠĠĠĠĠĠ ĠĠĠĠĠĠĠĠĠĠĠĠĠĠĠĠĠĠĠ
ĠĠĠĠĠĠĠĠ# ĠĠĠ
\d |
bran che
-lg -
color: #
https://developer.mozilla.org/docs/Web /CSS/
<emĠclass=" property
F allback
op Ġ=Ġ
web hook
cr ash
setup Ġ
ĠĠĠĠĉa57 704636
ĠĠĠĠĉa177046 192
$ this->
n atur
ĠĠĠĠ 0x
t( $export.
67 2710
pas sed
ID D
execute _
s.append ('
"ĠĠ tabindex="-1
org.apache .
staticĠinlineĠ __ATTRS_o_aiĠ
8 ]
= []
00 59
Co mb
input ('
Model .get
myĠ $
sf )
':Ġ0,Ġ' R
( Q
+ str(
ĠĠĠĠĠĠĠĠ *Ġ
la zy
EN D_
check .
(c m
al tive
ĠĠĠĠĠĠĠĠĠĠĠĠ s
scale (
ĠĠĠĠĉa7 35614807
nav >
Pri mar
tuple_ s(
nn.BatchNorm 2d(
' /
/ gl
4 )Ġ
= ${
j si
ĠĠĠĠ -
po ole
po lici
with -
ĠĠĠĠĠĠĠĠĠĠĠĠifĠ self._
SE COND
Data Ġ=Ġ
()Ġ =>Ġ
Load ingĠ
ĠĠ# ifĠ
U INT
ĠĠĠĠ description
up lic
gen fromtxt
Bo o
lang Ġ=Ġ
acce ler
saf eĠ
: 4
H I
ne ar
ĠĠĠĠĠĠĠĠĠĠĠĠĠĠĠĠĠĠĠĠĠĠĠĠĠĠĠĠĠĠĠĠ ĠĠĠĠĠĠĠĠĠĠĠĠĠĠĠĠĠĠĠĠĠ
defaultĠ False
slice (0,Ġ
ENSE T_
#! /bin/
UNUSE DĠ
' GL_
7 e
value ,
den se_
(__ v4
Path Ġ
Ðµ ÑĢ
Wor ld
piece s["
manu allyĠ
transform:Ġ translate
Authoriz ation
ĠĠĠĠĉa367 3199
# endifĠ
% =Ġ
ĠĠĠĠ add
ar iĠ
weight s,Ġ
Path Ġ=Ġ
Le ap
chil d,Ġ
Hel p
_COL OR
alĠasĠ F
Daylight Saving
_ ĠinĠ
ro un
(' phase_
ed :
1) )Ġ
Index (
de e
time out_
varĠ _
ph rase
()Ġ <Ġ
Ġ- pĠ
vol ati
container ">
orde redĠ
PyArray_MultiIter New
ĠĠĠ*Ġ@seeĠ https://developer.mozilla.org/docs/Web/CSS/
ĠĠĠĠĉa158 9992800
altive c_
s ':Ġ'
sel l
:Ġ https://github.com/
node ):
Ġ=Ġ_ lib.
Frame work
Imp l
split(' ,
available _
ĠĠborder- color:Ġ#
Addition alĠ
intrin si
3 C
ĠĠĠĠ group
Ġ==Ġ self.
De termin
IT ER
_b as
dĠ=Ġ np.
space .
conver t(
ĠĠĠĠĠĠĠĠĠĠĠĠraiseĠ ValueError(
syn cĠ
I' dĠ
Math. floor(
)Ġ*Ġ5 )Ġ%Ġ
neut ral
o id
w ater
ĠĠĠĠ user
,Ġ end
2. set
re. match
weight ,Ġ
CO D
metadata _
Conne ct
trak t_
staticĠconstĠ charĠ__pyx_k_
scrol lĠ
chevron -down
. glyphicon-
6 d
B ,
æ ĭ
ar ity
for k
fromĠ ...
ie s.
useĠ inĠ
constan ts
exportĠ functionĠ
cpu _
manage _
basel ine_
Igno re
VIE W
n onĠ
w al
ĠĠĠĠ X
tĠ forĠ
con sume
data class
andĠ thisĠ
sub s(
ARB _
ĠĠĠĠwhileĠ True:
F amil
b ble
b attle
r strip
ĠĠĠĠĠĠĠĠĠĠĠĠĠĠĠĠ </div>
int ]]
Bo ard
ĠĠĠĠassertĠ np.
mark Ġ
ĠĠĠĠdefĠ__ getitem__(self,Ġ
foo terĠ
3 }
F A
mo le
ation Ġ(
sa ic
19 0
__Pyx_ Get
kwarg s["
torch. nn.
)Ġ-Ġ -2
tuple _m
prox yĠ
width,Ġ initial-
google apis.
atur day
__pyx_v_self ->
:Ġ {}'.format(
la ce
put (
0, ĠĠ
module Ġ=Ġ
count s.
Hel perĠ
exportĠ defaultĠ
ĠĠ<colĠalign=' left'Ġ/>
_schema ,
<codeĠclass=" x
- m
ì ŀ
ĠĠĠĠĠĠĠĠ param
forĠ `
code point
ok (
plt. show()
evalu ateĠ
(self)Ġ->Ġ None:
Dig it
: last-
b ill
le ss_
di gitĠ
cor rel
iter ationĠ
tensor ([
UB LIC
Read er(
(__p 0);
mach ineĠ
1 E
O O
P UTĠ
R atio
b 2
u Ġ=Ġ
"Ġ &&Ġthis.
ĠĠĠĠĠĠĠĠĠĠĠĠĠĠĠĠĠĠĠĠĠĠĠĠĠĠĠĠĠĠĠĠ Ġ'
34 4
numb er(
ĠĠĠĠĠĠĠĠ: schema::Ġio.k8s.
logging. INFO
logger.info (
reverse ('
ĠĠĠĠĠĠĠĠschema :
GPy .
s `
,Ġ c
pro c_
1,Ġ __pyx_L1_error)
Dire ctive
compati bilityĠ
ĠĠ<colĠalign=' center'Ġ/>
subsequ entĠ
x road
Ġ ')
all .
Th urs
ĠĠĠĠĠĠĠĠĠĠ </div>
require _
IG NO
decod er.
that ,Ġ
merge (
_m [0x
Jan u
likeli hoo
Ġ(0x1 ULĠ<<Ġ
DaylightSaving Time
7 5,Ġ
g w
clo sing
{%Ġ staticĠ
menu -
void ;
:Ġ%s "Ġ%Ġ
v8:: Local<v8::
pur poseĠ
Design ator
underly ingĠ
F .relu
ç ´
er tifi
built inĠ
/ 5
P yĠ
r s
ĠĠĠĠĠĠĠĠ model
ĠĠĠĠĠĠĠĠ letĠ
self. num_
out ;
>Ġ tr
Clas se
vector _
Tex t.get
contentĠ %}
eff ec
Lib City
le t.
anĠ arrayĠofĠ
;Ġ }Ġ
message ):
40 96
28 ,Ġ
Parameter (
metadata Ġ
")) ,
<h 1>
installe dĠ
np.random. seed(
}ĠfromĠ' ../
Il legalĠ
W W
ĠĠĠĠĠĠĠĠ logger.
di minfo
ĠĠĠĠĠĠĠĠĠĠĠĠĠĠĠĠĠĠĠĠ varĠ
100 0,
/*Ġ BitĠ
contain s(
number Ġ(
stack (
first ,Ġ
limit =
sourceĠ codeĠ
GU I
6 ',
G RA
Ñ Ī
ch ,Ġ
fro m.
64 )
UN IT
âĢ Ķ
connect (self.
%,Ġ transparentĠ
min- width:Ġ
raw. GL
is nan
string s
graph en
err )
Al gorith
conver tedĠtoĠ
Proper ty.
retr y_
âĢĵâĢĵ âĢĵâĢĵ
Geometry(QtCore.Q Rect(
b /
sa v
value sĠ=Ġ
19 ,Ġ
2. 5
unit .
att n
ĠĠĠĠ-214 72
jas mine
ĉtĉf ĉtĉfĉfĉfĉf
CMSS W_
de vi
s/ {
15 px;
Ġclass=" field-
object Ġ=Ġ
proper lyĠ
typeĠ ===Ġ'
Do ck
08 "
Ðµ ÑĤ
success fullyĠ
lambda _
æ³ ķ
F D
ĠĠĠĠ Suc
object )
ĠĠĠĠĉa19 74293620
ĠĠĠĠĠĠĠĠexceptĠ KeyError:
ĠĠĠĠĉa6 0059
#ifĠ PY_MAJOR_VERSION
shel l.
Spli t.
NORM AL
ĠĠĠĠĉa60059 748
ingĠ itĠ
s[ Ġ
ĠĠĠĠ#Ġ EnterĠ
iz z
Run n
unsignedĠ long
.j sĠ
Link Ġ
controll erĠ
withinĠ anĠ
Ġ <=Ġ
c. send
level ,Ġ
SystemVerilog Parser.
unicode_literal s
> ,Ġ
T ABLE
b abel
re direct_
an si
ĠĠĠĠĠĠĠĠĠĠĠĠĠĠĠĠ f
si e
state (
error s::
ĠĠĠĠĠĠĠĠ" CMSSW_
!=Ġ null)Ġ{
ele m,Ġ
dtype ,Ġ
xx xx
opti m.
aĠparseĠtreeĠproducedĠbyĠ SystemVerilog
ĠĠĠĠdefĠ__eq __(self,Ġother):
Americ a/
f [0]Ġ=Ġ
[0] ĠforĠ
\n ",Ġ
go ingĠ
Ac ce
button _
visi bility
fluid /
rn n_
pickle. dump
positiveĠorĠ negativeĠ
' )))
, -
B uttonĠ
_ EXT
a ab
Ġ G
re call
path _to_
Type )
numberĠ canĠbeĠ
shouldĠ haveĠ
Size Ġ=Ġ
assign (
streaming_ form_
aĠparseĠtreeĠproducedĠbyĠSystemVerilog Parser#
( 3)
ĠĠĠĠ out
data ))
Mo bile
edĠ byĠ
ĉĉĉĉĉ tryĠ{
_C .
ĠĠĠĠĠĠĠĠĠĠĠĠreturnĠ "
bet ter
enci e
LAN G
rati oĠ
Rendere r
sĠ notĠ
for ="
=" /
"Ġ orĠ
da .
whe el
NULL ,Ġ
ĉĉĉifĠ( Ġ
sys.version_info [0]Ġ==Ġ
fur therĠ
Meas ure
- o
1 Ġ(
mo d.
(" utf-8
type Ġ=Ġ'
2. 0,Ġ
dim ,
fileĠ (
stdout =
inplace =True)
ĠĠĠĠĠĠĠĠ WhetherĠtoĠ
Ġ* Ġ*
int ):
20 29
Bo ke
UN DEFIN
tu deĠ
no_ grad
ĠĠ<colĠalign=' right'Ġ/>
data-toggle=" wy-nav-
paddle/ fluid/
ĠĠĠĠĠĠĠĠ pĠ=Ġ
1Ġ orĠ
[" id
_info _
strateg y.
monthĠ nameĠ
!==Ġ" undefined
ĠB YĠ
disco ver
~ astropy.
ul ">
à ¶
fromĠ setup
len (self._
ĠĠĠĠĠĠĠĠĠĠĠĠĠĠĠĠĠĠĠĠĠĠĠĠ help="
man _
section "Ġid="
------------------------------------------------ --------
ĠĠĠĠĉa50 1651625
boke h
513 0Ġ=Ġ
Gradi ent
6044 5130Ġ=Ġ
chevron-down ">
ĠĠĠĠĠĠĠĠ z
ĠĠĠĠĠĠĠĠ ret
li .
_in st
format );
update d
{Ġ "
ĠĠĠĠĉa19 60445130Ġ=Ġ
boolean ;
EV ENT
sequence_ length
El se
124 623311
xsl :
= 0;
r ng
Ġ=Ġ 8
Ġ=Ġ t
with (
13 4
30 ",
setting sĠ
Fa ke
structĠ __pyx_
itu deĠ
sphin x
4 Ġ=Ġ32Ġ;
Ġ=Ġ x
ro is
notĠ isinstance(
du ce_
<Ġ 0)Ġ{
detection _
2 n
O VER
r [1]
Ġ=Ġ list(
ĠĠĠĠĠĠĠĠĠĠĠĠ valueĠ=Ġ
"" Ġ
op (
In dividual
Re size
Train ing
gotoĠ__pyx_L 0;
ĠĠĠĠSuc cessors
' ",Ġ
C )
q d
s 1,Ġ
Ġ <liĠclass="toctree-l1Ġ
box ;
NA ,Ġ
ĠĠ< iĠclass="fasĠfa-
Job Template
tokeniz er_
558 29
ĠĠĠĠĉa350 67457
D J
k ĠinĠrange(
return ed.
toĠ avoidĠ
)) )))Ġ{
Re positor
ĠĠĠĠ#Ġ ExitĠ
Ġ=Ġ[ [
s':Ġ ['
ĠĠ</ i>
collapse- ul">
ĠĠ<iĠclass="fasĠfa- chevron-down">
r yĠ
output /
man ualĠ
s[1] )
Web Socket
platform:: errors::
consi derĠ
fromĠtoontown .
seconds,Ġ millisecond
" ?:Ġ
( R
T k
25 55829
50 Ġ
_list Ġ=Ġ[]
dist utils.
paralle lĠ
subprocess.P IP
( 4,Ġ
[ f
s And
24 .
title )
whenĠ aĠ
std dev
hasĠ toĠbeĠ
differen t
Ð° Ð½
Mut able
kernel_size= 3,Ġ
,Ġ true
de termini
user s.
29 314
my sql
Size ,Ġ
play list
commandĠ lineĠ
ĉĠ*Ġ@paramĠ{ String
expi rationTime
smar t_
^ Ġ
',Ġ 1)
config ureĠ
exp on
`Ġ ofĠshapeĠ:obj:`
SP ACE
ĠĠĠĠĠĠĠĠĠĠĠĠwithĠ open(
æī Ģ
Regist er
$expor t($export.
plur al
heal th
django.db.models. fields.
2 ",Ġ"
ĠĠĠĠĠĠĠĠ __pyx_t_
inĠ whichĠ
start =
3. 0
whenĠ youĠ
2, 2,
endĠ -Ġ
dtype _is_
hide ()
HowĠ canĠIĠ
)Ġ__builtin_ ia
(self,Ġctx ):
29314 359
! [
: ĠĠĠĠĠĠ
ser Ġ
up loadĠ
ĠĠĠĠĠĠĠĠĠĠĠĠĠĠĠĠĠĠĠĠ break;
IT H
pri m
sk y
keyĠ !==Ġ"
batch_size ,
\x80 \
ni tion
Met ric
ProgrammingĠLanguageĠ::ĠPythonĠ::Ġ 3.
h:mm :ssĠ
d up_
è µ
st (
co .
17 30
()) );
DĠ MMMMĠ
Sup por
è® ¤
sym bo
correspond sĠtoĠtheĠ
assert.strictEqual( log.
w ire
iz ation_
g. ctoken
ts v
model_ tester.
ĉĉreturnĠ functionĠ()Ġ{
os.path.is dir(
\ S
d g
é ģ
ĠĠĠĠĠĠĠĠself. re
pt s_
37 ,
err );
EX TPROC
')Ġ orĠ
instanceĠ isĠ
ĠĠĠĠĉa17 37167704
startswith (
Fin al
.btn- group
b p
pl us
has (
.ĠTheĠ numberĠcanĠbeĠ
Ġ==Ġ33 Ġ&&Ġ(
forEach (
sĠtheĠspecifiedĠ numberĠofĠ
metaĠname="viewport"Ġcontent="width=device- width,Ġinitial-
ĉĉĉĉĉ break;
ss ue
_. ignore
.j an
ĉĉifĠ( x.
Ap p.
throwĠnewĠ $P.
dictionaryĠ ofĠ
notification _
overflow :Ġ
optionĠ value="
ĉĠ*Ġ@paramĠ{Number}ĠĠĠTheĠ numberĠofĠ
it(' shouldĠ
ĉĠ*ĠAdd sĠtheĠspecifiedĠnumberĠofĠ
sĠtoĠadd .ĠTheĠnumberĠcanĠbeĠ
positiveĠorĠnegativeĠ [Required]
sĠtoĠadd.ĠTheĠnumberĠcanĠbeĠ positiveĠorĠnegativeĠ[Required]
ĠĠĠĠ e
ĠĠĠĠ is
path /
newĠ TimeSpan
obj. week
recei veĠ
ddddĠ [
ĠĠ<linkĠrel=" stylesheet"Ġhref="
arbitr aryĠ
- s
- basedĠ
c [
i ff
v 2.
à §
ĠĠĠĠ model_
path ,Ġ'
cont amination
m. org/
version ĠofĠtheĠ
(0,Ġ _
\x01 \
Vari ant
inf er_
perio dĠ
[...]
