{"<|":0,"<|/":1,"|>":2,"!":3,"\"":4,"#":5,"$":6,"%":7,"&":8,"'":9,"(":10,")":11,"*":12,"+":13,",":14,"-":15,".":16,"/":17,"0":18,"1":19,"2":20,"3":21,"4":22,"5":23,"6":24,"7":25,"8":26,"9":27,":":28,";":29,"<":30,"=":31,">":32,"?":33,"@":34,"A":35,"B":36,"C":37,"D":38,"E":39,"F":40,"G":41,"H":42,"I":43,"J":44,"K":45,"L":46,"M":47,"N":48,"O":49,"P":50,"Q":51,"R":52,"S":53,"T":54,"U":55,"V":56,"W":57,"X":58,"Y":59,"Z":60,"[":61,"\\":62,"]":63,"^":64,"_":65,"`":66,"a":67,"b":68,"c":69,"d":70,"e":71,"f":72,"g":73,"h":74,"i":75,"j":76,"k":77,"l":78,"m":79,"n":80,"o":81,"p":82,"q":83,"r":84,"s":85,"t":86,"u":87,"v":88,"w":89,"x":90,"y":91,"z":92,"{":93,"|":94,"}":95,"~":96,"¡":97,"¢":98,"£":99,"¤":100,"¥":101,"¦":102,"§":103,"¨":104,"©":105,"ª":106,"«":107,"¬":108,"®":109,"¯":110,"°":111,"±":112,"²":113,"³":114,"´":115,"µ":116,"¶":117,"·":118,"¸":119,"¹":120,"º":121,"»":122,"¼":123,"½":124,"¾":125,"¿":126,"À":127,"Á":128,"Â":129,"Ã":130,"Ä":131,"Å":132,"Æ":133,"Ç":134,"È":135,"É":136,"Ê":137,"Ë":138,"Ì":139,"Í":140,"Î":141,"Ï":142,"Ð":143,"Ñ":144,"Ò":145,"Ó":146,"Ô":147,"Õ":148,"Ö":149,"×":150,"Ø":151,"Ù":152,"Ú":153,"Û":154,"Ü":155,"Ý":156,"Þ":157,"ß":158,"à":159,"á":160,"â":161,"ã":162,"ä":163,"å":164,"æ":165,"ç":166,"è":167,"é":168,"ê":169,"ë":170,"ì":171,"í":172,"î":173,"ï":174,"ð":175,"ñ":176,"ò":177,"ó":178,"ô":179,"õ":180,"ö":181,"÷":182,"ø":183,"ù":184,"ú":185,"û":186,"ü":187,"ý":188,"þ":189,"ÿ":190,"Ā":191,"ā":192,"Ă":193,"ă":194,"Ą":195,"ą":196,"Ć":197,"ć":198,"Ĉ":199,"ĉ":200,"Ċ":201,"ċ":202,"Č":203,"č":204,"Ď":205,"ď":206,"Đ":207,"đ":208,"Ē":209,"ē":210,"Ĕ":211,"ĕ":212,"Ė":213,"ė":214,"Ę":215,"ę":216,"Ě":217,"ě":218,"Ĝ":219,"ĝ":220,"Ğ":221,"ğ":222,"Ġ":223,"ġ":224,"Ģ":225,"ģ":226,"Ĥ":227,"ĥ":228,"Ħ":229,"ħ":230,"Ĩ":231,"ĩ":232,"Ī":233,"ī":234,"Ĭ":235,"ĭ":236,"Į":237,"į":238,"İ":239,"ı":240,"Ĳ":241,"ĳ":242,"Ĵ":243,"ĵ":244,"Ķ":245,"ķ":246,"ĸ":247,"Ĺ":248,"ĺ":249,"Ļ":250,"ļ":251,"Ľ":252,"ľ":253,"Ŀ":254,"ŀ":255,"Ł":256,"ł":257,"Ń":258,"ĠĠ":259,"ĠĠĠĠ":260,"ĠĠĠĠĠĠĠĠ":261,"in":262,",Ġ":263,"se":264,"re":265,"on":266,"=Ġ":267,"at":268,"er":269,"\\x":270,"Ġ=Ġ":271,"or":272,"eĠ":273,"st":274,"en":275,"th":276,"al":277,"ar":278,"de":279,"ĊĊ":280,"an":281,"sĠ":282,"tĠ":283,"ĠĠĠĠĠĠĠĠĠĠĠĠĠĠĠĠ":284,"ti":285,"le":286,"fĠ":287,"ĠĠĠĠĠĠĠĠĠĠĠĠ":288,"sel":289,"ĉĉ":290,"self":291,"ro":292,"--":293,"me":294,":Ġ":295,"te":296,"dĠ":297,"as":298,"co":299,"ur":300,"self.":301,"to":302,")Ġ":303,"ing":304,"ge":305,"li":306,"ch":307,"lo":308,"t_":309,"mp":310,"s.":311,"ce":312,"un":313,"tion":314,"di":315,"fi":316,"si":317,"__":318,"ra":319,"theĠ":320,"ct":321,"pe":322,"for":323,"ri":324,"ate":325,"el":326,"con":327,"ad":328,"ue":329,"()":330,"ifĠ":331,"\"\"":332,"ret":333,"#Ġ":334,"ul":335,"ame":336,"ut":337,"ent":338,"urn":339,"id":340,"ex":341,"):":342,"yĠ":343,"cl":344,"----":345,"ck":346,"ĠĠĠĠĉ":347,"ati":348,"čĊ":349,"=\"":350,"ĠĠĠĠĉa":351,"return":352,"ma":353,"ter":354,"mo":355,"ab":356,"00":357,"no":358,");":359,"ty":360,"um":361,"inĠ":362,"ata":363,"##":364,"ction":365,"sp":366,"isĠ":367,"returnĠ":368,"Ġ*":369,"ser":370,"mĠ":371,"val":372,"tr":373,"toĠ":374,"',Ġ":375,"defĠ":376,"aĠ":377,"clas":378,"ation":379,"==":380,"</":381,"s_":382,"data":383,"d_":384,"('":385,"sh":386,"ingĠ":387,"name":388,"forĠ":389,"py":390,"pro":391,"imp":392,"la":393,"il":394,"ol":395,"up":396,"do":397,"ne":398,"ap":399,"int":400,"one":401,"it":402,"sĠ=Ġ":403,"ofĠ":404,"\"Ġ":405,"str":406,"qu":407,"op":408,"))":409,")Ġ{":410,"//":411,"par":412,"impor":413,"ĠĠĠĠĠĠ":414,"seĠ":415,"ver":416,"ve":417,"x_":418,"ht":419,"fro":420,"po":421,"importĠ":422,"Ġ(":423,"res":424,"is":425,"==Ġ":426,"am":427,"ke":428,"\">":429,"ĠĠĠĠĠĠĠĠself.":430,"\"\"\"":431,"+Ġ":432,"set":433,"(self":434,"Ġ=Ġ3":435,"')":436,"arg":437,"bo":438,"class":439,"fun":440,"all":441,"ĉĉĉĉ":442,"erĠ":443,"(\"":444,"',":445,"ath":446,"ĠĠĠĠĉa1":447,"bj":448,"get":449,"vi":450,"andĠ":451,"ĠĠĠĠĠĠĠĠĠĠĠĠĠĠĠĠĠĠĠĠ":452,"Ġ;":453,"ĠĠĠĠdefĠ":454,"type":455,"**":456,"et":457,"fa":458,"s,Ġ":459,"ine":460,"mat":461,"fromĠ":462,"len":463,"ze":464,"bu":465,"ig":466,"ith":467,"--------":468,"ren":469,"Ġ*Ġ":470,"None":471,"he":472,"var":473,"col":474,"sc":475,"In":476,"function":477,"del":478,"pa":479,"s(":480,"orĠ":481,"stĠ":482,"\",Ġ":483,"####":484,"',Ġ'":485,"reĠ":486,"so":487,"ta":488,"ff":489,"out":490,"class=\"":491,"anĠ":492,"10":493,"']":494,"end":495,"['":496,"pu":497,"ĠĠĠ":498,"per":499,"sa":500,"ba":501,"xt":502,"value":503,"pre":504,"notĠ":505,"\",":506,"20":507,">Ġ":508,"ed":509,"st_":510,"sion":511,"\\x3":512,"path":513,"ult":514,"p.":515,"ou":516,"Re":517,"\")":518,"with":519,"leĠ":520,".Ġ":521,"file":522,"ord":523,"asĠ":524,"':Ġ":525,"able":526,"\\x7":527,"fo":528,"12":529,"bje":530,"\\x0":531,"ĊĊĊ":532,"y_":533,"and":534,"0.":535,"\\x9":536,"su":537,"-Ġ":538,"\\xe":539,"((":540,"ac":541,"0,Ġ":542,"'Ġ":543,"che":544,"\\x8":545,"Tr":546,"ment":547,"pr":548,"\\x6":549,"\\xc":550,"Th":551,"\\xf":552,"s[":553,"ror":554,"1,Ġ":555,"\\xd":556,"tra":557,"\\xb":558,"ĠĠĠĠĠĠĠĠifĠ":559,"log":560,"num":561,"ci":562,"\\x4":563,"put":564,"time":565,"model":566,"\\x5":567,"16":568,"ic":569,"IN":570,"wĠ":571,"ref":572,"we":573,"asser":574,"ĉĉĉ":575,"size":576,"app":577,"<<":578,"====":579,"atĠ":580,"text":581,"\\x2":582,"fig":583,"s)":584,"0]":585,"t.":586,"s:":587,"(self,Ġ":588,"='":589,"\\x1":590,"ini":591,"varĠ":592,"ĠĠĠĠĠĠĠĠreturnĠ":593,"\":Ġ":594,"pyx_":595,"ER":596,"alse":597,"..":598,"is.":599,"Py":600,"__pyx_":601,"com":602,"key":603,"ceĠ":604,"get_":605,"du":606,"32":607,"ĠinĠ":608,"er.":609,"ces":610,"be":611,"\\xa":612,"True":613,"date":614,"//Ġ":615,"av":616,"this.":617,"ca":618,"lĠ":619,"withĠ":620,"Co":621,"ifĠ(":622,"line":623,"list":624,"ĠĠĠĠĠĠĠĠĠĠĠĠĠĠĠĠĠĠĠĠĠĠĠĠ":625,"Ġ==Ġ":626,"_in":627,"alĠ":628,"ran":629,"ho":630,"Con":631,"ON":632,"11":633,"comp":634,"im":635,"),Ġ":636,"da":637,"np.":638,"add":639,"enĠ":640,"1]":641,"ph":642,"dex":643,"ist":644,"cur":645,"que":646,"ateĠ":647,"code":648,"s/":649,"wh":650,"c_":651,"s=":652,"14":653,"ite":654,"atch":655,"onĠ":656,"*Ġ":657,"ctor":658,"&&":659,"ption":660,"ĠĠĠĠĠĠĠĠ#Ġ":661,"flo":662,"),":663,"mb":664,"er_":665,"stan":666,"beĠ":667,"format":668,"m_":669,"ten":670,"itĠ":671,"bject":672,"sy":673,"lay":674,"(self.":675,").":676,"64":677,"RE":678,"abel":679,"Er":680,"cal":681,"ctĠ":682,"config":683,"}Ġ":684,"ml":685,"False":686,"ure":687,"ST":688,"15":689,"tri":690,"test":691,"d.":692,"ask":693,"wor":694,"fin":695,"else":696,"(self):":697,";Ġ":698,"ĠĠĠĠĠĠĠĠĠĠĠĠĠĠĠĠĠĠĠĠĠĠĠĠĠĠĠĠĠĠĠĠ":699,"25":700,"cod":701,"sor":702,"star":703,"gra":704,"\",Ġ\"":705,"tp":706,"1.":707,"mple":708,"De":709,"########":710,"Se":711,"por":712,"\"]":713,"[0]":714,"und":715,"in_":716,"tran":717,"Ġ=Ġself.":718,"cĠ":719,"ray":720,"read":721,"ag":722,"ĠĠĠĠ#Ġ":723,"w_":724,"TheĠ":725,"thisĠ":726,"user":727,"cre":728,"the":729,"back":730,"label":731,"lin":732,"ang":733,"ĠĠĠĠĠĠĠĠ\"\"\"":734,"form":735,"AT":736,"inter":737,"99":738,"mage":739,"Error":740,"print":741,"Ex":742,"chĠ":743,"xĠ":744,"result":745,"ype":746,"33":747,"classĠ":748,"au":749,"----------------":750,"thatĠ":751,"ken":752,"Pro":753,"iz":754,"fe":755,"gth":756,"defa":757,"ste":758,"men":759,"ĠĠĠĠĠĠĠĠĠĠ":760,"sha":761,",Ġ'":762,"gro":763,"ĠĠĠĠ\"\"\"":764,"ofĠtheĠ":765,"age":766,"else:":767,"scri":768,"sub":769,"od":770,"use":771,"wn":772,"18":773,"cont":774,"ie":775,"ameĠ":776,"load":777,"13":778,"ire":779,"test_":780,"ll":781,"state":782,"1Ġ":783,"ev":784,"ationĠ":785,"pl":786,"ator":787,"coun":788,"div":789,"ight":790,"us":791,"17":792,"spe":793,"http":794,"E_":795,"ĠĠĠĠĠĠĠĠĠĠĠĠself.":796,"lib":797,"ĠĠĠĠĠ":798,"t(":799,"sig":800,"y.":801,"put_":802,"[]":803,"f.":804,"OR":805,"call":806,"length":807,"Mo":808,"sen":809,"34":810,"St":811,"No":812,"min":813,"dict":814,"al_":815,"wa":816,"24":817,"append":818,"IĠ":819,"string":820,"c.":821,"|Ġ":822,"EN":823,"m.":824,"s()":825,"%Ġ":826,"cli":827,"sho":828,"url":829,"stance":830,"[\"":831,"Ġ+Ġ":832,"meth":833,"index":834,"ĠĠĠĠreturnĠ":835,"ument":836,"To":837,"wri":838,"href":839,"19":840,"2.":841,"ree":842,"ĠĠĠĠ'":843,"qual":844,"Lo":845,"intĠ":846,"ĠĠĠĠ}":847,"option":848,"p_":849,"Ġ=Ġ33":850,"if":851,"ase":852,"ong":853,"dir":854,"image":855,"54":856,"shape":857,"Ġ=Ġ33Ġ;":858,"ax":859,"sition":860,"lock":861,"work":862,"2,Ġ":863,"html":864,"Str":865,"node":866,"d(":867,"gen":868,"n_":869,"color":870,"\\n":871,"token":872,"wid":873,"head":874,"span":875,"T_":876,"jo":877,"ssa":878,"80":879,"check":880,"href=\"":881,"Ġclass=\"":882,"_id":883,"Name":884,"er(":885,"spon":886,"lement":887,"ouĠ":888,"pi":889,"Type":890,"ull":891,"{}":892,"cu":893,"/Ġ":894,"our":895,"\":":896,"ĠĠĠĠĠĠĠĠ'":897,".get":898,"50":899,"</a":900,"quest":901,"Ar":902,"til":903,"29":904,"obj":905,"error":906,"\\u":907,"numb":908,"1)":909,"ext":910,"1,":911,"pt":912,"<aĠ":913,"Val":914,"========":915,"len(":916,"functionĠ(":917,"]Ġ=Ġ":918,"veĠ":919,"ub":920,"chan":921,"&&Ġ":922,"Fi":923,"88":924,"array":925,"ueĠ":926,"requ":927,"DE":928,"stri":929,"fra":930,"])":931,"</a>":932,"areĠ":933,"lic":934,"tar":935,"fiel":936,"param":937,"AR":938,"item":939,"Ġ=Ġ'":940,"nel":941,"edĠ":942,"Par":943,"js":944,"to_":945,"vo":946,"float":947,"ĠĠĠĠĠĠĠĠĠĠĠĠifĠ":948,"GL":949,"\":Ġ\"":950,"object":951,"ĠisĠ":952,"cte":953,"row":954,"SE":955,"lyĠ":956,"amĠ":957,"exce":958,"AN":959,"pla":960,"57":961,"``":962,"init_":963,"char":964,"den":965,"Ġ*/":966,"act":967,"IT":968,"dule":969,"mar":970,"67":971,"ak":972,"set_":973,"eren":974,"::":975,"<<<<":976,"append(":977,"vie":978,"curren":979,"100":980,"tor":981,"27":982,"pas":983,"ssage":984,"is_":985,"mon":986,"ok":987,"Data":988,"<Ġ":989,"čĊčĊ":990,"input":991,"ĠĠĠĠifĠ":992,"},":993,"w.":994,"assertĠ":995,"day":996,"69":997,"x.":998,"_b":999,"Ġ=Ġ0":1000,"width":1001,"ĠĠĠĠĠĠĠĠĠĠĠĠĠĠĠĠĠĠĠĠĠĠĠĠĠĠĠĠ":1002,"ct_":1003,"output":1004,"idĠ":1005,"();":1006,"sco":1007,"go":1008,"_name":1009,"elseĠ":1010,"</span":1011,"war":1012,"spanĠ":1013,"ize":1014,"22":1015,"run":1016,"39":1017,"base":1018,"clu":1019,"rai":1020,"Ġ=Ġ32":1021,"range":1022,"<spanĠ":1023,"require":1024,"default":1025,"[1]":1026,"functionĠ":1027,"mask":1028,"useĠ":1029,"temp":1030,"****":1031,"0Ġ":1032,"group":1033,"pack":1034,"Ġ=Ġ32Ġ;":1035,"]Ġ":1036,"respon":1037,"os.":1038,"55":1039,"Te":1040,"s:Ġ":1041,"ameter":1042,"byĠ":1043,"ate_":1044,"rig":1045,"ing_":1046,"ing.":1047,"],Ġ":1048,"ce_":1049,"37":1050,"der":1051,"d,Ġ":1052,"instance":1053,"84":1054,"60":1055,"<spanĠclass=\"":1056,"try":1057,"Ġ*Ġ@":1058,"x,Ġ":1059,"87":1060,"li>":1061,"pĠ":1062,"=True":1063,"doc":1064,"AL":1065,"':Ġ'":1066,"ir":1067,"typ":1068,"meĠ":1069,"ableĠ":1070,")Ġ+Ġ":1071,"sour":1072,"low":1073,"start":1074,"ft":1075,"eli":1076,"oĠ":1077,"assert":1078,"qual(":1079,"iĠ":1080,"ptĠ":1081,"ĉĉĉĉĉ":1082,"self._":1083,"Po":1084,"newĠ":1085,"1Ġ=Ġ":1086,"def":1087,"SĠ":1088,"ms":1089,"0000":1090,"open":1091,"sĠtoĠ":1092,"reg":1093,"89":1094,"_C":1095,"};":1096,"y(":1097,"ss":1098,"true":1099,"uldĠ":1100,"sto":1101,"deĠ":1102,"ĠĠĠĠĠĠĠĠĠĠĠĠreturnĠ":1103,"word":1104,"illĠ":1105,"red":1106,"orm":1107,"youĠ":1108,"buil":1109,"oth":1110,"max":1111,"bute":1112,"([":1113,"Ġ=Ġ\"":1114,"oneĠ":1115,"tle":1116,"version":1117,"En":1118,"Date":1119,"trans":1120,"Ch":1121,"__pyx_t_":1122,"+=Ġ":1123,"util":1124,"sup":1125,"g.":1126,"d>":1127,"0,":1128,"order":1129,"putĠ":1130,"exp":1131,"ĠĠ#Ġ":1132,"elifĠ":1133,"s):":1134,"':":1135,"valid":1136,"init__":1137,"nĠ":1138,"late":1139,"ID":1140,"module":1141,"],":1142,"mi":1143,"fir":1144,"__init__":1145,"nameĠ":1146,"port":1147,"info":1148,"stati":1149,"ĠĠĠĠĠĠĠĠ\"":1150,"dire":1151,"().":1152,"paramĠ":1153,"update":1154,"TH":1155,"stat":1156,"kw":1157,"link":1158,"stru":1159,"write":1160,"v_":1161,"add_":1162,"dĠ=Ġ":1163,"Un":1164,"entĠ":1165,"logg":1166,"44":1167,"db":1168,"</span>":1169,"ch.":1170,"this":1171,"attr":1172,"String":1173,"sĠtheĠ":1174,"thon":1175,"message":1176,"''":1177,"num_":1178,"table":1179,"Value":1180,"ĠĠĠĠĠĠĠĠforĠ":1181,"proces":1182,"cor":1183,"pri":1184,"30":1185,"Ġ=Ġ34":1186,"59":1187,"has":1188,"fil":1189,"cation":1190,"200":1191,"ip":1192,"36":1193,"nal":1194,"allĠ":1195,"ot":1196,"3.":1197,"Me":1198,"main":1199,"move":1200,"g_":1201,"s,":1202,"tial":1203,"map":1204,"setĠ":1205,"LE":1206,"Ti":1207,"sele":1208,"comm":1209,"bjectĠ":1210,"Ġ=Ġ34Ġ;":1211,"0)":1212,"None:":1213,"referen":1214,"n.":1215,"canĠ":1216,"train":1217,"ĠtoĠ":1218,"plo":1219,"method":1220,"request":1221,"willĠ":1222,"batch":1223,"proper":1224,"sum":1225,"=None":1226,"()Ġ":1227,"3,Ġ":1228,"ĠĠĠĠĠĠĠĠĠĠĠĠ#Ġ":1229,"parse":1230,"_size":1231,"spli":1232,"block":1233,"f_":1234,"FF":1235,"json":1236,"List":1237,"Ġ'":1238,":Ġ'":1239,"2Ġ":1240,"0x":1241,"aveĠ":1242,"ute":1243,"igh":1244,"ear":1245,"event":1246,"place":1247,"data_":1248,"hand":1249,"sr":1250,"</li>":1251,"bin":1252,"RO":1253,"sty":1254,"__Py":1255,"->":1256,"cle":1257,"ample":1258,"[i":1259,"TĠ":1260,"__Pyx_":1261,"feat":1262,"path.":1263,"sĠimportĠ":1264,"../":1265,"raiseĠ":1266,"hel":1267,"kwarg":1268,"valueĠ":1269,"tex":1270,".format":1271,"2Ġ=Ġ":1272,"\"Ġhref=\"":1273,"Time":1274,"top":1275,"UL":1276,",Ġ\"":1277,"===Ġ":1278,"ION":1279,"utt":1280,"iter":1281,"adĠ":1282,":Ġ\"":1283,"title":1284,"point":1285,"ThisĠ":1286,"inĠtheĠ":1287,"je":1288,"geĠ":1289,">>":1290,"\\x00":1291,"ĠĠĠĠ@":1292,"gener":1293,"conta":1294,"typeĠ":1295,"quen":1296,"(a":1297,"/*Ġ":1298,"response":1299,"clo":1300,"count":1301,"################":1302,"quer":1303,"frame":1304,"dĠtoĠ":1305,"y,Ġ":1306,"ME":1307,"ense":1308,"vari":1309,"35":1310,"colum":1311,"lob":1312,"speci":1313,"dim":1314,"input_":1315,"vice":1316,"Object":1317,"dd":1318,"es":1319,"join":1320,"AC":1321,"pass":1322,"argument":1323,"tive":1324,"ay":1325,"haveĠ":1326,"channel":1327,"td>":1328,"mul":1329,"field":1330,"S_":1331,"content":1332,"box":1333,"An":1334,"ug":1335,"s://":1336,"spa":1337,"scal":1338,"ĠĠĠĠ\"":1339,"Ret":1340,"');":1341,"by":1342,"https://":1343,"fileĠ":1344,"5,Ġ":1345,"Di":1346,"66":1347,"null":1348,"ĠĠĠĠĠĠĠĠĠĠĠĠĠ":1349,"tf.":1350,"49":1351,"IfĠ":1352,"`Ġ":1353,"target":1354,"paren":1355,"ĠĠĠĠĠĠĠ":1356,".re":1357,"{Ġ":1358,"sk":1359,"ble":1360,"erĠ=Ġ":1361,"ion":1362,"(f":1363,"Lic":1364,"=False":1365,"arch":1366,"!=Ġ":1367,"ĠĠĠĠĠĠĠĠ}":1368,"page":1369,"86":1370,"element":1371,"secon":1372,"indo":1373,".p":1374,"ek":1375,"filter":1376,"ĠĠ}":1377,"\\u0":1378,"style":1379,"web":1380,"AĠ":1381,"Return":1382,"Num":1383,"off":1384,"codeĠ":1385,"Col":1386,"<aĠclass=\"":1387,"nu":1388,"Ke":1389,"man":1390,"ont":1391,"ea":1392,"re.":1393,"yn":1394,"fineĠ":1395,"action":1396,"function(":1397,"torch.":1398,"&&Ġ(":1399,"79":1400,"ep":1401,"_S":1402,"filen":1403,"%s":1404,"data.":1405,"str(":1406,"ĉf":1407,"keĠ":1408,"down":1409,"range(":1410,"ĠĠĠĠĠĠĠĠĠ":1411,"isĠnotĠ":1412,"'),":1413,"over":1414,"can":1415,"whi":1416,"df":1417,"parameter":1418,"referenceĠ":1419,"rando":1420,"max_":1421,"args.":1422,"ting":1423,"40":1424,"uple":1425,"Ġ=Ġ(":1426,"IC":1427,"parser":1428,"python":1429,"sta":1430,"vel":1431,"ĠimportĠ":1432,"/**":1433,"For":1434,"AP":1435,"graph":1436,"-l":1437,"():":1438,"internal":1439,"Ġ=Ġnp.":1440,"local":1441,"rel":1442,"exceptĠ":1443,"UR":1444,"try:":1445,".format(":1446,"new":1447,"lag":1448,"-1":1449,"view":1450,"ker":1451,"model.":1452,"are":1453,"ses":1454,">>>Ġ":1455,"match":1456,"_t":1457,"\\2":1458,"ustĠ":1459,"utton":1460,"defineĠ":1461,"constĠ":1462,"org":1463,"sample":1464,"ultĠ":1465,"expe":1466,"weĠ":1467,"||Ġ":1468,"fol":1469,"_P":1470,"].":1471,"esĠ":1472,"los":1473,"long":1474,"tribute":1475,"layer":1476,"85":1477,"month":1478,"tom":1479,"2)":1480,"err":1481,"net":1482,"o.":1483,"position":1484,"gi":1485,"auth":1486,"?Ġ":1487,"1_":1488,"'sĠ":1489,"gg":1490,"ly":1491,"enti":1492,"(r":1493,"las":1494,"ĠĠĠĠĠĠĠĠself.assert":1495,"ory":1496,"TE":1497,"Vie":1498,"ĠĠĠĠĠĠĠĠelse:":1499,"dataset":1500,"ĠĠĠĠĠĠĠĠĠĠĠĠ'":1501,"norm":1502,"mm":1503,"<li":1504,"bi":1505,"os.path.":1506,"px":1507,"ation.":1508,"soĠ":1509,"cate":1510,"Bo":1511,"outĠ":1512,"filename":1513,"sol":1514,"mentĠ":1515,"ffi":1516,"TO":1517,"define":1518,"{'":1519,"exe":1520,"inclu":1521,"weight":1522,"ream":1523,"->Ġ":1524,"MM":1525,"div>":1526,"ĠĠĠĠĠĠĠĠĠĠĠĠĠĠ":1527,"bar":1528,"scription":1529,"ingĠtheĠ":1530,"cf":1531,"'tĠ":1532,"ĠandĠ":1533,"Model":1534,"<liĠclass=\"":1535,"teĠ":1536,"er,Ġ":1537,"</td>":1538,"disp":1539,"proto":1540,"Ġ-Ġ":1541,"contain":1542,"context":1543,"caseĠ":1544,"output_":1545,"--------------------------------":1546,"height":1547,"<aĠclass=\"referenceĠ":1548,"ĠĠĠĠforĠ":1549,"create":1550,"Ac":1551,"uni":1552,"conne":1553,"false":1554,".com":1555,"internal\"Ġhref=\"":1556,".html":1557,"X_":1558,"_tĠ":1559,"Ġ=Ġ36":1560,"cs":1561,"tag":1562,"77":1563,"nump":1564,"source":1565,"Test":1566,"ob":1567,"<aĠclass=\"referenceĠinternal\"Ġhref=\"":1568,"save":1569,"ception":1570,"ĠĠĠĠ<":1571,"cent":1572,"</div>":1573,"Ġ=Ġ35":1574,"\");":1575,"lete":1576,"space":1577,"s.append(":1578,"ĠforĠ":1579,"whichĠ":1580,"://":1581,"#defineĠ":1582,"(x":1583,"Ġ=Ġ36Ġ;":1584,"ĠĠĠĠĠĠĠĠĠĠĠĠĠĠĠĠĠĠ":1585,"_de":1586,"getĠ":1587,"0:":1588,"DI":1589,"_path":1590,")Ġ-Ġ":1591,"Ġ=Ġ35Ġ;":1592,"LO":1593,"listĠ":1594,"api":1595,"28":1596,"numberĠ":1597,"shouldĠ":1598,"fl":1599,"AS":1600,"terĠ":1601,"vent":1602,"b.":1603,"padd":1604,"new_":1605,"img":1606,"ĠĠĠĠĉa19":1607,"toct":1608,"int(":1609,"AG":1610,",Ġself.":1611,"...":1612,"Equal(":1613,"encod":1614,"mis":1615,"TR":1616,"ng":1617,"toctree":1618,"File":1619,"Comp":1620,"sĠforĠ":1621,"sĠ(":1622,"toctree-l":1623,"diction":1624,"isinstance":1625,"lang":1626,"<liĠclass=\"toctree-l":1627,"bod":1628,"zer":1629,"ourĠ":1630,"[:":1631,"ild":1632,"_inter":1633,"Id":1634,"sw":1635,"bre":1636,"rap":1637,"(__":1638,"flag":1639,"example":1640,"Set":1641,"ĠĠĠĠĠĠĠĠĠĠĠĠ\"":1642,"})":1643,"ĠĠĠĠĠĠĠĠ:":1644,")Ġ==Ġ":1645,"header":1646,"ent_":1647,"ĠĠĠĠassertĠ":1648,"butĠ":1649,"6;":1650,"column":1651,"AD":1652,"buff":1653,"((((":1654,"server":1655,"sĠandĠ":1656,"split":1657,"right":1658,"eval":1659,"copy":1660,"bot":1661,"second":1662,"ĠĠĠĠĠĠĠĠĠĠĠĠĠĠĠĠifĠ":1663,"'Ġ+Ġ":1664,"Exception":1665,"ING":1666,"close":1667,"We":1668,"75":1669,"38":1670,"hid":1671,"26":1672,"74":1673,"mit":1674,"Numb":1675,"sĠinĠ":1676,"\\\\":1677,"step":1678,"Bu":1679,"ort":1680,"type=":1681,"inputĠ":1682,"s['":1683,"DO":1684,"tyĠ":1685,"ĠĠĠĠĠĠĠĠself._":1686,"l_":1687,"())":1688,"whe":1689,"1:":1690,"l.":1691,"multi":1692,"Key":1693,"ty.":1694,"Option":1695,"year":1696,"http://":1697,"ele":1698,"(c":1699,"Al":1700,"pub":1701,"At":1702,"mean":1703,"}ĠelseĠ":1704,"Up":1705,"from_":1706,"ileĠ":1707,"ard":1708,"s[0]":1709,"ĠĠĠĠdefĠtest_":1710,"ast":1711,"++":1712,"DĠ":1713,"Ġ=ĠNone":1714,"mode":1715,"UN":1716,"teg":1717,"CO":1718,");Ġ":1719,"client":1720,"ES":1721,"number":1722,"================":1723,"Ġ=Ġ[":1724,"_re":1725,"specifi":1726,"ĠĠĠĠdefĠ__init__":1727,"Do":1728,"unit":1729,"tensor":1730,"04":1731,"dataĠ":1732,"eta":1733,"ĠinĠrange(":1734,"func":1735,"EĠ":1736,"msg":1737,"isinstance(":1738,"dro":1739,"Array":1740,"*/":1741,"level":1742,"on_":1743,"ĠĠĠĠĠĠĠĠĠĠĠĠĠĠĠĠĠ":1744,"ĉĠ*Ġ":1745,"diff":1746,"alf":1747,"cr":1748,"p>":1749,"af":1750,"bool":1751,"left":1752,"whenĠ":1753,"._":1754,"emb":1755,"<div":1756,"name,Ġ":1757,"(),Ġ":1758,"CT":1759,"loc":1760,"dĠbyĠ":1761,"_M":1762,"Fun":1763,"ign":1764,"print(\"":1765,"mbol":1766,"glob":1767,"xĠ=Ġ":1768,"join(":1769,"ity":1770,".set":1771,"atten":1772,"conv":1773,"of":1774,"\"Ġ+Ġ":1775,"sĠareĠ":1776,"{\"":1777,"tim":1778,":`":1779,"Clas":1780,"IS":1781,"Get":1782,"tuple":1783,"lineĠ":1784,"seri":1785,"sĠ=Ġ[":1786,"staticĠ":1787,"_type":1788,"ava":1789,"conver":1790,"site":1791,"s.Ġ":1792,".add_":1793,"ning":1794,"(Ġ":1795,"<aĠhref=\"":1796,"********":1797,"Ser":1798,"_F":1799,"src":1800,"expecte":1801,"Path":1802,"time.":1803,"env":1804,"toĠtheĠ":1805,"sli":1806,"sĠofĠ":1807,"contro":1808,"out_":1809,"org/":1810,"sign":1811,"tern":1812,"PY":1813,"License":1814,"ĠĠĠĠ#":1815,"post":1816,"scale":1817,"sing":1818,"Ite":1819,"og":1820,"sq":1821,"font":1822,"Tran":1823,"3Ġ":1824,"mem":1825,"&&Ġa":1826,"ĠtheĠ":1827,"remove":1828,"chema":1829,"cache":1830,"produ":1831,"ted":1832,")Ġ->Ġ":1833,"windo":1834,"None,Ġ":1835,"EX":1836,"u'":1837,"border":1838,"Arg":1839,"ĉfĉf":1840,"nn.":1841,"dĠinĠ":1842,"Qu":1843,"onlyĠ":1844,"ĠĠĠĠĠĠĠĠĠĠĠĠĠĠĠĠself.":1845,"cat":1846,"utils.":1847,"HT":1848,"<t":1849,"stream":1850,"mark":1851,"oper":1852,"icĠ":1853,"sequen":1854,"vide":1855,"hidden":1856,"print(":1857,"re_":1858,"CH":1859,"10;":1860,"7;":1861,"yĠ=Ġ":1862,"(0,Ġ":1863,"tool":1864,"tiv":1865,"ule":1866,"ation_":1867,"sĠ=Ġ[]":1868,"search":1869,"script":1870,"NO":1871,"45":1872,"help":1873,"Text":1874,"Sy":1875,"ĠĠĠĠifĠ(":1876,"siz":1877,")))":1878,"6Ġ=Ġ":1879,"dition":1880,"transform":1881,"UT":1882,"ww":1883,"ĠĠreturnĠ":1884,"Base":1885,"dateĠ":1886,"dat":1887,"zero":1888,"stringĠ":1889,"all_":1890,"wi":1891,"4,Ġ":1892,"orig":1893,"break":1894,".h":1895,"cell":1896,"fix":1897,"Cre":1898,"equal(":1899,"callback":1900,"2,":1901,"objectĠ":1902,"TI":1903,"0;":1904,"tot":1905,"-8":1906,"test.":1907,"extra":1908,"PO":1909,"usingĠ":1910,"];":1911,"\";":1912,"9;":1913,"mt":1914,"htĠ":1915,"met":1916,"2\">":1917,"feature":1918,"ener":1919,"proje":1920,"Fiel":1921,"ĠĠĠĠĠĠĠĠĠĠĠ":1922,"8;":1923,"stra":1924,")Ġ*Ġ":1925,"He":1926,"ĠofĠ":1927,"65":1928,"Match":1929,"NA":1930,"week":1931,"package":1932,"):Ġ":1933,"});":1934,"b_":1935,"timeĠ":1936,"','":1937,"int_":1938,"sĠaĠ":1939,"s-":1940,"Cont":1941,"AB":1942,"mail":1943,"train_":1944,"State":1945,"PyO":1946,"Ad":1947,"task":1948,"70":1949,"bug":1950,"br":1951,"ary":1952,"byte":1953,"Config":1954,"0.0":1955,"dis":1956,"statu":1957,"ative":1958,"MP":1959,"1;":1960,"noĠ":1961,"enum":1962,"std":1963,"lection":1964,"Index":1965,"3,":1966,"_p":1967,"change":1968,"Mon":1969,"Tra":1970,"setting":1971,"tedĠ":1972,"VER":1973,"**kwarg":1974,"act.":1975,"command":1976,"printĠ":1977,"uint":1978,"config.":1979,"=True)":1980,"ĠĠĠĠĠĠĠĠassertĠ":1981,"em":1982,"exist":1983,"cul":1984,"Mak":1985,"Au":1986,"ui":1987,"ression":1988,"t,Ġ":1989,"old":1990,"dep":1991,"host":1992,"ari":1993,"variable":1994,"assert_":1995,"onent":1996,"Element":1997,"68":1998,"document":1999,"ash":2000,"ĠĠĠĠĉa4":2001,"alfred":2002,"a_":2003,"ValueError":2004,"))Ġ":2005,"property":2006,"IL":2007,"alfred3":2008,"yourĠ":2009,"Info":2010,"ĠĠĠĠĠĠĠĠifĠself.":2011,"////":2012,"/>":2013,"pp":2014,"scope":2015,"Ne":2016,"ĠĠĠĠĉa10":2017,"==Ġ'":2018,"alfred3_inter":2019,"seq":2020,"yy":2021,"vector":2022,"']Ġ=Ġ":2023,"ĠĠĠĠĠĠĠĠ)":2024,"ler":2025,"doĠ":2026,">=Ġ":2027,"aliz":2028,"hasĠ":2029,"ĠĠĠĠĠĠĠĠĠĠĠĠforĠ":2030,"ile":2031,"23":2032,"offset":2033,"ron":2034,"s[i":2035,"=>Ġ":2036,"attribute":2037,"embed":2038,"-1]":2039,"alfred3_interact.":2040,"sizeĠ":2041,"'))":2042,"LĠ":2043,"2]":2044,"md":2045,"Fra":2046,"Node":2047,"mod":2048,"_c":2049,"ground":2050,"arra":2051,"pol":2052,"pos":2053,"le.":2054,"TER":2055,"whileĠ":2056,"ĠĠĠĠdefĠ_":2057,"last":2058,"description":2059,"presen":2060,"eachĠ":2061,"Ġ=Ġ0;":2062,"LI":2063,"signe":2064,"ĠĠĠĠdefĠ__init__(self,Ġ":2065,"4;":2066,"keyĠ":2067,"next":2068,"2_":2069,"ctorĠ":2070,"5;":2071,"D_":2072,"gl":2073,"ĉĉĉĉĉĉ":2074,"my":2075,"ance":2076,")ĠasĠ":2077,"ageĠ":2078,"matri":2079,"show":2080,"session":2081,"Item":2082,"cket":2083,"Event":2084,"ain":2085,"utf":2086,"<liĠclass=\"toctree-l2\">":2087,"<<<<<<<<":2088,"functionĠ()Ġ{":2089,"ind":2090,"ä¸":2091,"load_":2092,"ts":2093,"aryĠ":2094,"from":2095,"REF":2096,"_f":2097,"gri":2098,"%}":2099,"metho":2100,"button":2101,"raw":2102,"CON":2103,"e.":2104,"make":2105,"pxĠ":2106,"Cli":2107,"View":2108,"cess":2109,"tĠ=Ġ":2110,"distri":2111,"';":2112,"built":2113,"initial":2114,"ange":2115,".com/":2116,"SS":2117,"tmp":2118,"le_":2119,"<divĠclass=\"":2120,"128":2121,"heck":2122,"58":2123,"IG":2124,"__p":2125,"thro":2126,"a.":2127,"dif":2128,"bt":2129,"axis":2130,"i,Ġ":2131,"nex":2132,"Ver":2133,"{%Ġ":2134,"befo":2135,"px;":2136,"publi":2137,"forĠtheĠ":2138,"wrap":2139,"director":2140,"ded":2141,"ole":2142,"score":2143,"model_":2144,"User":2145,"62":2146,"wo":2147,"alize":2148,"Date.":2149,"plt.":2150,"align":2151,"_s":2152,"www.":2153,"cord":2154,"ĠĠĠĠvarĠ":2155,"Wid":2156,"3Ġ=Ġ":2157,"ĠĠĠĠĠĠĠĠ#":2158,"ĠĠĠĠĉa9":2159,"exten":2160,"<aĠclass=\"referenceĠinternal\"Ġhref=\"alfred3_interact.":2161,"voidĠ":2162,"yp":2163,"erĠtheĠ":2164,"emp":2165,"ĠĠĠĠ</a>":2166,"arĠ":2167,"cap":2168,"Op":2169,"ureĠ":2170,"bl":2171,"and_":2172,"Ten":2173,"ĠĠĠ</li>":2174,"non":2175,"Parameter":2176,"edge":2177,"sys.":2178,"giv":2179,"\\2\\2":2180,"ĠĠĠ<liĠclass=\"toctree-l2\">":2181,"Proper":2182,"cy":2183,"_list":2184,"padding":2185,":Ġ{":2186,"d)":2187,"ĠĠĠĠĠĠĠĠifĠ(":2188,"anyĠ":2189,"OF":2190,"ĠĠĠĠdefĠ__":2191,"defaultĠ":2192,"asyn":2193,"adata":2194,"dataĠ=Ġ":2195,"Out":2196,"rightĠ":2197,"Ho":2198,"not":2199,"create_":2200,"_info":2201,".append(":2202,"ct(":2203,"ource":2204,"YP":2205,"Of":2206,"lib.":2207,"6,Ġ":2208,"withĠtheĠ":2209,"ĠĠĠĠĠĠĠĠĠĠĠĠ}":2210,"ult_":2211,"coord":2212,"print('":2213,"So":2214,"US":2215,"ed_":2216,"wan":2217,"allyĠ":2218,"YĠ":2219,"mayĠ":2220,"om":2221,".html\">":2222,"start_":2223,")ĠforĠ":2224,"__pyx_v_":2225,"cho":2226,"r.":2227,"doub":2228,"Hand":2229,"cv":2230,"gor":2231,"mustĠ":2232,"atedĠ":2233,"____":2234,"${":2235,"this._":2236,"lamb":2237,"uteĠ":2238,"ĠĠĠĠ<aĠclass=\"referenceĠinternal\"Ġhref=\"alfred3_interact.":2239,"etĠ":2240,"roll":2241,"mer":2242,"pop":2243,"prediction":2244,"Gro":2245,"ink":2246,"attention":2247,"Ġ==Ġ'":2248,"Check":2249,"tie":2250,"__ret":2251,"ank":2252,"</span><spanĠclass=\"":2253,"aseĠ":2254,"<tdĠ":2255,"bjectĠ*":2256,"other":2257,"logger.":2258,"zone":2259,"epo":2260,"Pre":2261,"_file":2262,"dict(":2263,"ĠĠĠĠĠĠĠĠelifĠ":2264,"ĠĠĠĠĠĠĠĠĠĠĠĠĠĠĠĠ'":2265,"48":2266,"firstĠ":2267,"plot":2268,"addres":2269,"=self.":2270,")Ġ/Ġ":2271,"se_":2272,"11;":2273,"alph":2274,"device":2275,"current_":2276,"ĠĠĠĠĠĠĠĠself.assertEqual(":2277,"=None,Ġ":2278,"langu":2279,"applic":2280,"4Ġ":2281,"01":2282,"}}":2283,"âĢ":2284,"root":2285,"ĠĠĠĠ:":2286,"likeĠ":2287,"%Ġ(":2288,"Ġ=Ġ[]":2289,"(r'":2290,"ate(":2291,"ĠĠĠĠ>>>Ġ":2292,"export":2293,"Ġ*Ġ@paramĠ":2294,"igno":2295,"'])":2296,"click":2297,"ution":2298,"}ĠelseĠ{":2299,"stack":2300,"_index":2301,"parent":2302,"indi":2303,"ORĠ":2304,"ĠĠĠĠĠĠĠĠĠĠĠĠĠĠĠĠ#Ġ":2305,"ĠĠĠĠĉa2":2306,"as_":2307,"current":2308,"0,Ġ0,Ġ":2309,"GE":2310,"Context":2311,"first":2312,"&Ġ":2313,"1,\"":2314,"ĠĠĠĠĠĠĠĠifĠnotĠ":2315,"transition":2316,"stop":2317,"lat":2318,"import":2319,"debug":2320,"moment":2321,"lig":2322,"63":2323,"Per":2324,":Ġstr":2325,"text_":2326,"Fa":2327,"\":1,\"":2328,"classe":2329,"name__":2330,"MatchMak":2331,"Group":2332,"ward":2333,"uration":2334,"kno":2335,"numberĠofĠ":2336,"Or":2337,"defĠtest_":2338,"resh":2339,"hour":2340,"stride":2341,"static":2342,"sĠthatĠ":2343,"ĉĉĉ}":2344,"thenĠ":2345,"auto":2346,"Ġ\"":2347,"Defa":2348,"syste":2349,"include":2350,".get_":2351,"factor":2352,"Sequen":2353,"name=\"":2354,"0-":2355,"utf-8":2356,"s)Ġ{":2357,"os":2358,"/*":2359,"custo":2360,"ĠĠĠĠĠĠĠĠĠĠĠĠelse:":2361,"push":2362,"background":2363,"ai":2364,"ĉĠĠĠĠĠĠĠĠ":2365,"otherĠ":2366,"r_":2367,"Tensor":2368,"Add":2369,"'.":2370,"][":2371,"endĠ":2372,"mission":2373,"cri":2374,"Ġ{":2375,"Sh":2376,"YouĠ":2377,"portĠ":2378,"kernel":2379,"data,Ġ":2380,"jang":2381,"idx":2382,"willĠbeĠ":2383,"template":2384,"libci":2385,"HO":2386,"textĠ":2387,"Function":2388,"\".format(":2389,"id=\"":2390,"(1,Ġ":2391,"Ro":2392,"ĠĠĠĠĉa20":2393,"0Ġ=Ġ":2394,"symbol":2395,"Inter":2396,"full":2397,"ĠĠĠĠĠĠĠĠĠĠĠĠraiseĠ":2398,"Ġ=Ġ{":2399,"exception":2400,"metri":2401,"ct.":2402,"enseĠ":2403,"ĠĠĠĠĠĠĠĠreturnĠself.":2404,"4.":2405,"myĠ":2406,"Fro":2407,"marg":2408,"display":2409,"ĠĠĠĠĉa15":2410,"Wh":2411,"args,Ġ":2412,"PyObjectĠ*":2413,"xml":2414,"sm":2415,"0);":2416,"../../":2417,"redĠ":2418,"ĠĠĠĠĠĠĠĠĠĠĠĠĠĠĠĠĠĠĠĠĠĠ":2419,"origin":2420,"face":2421,"section":2422,"currentĠ":2423,"ima":2424,"IP":2425,"encode":2426,"Image":2427,"child":2428,"listĠofĠ":2429,"data-":2430,"np":2431,")?":2432,"math":2433,"ĠĠĠĠĠĠĠĠĠĠĠĠĠĠĠĠ\"":2434,"lex":2435,")Ġ%Ġ":2436,"Ġ*Ġ@paramĠ{":2437,"mock":2438,"id_":2439,"file.":2440,"Page":2441,"active":2442,"signedĠ":2443,"ĠĠĠĠĉa7":2444,"sameĠ":2445,"contin":2446,"cc":2447,"__name__":2448,"o_":2449,"EL":2450,"optim":2451,"metadata":2452,"ĉĉreturnĠ":2453,"dayĠ":2454,"ĠĠĠĠĠĠĠĠĠĠĠĠĠĠĠ":2455,"tingĠ":2456,"body":2457,"Line":2458,"ĉ};":2459,"entr":2460,"nb":2461,"ï¼":2462,"s():":2463,"batch_size":2464,"/g":2465,"Ġ=Ġ_":2466,"'],":2467,"border-":2468,"'>":2469,"models.":2470,"09":2471,"type=\"":2472,"memb":2473,"color:Ġ":2474,"find":2475,"onĠtheĠ":2476,"nav":2477,"s);":2478,"By":2479,"list(":2480,"ĉĉĉreturnĠ":2481,"bottom":2482,"ant":2483,"ched":2484,"Ġ=Ġ10;":2485,"a,Ġ":2486,"ĠĠĠĠĠĠĠĠĠĠĠĠĠĠĠĠreturnĠ":2487,"needĠ":2488,"47":2489,"MatchMaker":2490,"_mask":2491,"bet":2492,"Frame":2493,"inst":2494,"integ":2495,"NUL":2496,"s)Ġ":2497,"Code":2498,"0.5":2499,"cn":2500,"ED":2501,"tĠtoĠ":2502,"fromĠtheĠ":2503,"fac.":2504,"epoch":2505,"_IN":2506,"execu":2507,"ori":2508,"\\3":2509,"&#":2510,"On":2511,"DAT":2512,"Ġ-":2513,"delete":2514,"eĠtheĠ":2515,"thonĠ":2516,"email":2517,"Li":2518,",Ġ[":2519,"cro":2520,"Fo":2521,"syn":2522,"rĠ=Ġ":2523,"margin":2524,"AM":2525,"iĠinĠrange(":2526,"undĠ":2527,"awa":2528,"alle":2529,"ĠĠ<":2530,"Format":2531,"ures":2532,"ssĠ":2533,"hash":2534,"location":2535,"tifi":2536,"(__pyx_t_":2537,"tr>":2538,"ningĠ":2539,"gment":2540,"medi":2541,"s.get":2542,"s[\"":2543,"ĠĠĠĠ)":2544,"_B":2545,"tail":2546,"ĠĠĠĠĠĠĠĠĠĠĠĠĠĠĠĠĠĠĠĠĠĠĠĠĠĠĠĠĠĠĠĠĠĠĠĠ":2547,"follow":2548,"]))":2549,"Token":2550,"collection":2551,"ĠĠĠĠĠĠĠĠĠĠĠĠĠĠĠĠĠĠĠĠĠĠĠĠĠĠĠĠĠĠĠĠĠĠĠĠĠĠĠĠ":2552,"1);":2553,"uid":2554,"value,Ġ":2555,"radi":2556,"\\x01":2557,"(-":2558,"ding":2559,"acces":2560,"Sub":2561,"ĠĠĠĠelse:":2562,"Exp":2563,"ide":2564,"mu":2565,"query":2566,"extension":2567,"itsĠ":2568,".add_argument":2569,"IO":2570,"==Ġ\"":2571,"page.":2572,"))Ġ{":2573,"prob":2574,"attern":2575,"builtin_":2576,"').":2577,"m,Ġ":2578,"foo":2579,"req":2580,"Ġ=Ġ3;":2581,"wasĠ":2582,"Ġ=Ġ9;":2583,"c-":2584,"prop":2585,"djang":2586,"################################":2587,"mpleĠ":2588,"ster":2589,"txt":2590,"limit":2591,"'):":2592,"Spe":2593,"code>":2594,"usedĠ":2595,"min_":2596,"ightĠ":2597,"None,":2598,"meta":2599,"obj.":2600,"gin":2601,"lear":2602,"\"),":2603,"2;":2604,"NoneĠ":2605,"<=Ġ":2606,"schema":2607,"ĉĉ}":2608,"Color":2609,"handle":2610,"Ġ=ĠTrue":2611,"NULL":2612,"isĠaĠ":2613,"TP":2614,"regist":2615,"now":2616,"-2":2617,"vid":2618,"icon":2619,"intoĠ":2620,"spac":2621,"target_":2622,"edi":2623,"Gener":2624,"256":2625,"pyĠ":2626,"assert.":2627,"track":2628,"dedĠ":2629,"formĠ":2630,"ĠĠĠĠĠĠ}":2631,"priv":2632,"col-":2633,"na":2634,"tw":2635,"ner":2636,"\"))":2637,"ĠĠĠĠĠĠĠĠ:paramĠ":2638,"moreĠ":2639,"3)":2640,"roo":2641,"URL":2642,"underĠtheĠ":2643,"testĠ":2644,"givenĠ":2645,"int,Ġ":2646,"cĠ=Ġ":2647,"dtype":2648,"Input":2649,"Ġ<Ġ":2650,"Wa":2651,"k_":2652,"book":2653,"Ġ:Ġ":2654,"s;":2655,"dist":2656,"ativeĠ":2657,"</p>":2658,"Be":2659,"(i":2660,"isĠnotĠNone:":2661,"DEF":2662,"izer":2663,".ĠĠ":2664,"ithub":2665,"Size":2666,"loop":2667,"ive":2668,"07":2669,"fn":2670,"corre":2671,"flow":2672,"_state":2673,"s']":2674,"sĠ=Ġself.":2675,"Py_":2676,"ce(":2677,"Ġ=ĠFalse":2678,",ĠĠ":2679,"buffer":2680,"sd":2681,"methodĠ":2682,"libcity.":2683,"canĠbeĠ":2684,"'.format(":2685,"ĠasĠ":2686,"Not":2687,"std::":2688,"\\x00\\x00":2689,"case":2690,"ĠĠĠĠĉa5":2691,"Day":2692,"outputĠ":2693,"ERR":2694,"Lay":2695,"name)":2696,"ifĠ(!":2697,"uff":2698,"network":2699,"Ġ=Ġ8;":2700,"notĠinĠ":2701,"ful":2702,"nd":2703,"fini":2704,"Update":2705,"ĠĠĠ*":2706,"setup":2707,"\\x80":2708,"__(":2709,"connection":2710,"::Ġ":2711,"bg":2712,"ĉĠĠĠĠĠĠĠĠĠĠĠĠ":2713,"ĉt":2714,"lib/":2715,"From":2716,"check_":2717,"key,Ġ":2718,"expr":2719,"=None):":2720,"_to_":2721,"5.":2722,"__builtin_":2723,"Call":2724,"App":2725,"sifi":2726,"uleĠ":2727,"s',":2728,"suc":2729,"7,Ġ":2730,"daĠ":2731,"parser.add_argument":2732,"author":2733,"vectorĠ":2734,"gre":2735,"differen":2736,"sible":2737,"side":2738,"pyx":2739,"_value":2740,"sin":2741,"NAME":2742,"Ġ&&Ġ(":2743,"KE":2744,"Parser":2745,"kel":2746,"Ġ=Ġ6;":2747,"LicenseĠ":2748,"_r":2749,"~~":2750,"avail":2751,"add(":2752,"arrayĠ":2753,"fromĠ.":2754,"identi":2755,"home":2756,"000":2757,"endif":2758,"\\x30":2759,"art":2760,")(":2761,"ack":2762,"Run":2763,"thread":2764,"ĉĠĠĠĠ":2765,"optional":2766,"Coun":2767,"_data":2768,"Ġ=Ġ7;":2769,"---":2770,"--Ġ":2771,"tab":2772,"Windo":2773,"ForĠ":2774,"fill":2775,"calcul":2776,",ĠandĠ":2777,"ML":2778,"Default":2779,"999":2780,"Ġ>Ġ":2781,"tree":2782,"IF":2783,"csv":2784,"Net":2785,"continue":2786,"job":2787,"io":2788,"open(":2789,"anti":2790,"CL":2791,"gram":2792,"s))":2793,"Property":2794,"_dict":2795,"SP":2796,"vl":2797,"component":2798,"ĠĠvarĠ":2799,"Ġ=Ġself._":2800,"whereĠ":2801,"evalu":2802,"end_":2803,"likel":2804,"write(":2805,"c,Ġ":2806,"__pyx_L":2807,"As":2808,"ĉ#Ġ":2809,"The":2810,"build":2811,"Case":2812,"isĠNone:":2813,"Res":2814,"ĠĠ//Ġ":2815,"Map":2816,"user_":2817,"undefine":2818,"replace":2819,"));":2820,"'Ġ%Ġ":2821,"set(":2822,"os.path.join(":2823,"d\\":2824,"ec":2825,"Gra":2826,"_.":2827,"warning":2828,"PRO":2829,"ĠĠĠĠ//Ġ":2830,"pool":2831,"reque":2832,"vol":2833,"last_":2834,"on'tĠ":2835,"startĠ":2836,"gres":2837,"\\xc0":2838,"mil":2839,"publicĠ":2840,"[i]":2841,"red_":2842,"array(":2843,"someĠ":2844,"random.":2845,"bit":2846,"\".":2847,"thereĠ":2848,"stanceĠ":2849,"Y_":2850,"use_":2851,"cer":2852,"08":2853,"MO":2854,"S.":2855,"bound":2856,"')Ġ":2857,"loadĠ":2858,"ĠĠĠĠĠĠĠĠtry:":2859,"justĠ":2860,"apeĠ":2861,"atorĠ":2862,"(p":2863,"quo":2864,"ual":2865,"git":2866,"desc":2867,"pack_":2868,"n'tĠ":2869,"tt":2870,"pick":2871,"allo":2872,"ment_":2873,"awaitĠ":2874,"disable":2875,"dest":2876,"alog":2877,"Optional":2878,"prototype":2879,".shape":2880,"Copy":2881,"clear":2882,"ĠĠĠĠĠĠĠĠĠĠĠĠ(r'":2883,")Ġ&&Ġ(":2884,"neg":2885,"ĠifĠ":2886,"let":2887,"ach":2888,"key_":2889,"distribute":2890,"2.0":2891,"shouldĠbeĠ":2892,"ingĠtoĠ":2893,")Ġ&&Ġa":2894,"btn":2895,"Wait":2896,"enumer":2897,"thĠ":2898,"\\x38":2899,"\\t":2900,"validĠ":2901,"TYP":2902,"12;":2903,"bject_":2904,"UP":2905,"look":2906,"resol":2907,"car":2908,"(),":2909,"unsignedĠ":2910,"viron":2911,"Attribute":2912,"password":2913,"Imp":2914,"ityĠ":2915,"log_":2916,"'ĠinĠ":2917,"THON":2918,"y/":2919,"ĠĠĠĠĠĠĠĠsup":2920,"ĠĠĠĠwithĠ":2921,"default_":2922,"conten":2923,"LIN":2924,".org/":2925,"present":2926,"Le":2927,"Dict":2928,"menu":2929,"BU":2930,"proble":2931,"traffi":2932,"color='":2933,"\\x03":2934,"rule":2935,"\\x60":2936,"src=\"":2937,"Label":2938,"Ġ=ĠfunctionĠ(":2939,"pipe":2940,"Module":2941,"pad":2942,"sedĠ":2943,"ĉvarĠ":2944,"Ġ=Ġ4;":2945,"\\xf8":2946,"\\xcf":2947,"ju":2948,"+=Ġ1":2949,"\\xf2":2950,"encoding":2951,"]:":2952,"done":2953,"Ġ*ĠĠĠĠĠ":2954,"<<Ġ":2955,"\\x02":2956,"plug":2957,"Request":2958,"ĉĉĉĉ\"":2959,"\\x9f":2960,"arti":2961,"tryĠ":2962,"EC":2963,"Respon":2964,"pytest.":2965,"Message":2966,"A_":2967,"enable":2968,"Field":2969,"ali":2970,"tiveĠ":2971,"\\x1b":2972,"olean":2973,"activ":2974,"struct":2975,"play":2976,"ĠĠ__Pyx_":2977,"exec":2978,"s(self):":2979,"github":2980,"list_":2981,"JS":2982,"calle":2983,"nameĠ=Ġ":2984,"Button":2985,"(b":2986,"beforeĠ":2987,"ĠĠĠĠĠĠĠĠ<":2988,"(this":2989,"\\x06":2990,"\\xfc":2991,"FN":2992,"\\xe7":2993,"\\x20":2994,"singĠ":2995,"isĠtheĠ":2996,"ili":2997,"Man":2998,"dimen":2999,"or_":3000,"\\xf0":3001,"__re":3002,"CY":3003,"Sp":3004,"ick":3005,".set_":3006,"ĠĠĠ*Ġ":3007,"512":3008,"'''":3009,"ftwa":3010,"mini":3011,"stamp":3012,"çļ":3013,"Stat":3014,"ĉ//Ġ":3015,"ĠĠĠĠ--------":3016,"\\x18":3017,"</d":3018,"cted":3019,",Ġ0.":3020,"sĠofĠtheĠ":3021,"html\">":3022,"fut":3023,"lambdaĠ":3024,"thanĠ":3025,"\\x07":3026,"çļĦ":3027,"VAL":3028,"\\x32":3029,"\\xf9":3030,"\\xbf":3031,"fail":3032,"s\"]":3033,"\\xff":3034,"ĠĠĠĠĠ*Ġ":3035,"ated":3036,"attr(":3037,"Window":3038,"\\x33":3039,"center":3040,"ĠĠĠĠĠĠĠĠwithĠ":3041,"errorĠ":3042,"\\xfe":3043,"y-":3044,"\\x0c":3045,"Su":3046,"seeĠ":3047,"\\xe3":3048,"addĠ":3049,"rg":3050,"<d":3051,"Tex":3052,"'],Ġ":3053,"a-":3054,"py.":3055,"=False)":3056,"prefix":3057,"Mul":3058,"`.":3059,"(n":3060,".h:":3061,"iel":3062,"ĠisĠnotĠ":3063,"shuff":3064,"Mat":3065,"\\xef":3066,"\\xe5":3067,"part":3068,"ĠĠĠĠĠĠĠĠ>>>Ġ":3069,"hist":3070,"box_":3071,".to":3072,"\\xe0":3073,"ctedĠ":3074,"window":3075,"\\x67":3076,"\\x3a":3077,"IZ":3078,"\\x36":3079,"\\xce":3080,"dimension":3081,"strip":3082,"image_":3083,"Ġ=Ġ5;":3084,"i.":3085,"Ġ=Ġ11;":3086,"remo":3087,"\\xdf":3088,"\\xfb":3089,"pret":3090,"\\x39":3091,"options.":3092,"\\xaf":3093,"\\xf1":3094,"trib":3095,"ĠĠĠĠself.":3096,"ĠĠĠĠ<aĠclass=\"referenceĠinternal\"Ġhref=\"alfred3_interact.page.":3097,"ader":3098,"\\x7f":3099,"son":3100,"2:":3101,"Number":3102,")]":3103,"\\x31":3104,"s':Ġ":3105,"equ":3106,"$D":3107,"condition":3108,"\\x2e":3109,"'),Ġ":3110,".get('":3111,"\\xa7":3112,"proc.":3113,"\\x93":3114,"high":3115,"tick":3116,"ber":3117,"\\xf6":3118,"43":3119,"iso":3120,"ular":3121,"node.":3122,"\\xc3":3123,"\\x3e":3124,"sĠorĠ":3125,"pyxb.":3126,"chil":3127,"doesĠ":3128,"\\x3c":3129,"afterĠ":3130,"pay":3131,"exit":3132,"STR":3133,"OFĠ":3134,"r/":3135,"game":3136,"!==Ġ":3137,"\\x7e":3138,"\\xc7":3139,"velo":3140,"\\xeb":3141,"#endif":3142,"\\x8c":3143,"NE":3144,"dri":3145,"\\xd3":3146,"\\xa3":3147,"ld":3148,"lef":3149,"/v":3150,"numpyĠ":3151,"=0.":3152,"\\x04":3153,"xel":3154,"Local":3155,"ha":3156,"webpack_":3157,"\\x79":3158,"createĠ":3159,"`,Ġ":3160,"\\xbe":3161,"\\x0e":3162,"\\x7c":3163,"\\x1f":3164,"\\x8f":3165,"i_":3166,"zip":3167,"Fil":3168,"Ġ__":3169,"\\xf7":3170,"\\x9e":3171,"iv":3172,"short":3173,"itch":3174,"Iter":3175,"app.":3176,"\\x34":3177,"if(":3178,"\\xd8":3179,"\\xd7":3180,"\\xed":3181,"Err":3182,"\\x8e":3183,"LL":3184,"with_":3185,"=True,Ġ":3186,"\\xe9":3187,"0,0,":3188,"__webpack_":3189,"s(self,Ġ":3190,"Long":3191,"ffe":3192,"class_":3193,"\\x9c":3194,"opt":3195,"permission":3196,"**kwargs):":3197,"\\xec":3198,"flow_":3199,"provide":3200,"ĠorĠ":3201,"s]":3202,"Reg":3203,"multip":3204,"./":3205,"</a></li>":3206,"unk":3207,"resource":3208,"pair":3209,"iĠ<Ġ":3210,"sourceĠ":3211,"\\x63":3212,"queue":3213,"\\xbc":3214,"Oper":3215,"leg":3216,"\\x74":3217,"inser":3218,"Syste":3219,"causeĠ":3220,"dict_":3221,"\\xe4":3222,"DIR":3223,"s[1]":3224,"language":3225,"CREF":3226,"78":3227,"posi":3228,"includeĠ":3229,"ell":3230,"name='":3231,"/^":3232,"decod":3233,"CS":3234,"Sele":3235,"decode":3236,"\\x1c":3237,"update_":3238,"here":3239,"MA":3240,"549":3241,"parti":3242,"detail":3243,"\\x0f":3244,"[0],Ġ":3245,"mas":3246,"false;":3247,"(int":3248,"\\x4e":3249,"read_":3250,"assert.equal(":3251,"\\x4f":3252,"Auth":3253,"MĠ":3254,"\\xda":3255,"(*":3256,"1.0":3257,"makeĠ":3258,"__webpack_require":3259,"\\xcb":3260,"Off":3261,"\\x3f":3262,"modelĠ":3263,"\\xc6":3264,"u.":3265,"\\xc9":3266,"ĠĠĠĠĠĠĠĠĠĠĠĠĠĠĠĠĠĠĠ":3267,"\\x76":3268,"http://www.":3269,"ï¼Į":3270,"\\xb3":3271,"ĊĊĊĊ":3272,"ĠĠĠĠdefĠget_":3273,"10,Ġ":3274,"ever":3275,"cm":3276,"drop":3277,"any":3278,"\\x2f":3279,"7/":3280,"str,Ġ":3281,"Table":3282,"hy":3283,"\\xca":3284,"\\xf3":3285,"\\xfa":3286,"I'":3287,"\\x19":3288,"\\x87":3289,"therĠ":3290,"resultĠ=Ġ":3291,"style=\"":3292,"Len":3293,"color:Ġ#":3294,"\\xc1":3295,"f\"":3296,"verse":3297,"$P":3298,"\\x40":3299,"symp":3300,"extend":3301,"\\x05":3302,"ugh":3303,"shapeĠ":3304,"\\x97":3305,"raise":3306,"\\xdb":3307,"ĠofĠtheĠ":3308,"Char":3309,"rate":3310,"likely(":3311,"needĠtoĠ":3312,"soci":3313,"boxe":3314,"1e":3315,"scriptĠ":3316,"5Ġ":3317,"\\x7b":3318,"structĠ":3319,"\\x1e":3320,"Error:":3321,"per_":3322,"L_":3323,"Activ":3324,"countĠ":3325,"note":3326,"environ":3327,".replace":3328,"it.":3329,"s',Ġ":3330,"\\x49":3331,"\\x27":3332,"inĠaĠ":3333,"Colum":3334,"OP":3335,"n(":3336,"imageĠ":3337,"\\x69":3338,"sl":3339,"ĠĠifĠ(":3340,"\\x5f":3341,"reeĠ":3342,"\\x37":3343,"\\xb0":3344,"n\">":3345,"betwe":3346,"ĠĠĠĠĠĠĠĠexceptĠ":3347,"\\x78":3348,"\\x5e":3349,"mustĠbeĠ":3350,"With":3351,"status":3352,"Qt":3353,"ĠĠĠĠĠĠĠĠĠĠĠĠĠ#Ġ":3354,"%sĠ":3355,"record":3356,"</code>":3357,"perĠ":3358,"\\xde":3359,".ĠTheĠ":3360,"y)":3361,"\\xd9":3362,"5,":3363,"\\xf5":3364,"defĠ_":3365,"alsoĠ":3366,"\\xe2":3367,"term":3368,"****************":3369,"struction":3370,"datab":3371,")ĠandĠ":3372,"send":3373,"file_":3374,"ĠĠĠĠĠĠĠĠraiseĠ":3375,"\\xd2":3376,"background-":3377,"inform":3378,"Ġ=Ġ((((":3379,"\\x1d":3380,"3_":3381,"bleĠ":3382,"ĠĠĠĠĉa6":3383,"\\x9d":3384,"function()Ġ{":3385,"CYTHON":3386,"none":3387,"features":3388,"protocol":3389,"depend":3390,"\\x14":3391,"ignore":3392,"\\x83":3393,"that":3394,"django.":3395,"cab":3396,"=(":3397,"\\xae":3398,"\\xbb":3399,"Uni":3400,"\\x73":3401,"Comm":3402,"YY":3403,"\\xfd":3404,"way":3405,"site-":3406,"\\xb7":3407,"ctype":3408,"\\x4c":3409,"\\x3b":3410,"Quer":3411,"difi":3412,"print_":3413,"\\x47":3414,"select":3415,"Ġ**":3416,"ache":3417,"åı":3418,"\\xb6":3419,"license":3420,"ĠĠĠĠĠĠĠĠvarĠ":3421,"\\x6f":3422,"#0000":3423,"nbsp":3424,"charact":3425,"\\xf4":3426,"execute":3427,".j":3428,"roid":3429,"\\x9b":3430,"\\x6c":3431,"\\xe1":3432,"ed.":3433,"\\x75":3434,"wouldĠ":3435,"\\x71":3436,"peri":3437,"Response":3438,"ItĠ":3439,"\\xb4":3440,"&nbsp":3441,"\\x99":3442,"summar":3443,"31":3444,"\\xd0":3445,"\").":3446,"\\xd6":3447,"expression":3448,"\\xe8":3449,"},Ġ":3450,"ENT":3451,".png":3452,"\\x72":3453,"howĠ":3454,"\\xc8":3455,"total_":3456,"Example":3457,"ty_":3458,"time_":3459,"this.get":3460,"\\x0a":3461,"u\"":3462,"Ġ==Ġ\"":3463,"dete":3464,"&nbsp;":3465,"dev":3466,"role":3467,"\\x65":3468,"float32":3469,"axis=":3470,"shuffle":3471,"ĠĠĠĠ_":3472,"it_":3473,"ature":3474,"width:Ġ":3475,"/us":3476,"ape":3477,"\\x81":3478,"CopyrightĠ":3479,"\\x46":3480,"c(":3481,"\\xab":3482,"\\x77":3483,"shif":3484,"\\x53":3485,"cd":3486,"\\xba":3487,"ateg":3488,"\\x94":3489,"\\x61":3490,"None)":3491,"DB":3492,"constan":3493,"\\x09":3494,"ted_":3495,"eith":3496,"\\xa6":3497,"<p>":3498,"46":3499,"\\x1a":3500,"\\x57":3501,"\\x95":3502,"angle":3503,"95":3504,"\\x6b":3505,"twoĠ":3506,"\\xea":3507,"Version":3508,"returnĠ{":3509,"\\x92":3510,"sureĠ":3511,"\\xac":3512,"\\xee":3513,"redu":3514,"\\xb9":3515,"/usr/":3516,"serve":3517,"as.":3518,"known":3519,"({":3520,"Week":3521,"\\xc5":3522,"\\xd1":3523,"gu":3524,"ĠĠ\"":3525,"Math":3526,"v2":3527,"LE_":3528,"\\x7d":3529,"\\x90":3530,"yiel":3531,"viou":3532,"ctx":3533,"K_":3534,"/*Ġ\"":3535,"sequence":3536,"dump":3537,"p\">":3538,"\\x98":3539,"tif":3540,"QU":3541,"<<<<<<":3542,"split('":3543,"itor":3544,"<<<<<<<<<<<<<<":3545,"LIC":3546,"ĠĠĠĠĠĠĠĠĠĠĠĠĠ#Ġ<<<<<<<<<<<<<<":3547,"ardĠ":3548,"typeofĠ":3549,"8,Ġ":3550,"Ext":3551,"mid":3552,"parse_":3553,"\\x86":3554,"ĠĠĠĠ:paramĠ":3555,"\\xbd":3556,"minute":3557,"r'":3558,"SER":3559,"WAR":3560,"\\x96":3561,"\\x5c":3562,"C_":3563,"caseĠ\"":3564,"ĠĠĠĠĠĠĠĠĠĠĠĠĠĠĠĠĠĠĠĠĠ":3565,"PythonĠ":3566,"UM":3567,"fon":3568,"\\x23":3569,"76":3570,"prot.":3571,"specificĠ":3572,"+Ġ(":3573,"logging.":3574,"\\xa5":3575,"domain":3576,"\"></":3577,"(?":3578,"uti":3579,"ĠĠĠĠĠĠĠĠĠĠĠĠ)":3580,"Com":3581,"\"Ġ%Ġ":3582,"dra":3583,"90":3584,"\\x70":3585,"><":3586,"\\x59":3587,"module.":3588,"\\x13":3589,"ĠĠĠĠĠĠĠĠĠĠĠĠĠĠĠĠĠĠĠĠifĠ":3590,"GL_":3591,"ose":3592,"Ġ*ĠĠĠĠĠĠĠĠĠ":3593,"alpha":3594,"[:,Ġ":3595,"\\x82":3596,"tu":3597,"double":3598,"GL/g":3599,"future":3600,"\\xa0":3601,"\\xa4":3602,"Syn":3603,"ĠĠĠĠelifĠ":3604,"lib/python":3605,"array([":3606,"-0":3607,"\\x35":3608,"prox":3609,"feren":3610,"followingĠ":3611,"s.length":3612,"resultĠ":3613,"Widget":3614,"\\xad":3615,"ĠĠĠĠĠĠ\"":3616,"[2":3617,"gt_":3618,"\\x26":3619,"ĠĠĠĠĠĠreturnĠ":3620,"oc":3621,"Flo":3622,"thresh":3623,"don'tĠ":3624,"pk":3625,"</span>Ġ":3626,"API":3627,"\\x17":3628,"Multi":3629,"(np.":3630,"\\x91":3631,"\\xb1":3632,"Vari":3633,"\\x24":3634,"data)":3635,"ĠĠĠĠĠĠĠĠĠĠĠĠ<":3636,"ĠĠĠĠĠĠĠĠĠĠĠĠself._":3637,"gex":3638,"]]":3639,"\\xb2":3640,"Open":3641,"ctx.":3642,"find_":3643,"type:Ġ":3644,"ice":3645,"plat":3646,",Ġ_":3647,"comment":3648,"site-package":3649,"memory":3650,"css":3651,",ĠtheĠ":3652,"lastĠ":3653,"mal":3654,"_CO":3655,"distributedĠ":3656,"94":3657,"coordin":3658,"\\xcc":3659,"dtype=":3660,"1))":3661,"timeout":3662,"clude":3663,"Page.":3664,"\\xc4":3665,"INTER":3666,"Waiting":3667,"delta":3668,"\\xb5":3669,"\\x0d":3670,"\\xdd":3671,"lext":3672,"================================":3673,"AUL":3674,"Integ":3675,"rot":3676,"[3":3677,"\\x68":3678,"());":3679,"true;":3680,"client.":3681,"Tag":3682,"\\x8b":3683,"\\xe6":3684,"anceĠ":3685,"loss_":3686,"BO":3687,"translate":3688,"\\xdc":3689,"img_":3690,"ing:Ġ":3691,"request.":3692,"ĠĠĠĠĠĠĠĠĠĠĠĠĠĠĠĠĠĠĠĠself.":3693,"Ġ/Ġ":3694,"sĠasĠ":3695,"null;":3696,"\\x3d":3697,"bas":3698,"}/":3699,"s')":3700,"lext.h:":3701,"ulture":3702,"Ab":3703,"\\x64":3704,"\\x4b":3705,"\\x41":3706,"Ġ=ĠnewĠ":3707,"sĠ=Ġ{":3708,"lap":3709,".py":3710,"ĠĠĠĠ@property":3711,"\\x7a":3712,"abili":3713,"\\xd5":3714,"\\x28":3715,"\\x43":3716,"=True,":3717,"82":3718,"\\x58":3719,"linkĠ":3720,"base_":3721,"Ġ===Ġ":3722,"\\x8d":3723,"wantĠtoĠ":3724,"JSON":3725,"x2":3726,"\\x29":3727,"96":3728,"\\x2b":3729,"vocab":3730,"lu":3731,"operator":3732,"sec":3733,"\\x6d":3734,"Sty":3735,"Ġ=Ġtf.":3736,"\\xc2":3737,"path,Ġ":3738,"\\x0b":3739,"DEFAUL":3740,"arr":3741,"56":3742,"Sequence":3743,"ĠĠĠĠĠĠĠĠre":3744,"Ġ==Ġ33":3745,"\\x12":3746,"\\x08":3747,"\\xb8":3748,"i++":3749,"suppor":3750,"\\x6e":3751,".\"\"\"":3752,"T\":1,\"":3753,"iĠinĠ":3754,"\\x66":3755,"(t":3756,"rand":3757,"(self._":3758,"\\x5b":3759,"ER_":3760,"rowĠ":3761,"moun":3762,"Ġ*Ġ@returnĠ{":3763,"\\x2c":3764,"Is":3765,"children":3766,"ĠĠĠĠĠĠĠĠĠĠĠĠelifĠ":3767,"<tdĠclass=\"":3768,"Norm":3769,";Ġ}":3770,"pow":3771,"Glob":3772,"categor":3773,"id,Ġ":3774,"Min":3775,"through":3776,"required":3777,"\\x51":3778,"own":3779,"\\x8a":3780,"Cur":3781,"batch_":3782,"forĠ(":3783,"Month":3784,"service":3785,"Web":3786,"\\n'":3787,"IM":3788,"ĉĉĉifĠ(":3789,"ĉĠĠĠĠĠĠĠĠĠĠĠĠĠĠĠĠ":3790,"tax":3791,"Type.":3792,"pointĠ":3793,"letĠ":3794,"elementĠ":3795,"Ref":3796,"store":3797,"inline":3798,"\\xa9":3799,"timestamp":3800,"final_":3801,"require('":3802,"quanti":3803,"poly":3804,"1/":3805,"\\x56":3806,"Parameters":3807,"seed":3808,"handl":3809,"SION":3810,"control":3811,"WaitingPage.":3812,"\",\"":3813,"allow":3814,"site-packages/":3815,"Culture":3816,"mise":3817,"of_":3818,"soli":3819,"slice":3820,"\\x4d":3821,"\\x48":3822,"ĠĠĠĠĠĠĠĠdefĠ":3823,"metric":3824,"scre":3825,"member":3826,"sĠwithĠ":3827,"ĉĉ\"":3828,"UB":3829,"sĠ=Ġnp.":3830,"\\x89":3831,"samp":3832,"=None,":3833,"ifĠtheĠ":3834,"betweenĠ":3835,":ĠfunctionĠ(":3836,"Atom":3837,",Ġb":3838,"TODO":3839,"72":3840,"ch_":3841,"\"Ġclass=\"":3842,"transp":3843,"plan":3844,"////////":3845,"ĉĉĉĉreturnĠ":3846,"s',Ġ'":3847,"1)Ġ":3848,",ĠbutĠ":3849,"classifi":3850,"dential":3851,"ĠĠĠĠĠĠifĠ(":3852,"region":3853,"\\x15":3854,"\\x5d":3855,"\\x2d":3856,"senten":3857,"Valid":3858,"Ini":3859,"\\x16":3860,"termin":3861,"ĠĠĠĠĉa80":3862,"manag":3863,"ul>":3864,"ĠĠĠĠĠĠĠĠĠĠĠĠĠĠĠĠĠĠĠĠĠĠĠĠĠĠ":3865,"shor":3866,"Ġ=Ġ0;Ġ":3867,"itemĠ":3868,"Ð°":3869,"like":3870,"\\x9a":3871,"tic":3872,"stor":3873,"FI":3874,"core.":3875,"\\x5a":3876,"withoutĠ":3877,".0":3878,"RAN":3879,"importĠos":3880,"FFFF":3881,"<aĠhref=\"#":3882,"verbo":3883,"cept":3884,"``Ġ":3885,"AA":3886,"common":3887,"mĠ=Ġ":3888,"toĠbeĠ":3889,"cursor":3890,"HTTP":3891,"self).":3892,"instanceĠ":3893,"complete":3894,"\\x10":3895,"rie":3896,"rent":3897,"Mem":3898,"1),Ġ":3899,"\\x85":3900,"spaceĠ":3901,"4,":3902,"ATH":3903,"Wri":3904,"\\s":3905,"ctive":3906,"%d":3907,"Ðµ":3908,"\"\"\"Ġ":3909,"Temp":3910,"GL/glext.h:":3911,"userĠ":3912,"\\x4a":3913,"ech":3914,"300":3915,"Ġ=Ġ{}":3916,"eno":3917,"\\xcd":3918,"ume":3919,"rowser":3920,"zeros(":3921,"WIT":3922,"k,Ġ":3923,"direction":3924,"k.":3925,"light":3926,"sĠfromĠ":3927,"\\x25":3928,"_input":3929,"\\xd4":3930,"ĉĉĉĉ}":3931,"5)":3932,"sig-":3933,"x4":3934,",Ġre":3935,"digit":3936,"ĠĠĠĠĉa17":3937,"InĠ":3938,"\\xa1":3939,"Wor":3940,"tableĠ":3941,"\\x52":3942,"nl":3943,"TypeError":3944,"\\x62":3945,"orderĠ":3946,"void":3947,"\\x2a":3948,"project":3949,"GO":3950,"Scal":3951,"eitherĠ":3952,"umĠ":3953,"Ġ=Ġ1":3954,"json.":3955,"GetĠ":3956,"(d":3957,"init":3958,"anim":3959,"prev":3960,"(_":3961,"anal":3962,"becauseĠ":3963,"anch":3964,"deg":3965,"dingĠ":3966,"ĉĉĉvarĠ":3967,"openmt":3968,"ENSE":3969,"umentĠ":3970,"\\x54":3971,"0)Ġ{":3972,"upĠ":3973,"={":3974,"sĠinĠtheĠ":3975,"Que":3976,"Symbol":3977,"Dist":3978,"log.":3979,"leaseĠ":3980,"margin-":3981,"\\d":3982,"AV":3983,"sle":3984,"annot":3985,"she":3986,"Point":3987,"matche":3988,"\\u00":3989,"Content":3990,"geo":3991,"tf":3992,"New":3993,"hidden_state":3994,"max(":3995,"numpyĠasĠ":3996,"CR":3997,"Trans":3998,"ssageĠ":3999,"db.":4000,"\\x55":4001,"\"><spanĠclass=\"":4002,"process":4003,"unlikely(":4004,"ATTR":4005,"sys":4006,"_key":4007,"clean":4008,"x-":4009,"stand":4010,"..Ġ":4011,"answ":4012,"_dir":4013,"\\xa2":4014,"</span>Ġ<spanĠclass=\"":4015,"importĠnumpyĠasĠ":4016,"training":4017,"(x)":4018,"ullĠ":4019,"equal":4020,"socket":4021,"ss_":4022,"title=\"":4023,"lease":4024,"s\",":4025,"ĠĠĠĠĠĠĠĠReturn":4026,"al.":4027,"response.":4028,"client_":4029,"matrix":4030,"Max":4031,"lon":4032,"Instance":4033,"est":4034,"templ":4035,"[2]":4036,"pd.":4037,"Client":4038,"\\x22":4039,"HE":4040,"ĠĠĠĠtransition":4041,".ĠIfĠ":4042,"lessĠ":4043,"moduleĠ":4044,"ĉĠ*/":4045,"\\x11":4046,"Dire":4047,"ĉĉĉĉĉreturnĠ":4048,"importĠnumpyĠasĠnp":4049,"inste":4050,"Rai":4051,"rst":4052,"aw":4053,"verĠ":4054,"plugin":4055,"Note":4056,"atingĠ":4057,"inĠself.":4058,"__rev":4059,"break;":4060,"8x":4061,":Ġ(":4062,"whatĠ":4063,"**kwargs)":4064,"associ":4065,"optimiz":4066,"propertie":4067,"round":4068,"line_":4069,"Read":4070,"\\x45":4071,"represent":4072,"D,Ġ":4073,"ann":4074,"copyĠ":4075,"line.":4076,"random_":4077,"Block":4078,"\"],":4079,"compute":4080,"AU":4081,"Log":4082,"Args:":4083,"\\xaa":4084,")Ġ-Ġ-":4085,"fit":4086,"__PY":4087,"nodeĠ":4088,"script>":4089,"comple":4090,"tain":4091,"\\x50":4092,"Meth":4093,"except":4094,"CreateĠ":4095,"next_":4096,"FL":4097,"\\x84":4098,"rp":4099,"13;":4100,"ĠĠĠĠĠĠĠĠĠĠĠĠĠĠĠĠĠĠĠĠ\"":4101,"sizeof":4102,"out.":4103,"generator":4104,"\"):":4105,"-b":4106,"compile":4107,"=False,Ġ":4108,"ysi":4109,"readĠ":4110,"CĠ":4111,"97":4112,"cv2.":4113,"font-":4114,"type,Ġ":4115,"eq":4116,"{{Ġ":4117,"ill":4118,"Length":4119,"Pri":4120,"SeeĠ":4121,"dĠtheĠ":4122,"valueĠ=Ġ":4123,"random":4124,"datetime.":4125,"code_":4126,"åĪ":4127,"counter":4128,"M_":4129,"previou":4130,"21":4131,"ĉĉ},":4132,"gest":4133,"sed":4134,"Buff":4135,"lisecond":4136,"']['":4137,"__webpack_require__(":4138,"__PYX_":4139,"GP":4140,"doesĠnotĠ":4141,"ĠĠĠĠĠĠĠĠĠĠĠĠifĠ(":4142,"Ġ*Ġa":4143,"distance":4144,"1,Ġ1,Ġ":4145,"ĉ/**":4146,"s\":Ġ":4147,"embedding":4148,"pattern":4149,"(x,Ġ":4150,"swith":4151,"\\x88":4152,"Transition":4153,"<tdĠclass=\"col-":4154,"alread":4155,"View.":4156,"for_":4157,"Class":4158,"Year":4159,"String(":4160,"some":4161,"android":4162,"AtomicĠ":4163,"822":4164,"=[":4165,"serv":4166,"conso":4167,"\\xa8":4168,")Ġ>Ġ":4169,"ĠĠĠĠĠĠĠĠproc.":4170,"convert_":4171,"ud":4172,"first_":4173,"Monitor":4174,"[key":4175,"ppe":4176,"initi":4177,"merge":4178,"github.com/":4179,"\"Ġ/>":4180,"FO":4181,"tivi":4182,"defĠget_":4183,"imple":4184,"n,Ġ":4185,"[Ġ":4186,"cast":4187,"returnsĠ":4188,"text/":4189,"1\">":4190,"ĠĠĠĠĉa3":4191,"+Ġ'":4192,"Output":4193,"throwĠ":4194,"parser.add_argument('":4195,"wrapper":4196,"empty":4197,"Result":4198,"pixel":4199,"constra":4200,"IĠhaveĠ":4201,"e_":4202,"Ð¾":4203,"TestĠ":4204,"gradi":4205,"ĠĠĠĠĠĠĠĠreturnĠself._":4206,"application":4207,"build_":4208,"pĠ=Ġ":4209,"ofĠaĠ":4210,"((a":4211,"close()":4212,"\\x21":4213,"result.":4214,"Int":4215,"ĠĠĠĠĉa14":4216,")),":4217,"chunk":4218,"\"Ġdata-":4219,"Action":4220,"\"])":4221,"dropo":4222,"DECREF":4223,"folder":4224,"pie":4225,"rece":4226,"7/site-packages/":4227,"()Ġ{":4228,"Ġ*ĠĠĠĠĠĠĠĠĠĠĠĠĠ":4229,"sn":4230,"main__":4231,"__s":4232,"RA":4233,"1_error":4234,"total":4235,"i)":4236,"æķ":4237,"displa":4238,"}ĠelseĠifĠ(":4239,"Toon":4240,"source_":4241,"event.":4242,"__main__":4243,"framework":4244,"</tr>":4245,"asĠaĠ":4246,"alt":4247,"ĠĠĠĠifĠnotĠ":4248,"ĠĠĠĠReturn":4249,"G_":4250,"b'":4251,"2);":4252,"finish":4253,"direct":4254,"util.":4255,"handler":4256,"undefined":4257,"4)":4258,"----------------------------------------------------------------":4259,":00":4260,"ErrorĠ":4261,"\\x6a":4262,"x)":4263,"namespace":4264,"core":4265,"stateĠ":4266,".length":4267,"GC":4268,"\\x44":4269,"hook":4270,"-----":4271,"concat":4272,"chang":4273,"baseĠ":4274,"atta":4275,"__pyx_L1_error":4276,"beenĠ":4277,"kit":4278,"normalize":4279,"provid":4280,"Location":4281,"Manag":4282,"yieldĠ":4283,"buf.":4284,"loss":4285,"default=":4286,"class:`":4287,"run_":4288,"-1,Ġ":4289,"sv":4290,"solidĠ":4291,"ded_":4292,"orient":4293,"(((a":4294,"cheĠ":4295,"Style":4296,"True)":4297,"libr":4298,"æľ":4299,"Pa":4300,"object):":4301,"system":4302,"state.":4303,"skip":4304,"sear":4305,"lr":4306,"bution":4307,"help='":4308,"rol":4309,"spec":4310,"make_":4311,"nor":4312,"Ge":4313,"7.":4314,"Tuple":4315,"Fe":4316,"WeĠ":4317,"tĠtheĠ":4318,"NN":4319,"solution":4320,"Optional[":4321,"driver":4322,"btn-":4323,"(value":4324,"lower":4325,"ovl":4326,"#ĠĠĠĠĠ":4327,"f,Ġ":4328,"ationsĠ":4329,"size=":4330,"à¤":4331,"ovldĠ":4332,"VERSION":4333,"enumerate(":4334,"grid":4335,"Conne":4336,"win":4337,"specifiedĠ":4338,"License.":4339,"'Ġ%Ġ(":4340,"__(self,Ġ":4341,"mapp":4342,"wordĠ":4343,"anel":4344,"KEY":4345,"ĠĠĠĠĠĠĠĠĠĠĠĠĠĠĠĠelse:":4346,"ĠĠĠĠĠĠĠĠĠĠĠĠreturn":4347,"hol":4348,"Chat":4349,"///":4350,"fore":4351,"serializ":4352,"theyĠ":4353,"kĠ":4354,"eventĠ":4355,"ĠĠĠĠĠĠĠĠassert_":4356,"patch":4357,"ush":4358,"\\x42":4359,"8Ġ":4360,"my_":4361,"ow":4362,"MatchMakerActiv":4363,"traffic_":4364,"ĠĠ'":4365,"MatchMakerMonitor":4366,"logging":4367,"lim":4368,"Ve":4369,"gt":4370,"bin/":4371,"ĠĠĠĠĠĠĠĠĠĠĠĠĠĠĠĠĠĠĠĠĠĠĠĠĠ":4372,"ason":4373,"ATION":4374,"form_":4375,"xĠinĠ":4376,"sqr":4377,"Dis":4378,"Global":4379,"datetime":4380,"(1)":4381,"fĠ=Ġ":4382,"ic_":4383,"End":4384,"container":4385,"gui":4386,"text-":4387,"lib/python3.":4388,"Util":4389,"0)Ġ":4390,"81":4391,"....":4392,"){":4393,"Av":4394,"nĠ=Ġ":4395,"ARE":4396,".is":4397,"pathĠ=Ġ":4398,"vision":4399,"255,Ġ":4400,"modifi":4401,"separ":4402,"52":4403,"MatchMakerActivation.":4404,"MatchMakerMonitoring.":4405,"viceĠ":4406,"ĠĠĠĠĠĠĠĠĠĠĠĠĠĠĠĠĠĠĠĠĠĠĠ":4407,"_m":4408,"indice":4409,"ation(":4410,"83":4411,"asyncĠ":4412,"ert":4413,":,Ġ":4414,"strong":4415,"defini":4416,"Param":4417,".prototype":4418,"-------":4419,"quire":4420,"kenĠ":4421,"TEST":4422,"clar":4423,"pxĠsolidĠ":4424,"desk":4425,"Sa":4426,"Error(":4427,"TT":4428,"ĉĉĉĉĉĉĉ":4429,"strict":4430,"CE":4431,"Field(":4432,"Ġ+=Ġ":4433,"toon":4434,"identifi":4435,"enc":4436,"view_":4437,"<codeĠ":4438,"sĠ==Ġ":4439,"__(self):":4440,"m2":4441,"helper":4442,"),Ġ(":4443,"s_to_":4444,"DEFAULT_":4445,"dataset.":4446,")):":4447,"aa":4448,"gh":4449,"ĠĠĠĠ'''":4450,"f:":4451,"available":4452,"messageĠ":4453,"removed":4454,"sideĠ":4455,"0-9":4456,"sum(":4457,"expected_":4458,"X,Ġ":4459,"predi":4460,"RES":4461,"render":4462,"=False,":4463,"absol":4464,"ifĠ__name__":4465,":Ġint":4466,"IB":4467,"Form":4468,"Memory":4469,"'].":4470,"differentĠ":4471,"loa":4472,"ualĠ":4473,"raine":4474,"\\n\"":4475,"type(":4476,"depth":4477,"configur":4478,"weigh":4479,"UTĠ":4480,"116":4481,"ĠwithĠ":4482,"ter(":4483,"ip_":4484,"ĠĠ__ret":4485,"TION":4486,"ĉĠ*Ġ@returnĠ{":4487,"len(self.":4488,"Graph":4489,"found":4490,"mag":4491,"ä»":4492,"ers.":4493,"cir":4494,"write(\"":4495,"________":4496,"MIT":4497,"constru":4498,"dex_":4499,"sched":4500,"ingĠaĠ":4501,"ĉĉvarĠ":4502,"fet":4503,"Click":4504,"Ma":4505,"ypeĠ":4506,"overri":4507,"catch":4508,"m-":4509,"df.":4510,"500":4511,",Ġ(":4512,"ĠĠĠĠĠĠĠĠ(":4513,"name=":4514,"com/":4515,"implement":4516,"query_":4517,"product":4518,"Dataset":4519,"widget":4520,"white":4521,"backend":4522,"Rel":4523,"Ġ>=Ġ":4524,"ESĠ":4525,"[-1]":4526,"Ġ=Ġ12;":4527,"Math.":4528,"ANYĠ":4529,"bind":4530,"non-":4531,"logger.info":4532,"abo":4533,"verbose":4534,"thatĠtheĠ":4535,"process_":4536,"ĠĠĠĠĉa16":4537,"g.Ġ":4538,"<li>":4539,"CD":4540,"],Ġ[":4541,"ĠĠĠĠĠĠĠĠx":4542,"int32":4543,"Ð½":4544,"///Ġ":4545,"align='":4546,"php":4547,"MS":4548,"blockĠ":4549,"</span><spanĠclass=\"p\">":4550,"does":4551,"255":4552,"er().":4553,"Offset":4554,"/home":4555,"cision":4556,"und_":4557,"path)":4558,"LICENSE":4559,"item.":4560,"Argument":4561,"obj:`":4562,"===Ġ'":4563,"derĠ":4564,"board":4565,"wayĠ":4566,"ĠĠĠĠĠĠvarĠ":4567,"False)":4568,"\")Ġ":4569,"i++)Ġ{":4570,"ĠĠĠĠĠĠĠĠ//Ġ":4571,"appl":4572,"s=[":4573,"coe":4574,"atĠtheĠ":4575,"interval":4576,"fromĠsymp":4577,"prefi":4578,"data[":4579,"Ġ==Ġ32":4580,")/":4581,"unique":4582,"basedĠ":4583,"cript":4584,"fnĠ":4585,"ĠĠĠĠ});":4586,"NameĠ":4587,"switch":4588,"old_":4589,"IZE":4590,"\"Ġtitle=\"":4591,"https://github.com/":4592,"234":4593,"(cc_":4594,"verti":4595,"Stream":4596,"ĠĠĠĠĠĠĠĠassert.equal(":4597,"each":4598,"sibleĠ":4599,"Variable":4600,"cam":4601,"stdo":4602,"this;":4603,"linear":4604,"ĠĠĠĠĠĠĠĠĠĠĠĠĠĠĠĠforĠ":4605,"\"Ġ%Ġ(":4606,"att":4607,"https://www.":4608,"1-":4609,"sorĠ":4610,"Ġ!=Ġ":4611,"label_":4612,"params.":4613,"array_":4614,"\"ĠinĠ":4615,"Over":4616,"6.":4617,"s),Ġ":4618,"98":4619,"ter.":4620,"utili":4621,"cls.":4622,"modeĠ":4623,"sĠ=Ġ{}":4624,"data['":4625,"propertyĠ":4626,"ĠĠĠĠĠĠĠĠpass":4627,"scroll":4628,"Hel":4629,"mut":4630,":obj:`":4631,"ĠinĠtheĠ":4632,"92":4633,"api.":4634,"yam":4635,".ĠThisĠ":4636,"T,Ġ":4637,"#if":4638,"definition":4639,"-*":4640,"quare":4641,"ĠĠĠĠtry:":4642,"trueĠ":4643,"ĠĠĠĠĠĠĠĠ_":4644,"it'sĠ":4645,"H:":4646,"generate":4647,"Pi":4648,"cationĠ":4649,"ĠĠĠĠĠĠĠĠĠĠĠĠĠĠĠĠ}":4650,"cf==":4651,"=0":4652,"9,Ġ":4653,"bb":4654,"uttonĠ":4655,"]+":4656,"today":4657,"itĠisĠ":4658,"save_":4659,"ĠĠĠĠ----------":4660,"ĠĠ.":4661,"invo":4662,"scape":4663,"status_":4664,"\\7":4665,"couldĠ":4666,"coordinate":4667,"ĉfĉfĉfĉf":4668,":3":4669,"120":4670,"Clo":4671,"xsd":4672,"ĠĠĠĠĉa18":4673,"acc":4674,"eri":4675,"mainĠ":4676,"âĢ¢":4677,"torch":4678,"alreadyĠ":4679,"||":4680,"softwa":4681,"libcity.model.":4682,"**Ġ":4683,"Float":4684,"âĶ":4685,"youĠcanĠ":4686,"s[i]":4687,"ĉĉĉĉcaseĠ\"":4688,"matplot":4689,"STAT":4690,"plot_":4691,"(f\"":4692,"route":4693,"Tim":4694,"CF":4695,"idĠ=Ġ":4696,"10.":4697,"ĠĠĠĠĠ*Ġ@":4698,"+Ġ\"":4699,"\"]Ġ=Ġ":4700,"globalĠ":4701,"Width":4702,":ĠTheĠ":4703,"ĠĠĠĠĠĠĠĠĠĠĠĠĠĠĠĠĠĠĠĠĠĠĠĠĠĠĠ":4704,"v.":4705,"wait":4706,"usĠ":4707,"database":4708,"Create":4709,"Star":4710,"lack":4711,"Position":4712,"Raise":4713,":Ġ0;":4714,"Load":4715,"s\")":4716,"dash":4717,"EM":4718,"repe":4719,"data/":4720,"ator(":4721,"enter":4722,"download":4723,"suffi":4724,"cfg":4725,"nullĠ":4726,"Date.Culture":4727,"has_":4728,"only":4729,"Component":4730,"OK":4731,"where":4732,"Transition(":4733,"example.com":4734,"lowĠ":4735,"question":4736,"echoĠ":4737,"then":4738,"gorith":4739,"sizeof(":4740,")Ġ%Ġ14":4741,"čĊčĊčĊ":4742,"singleĠ":4743,"delĠ":4744,"modelĠ=Ġ":4745,"d:":4746,"æķ°":4747,"object.":4748,"Secon":4749,"AST":4750,"(self)":4751,"ASĠ":4752,"Instruction":4753,"Command":4754,"ĠĠĠĠĠĠĠĠĠĠĠĠĠĠĠĠĠĠĠĠ'":4755,"py_":4756,"ĠĠĠĠ}Ġ":4757,"sĠifĠ":4758,"\"Ġ>":4759,")Ġ{Ġ":4760,"All":4761,"map(":4762,"VALU":4763,"mlĠ":4764,"p,Ġ":4765,"ation,Ġ":4766,"point_":4767,"POINTER":4768,"Proto":4769,"validate":4770,"vig":4771,"</h":4772,"#includeĠ":4773,"Equal":4774,"ĉĉ//Ġ":4775,"regi":4776,"conf":4777,"TEX":4778,"ĉĉifĠ(":4779,"Source":4780,"s.append(fac.":4781,"ĠĠĠĠtransitions.append(fac.":4782,"Transition(st_":4783,"ĠĠĠĠtransitions.append(fac.Transition(st_":4784,"global_":4785,"My":4786,"iĠ=Ġ":4787,"Schema":4788,"3);":4789,"xy":4790,"oriz":4791,"x:Ġ":4792,"formatĠ":4793,":class:`":4794,"oseĠ":4795,"ĠĠĠĠ(":4796,"llĠ":4797,"value.":4798,"q_":4799,"Ht":4800,"plot(":4801,"*args,Ġ":4802,"DateĠ":4803,"utor":4804,"duration":4805,"size_tĠ":4806,"HTML":4807,":]":4808,"quote":4809,"e:":4810,"Box":4811,"Cu":4812,"send_":4813,"212":4814,"b,Ġ":4815,"ve_":4816,"WARRAN":4817,"cryp":4818,"y:":4819,"no_":4820,"ABLE":4821,"(0)":4822,"11,Ġ":4823,"username":4824,"ĠĠĠĠĠĠĠĠsuper(":4825,"platform":4826,"logit":4827,"GI":4828,"ations":4829,"Ġ+Ġ'":4830,"border-bottom":4831,"attrib":4832,"lab":4833,"\\\"":4834,"sist":4835,"pos_":4836,"encoder_":4837,"/home/":4838,"layer_":4839,"ĠĠĠĠ},":4840,"under":4841,"src_":4842,"keyword":4843,"type='":4844,"ofĠthisĠ":4845,"IE":4846,"__ret;":4847,"Go":4848,"<!":4849,"valid_":4850,"progres":4851,"TypeĠ":4852,"credential":4853,"nextĠ":4854,"browser":4855,")Ġ+Ġ-":4856,"Union":4857,"grad":4858,"War":4859,"ter_":4860,"object_":4861,"t)":4862,"Back":4863,"draw":4864,"0.0,Ġ":4865,"height:Ġ":4866,"desktop":4867,"2/":4868,"{}\".format(":4869,"word_":4870,"usedĠtoĠ":4871,"ĠĠĠĠĠĠĠĠ},":4872,"p(":4873,"base.":4874,"forward":4875,"[0])":4876,"GET":4877,"amma":4878,"-*-Ġ":4879,"hit":4880,"INĠ":4881,"succes":4882,"rl":4883,"longĠ":4884,"ĠĠĠĠĠĠĠĠbuf.":4885,"I'mĠ":4886,"update(":4887,"_CON":4888,"Track":4889,"=1,Ġ":4890,"Ġ=Ġtorch.":4891,"<td>":4892,"cuda":4893,"payload":4894,"targetĠ":4895,"eng":4896,"%(":4897,"selection":4898,"UD":4899,"Task":4900,"float(":4901,"%;":4902,"iss":4903,"element.":4904,"sheet":4905,"cls,Ġ":4906,"boolean":4907,"åħ":4908,"languageĠ":4909,"s'":4910,"807":4911,"Doc":4912,"SO":4913,"=>Ġ{":4914,"Ġ=Ġ0;ĠiĠ<Ġ":4915,"openmtc-":4916,"sql":4917,"LOG":4918,"gotoĠ":4919,"future__":4920,"__future__":4921,"file,Ġ":4922,"ning_":4923,"coding:Ġ":4924,"field_":4925,"removed@":4926,"-->":4927,"Link":4928,"abs(":4929,"($":4930,"sock":4931,"True,Ġ":4932,"theseĠ":4933,"Imple":4934,"ĠĠĠĠĠĠĠĠĠĠĠĠĠĠĠĠĠĠĠĠ#Ġ":4935,"bĠ=Ġ":4936,"Disp":4937,"Ð¸":4938,"trace":4939,"error_":4940,"XĠ":4941,"simple":4942,"æĸ":4943,"memor":4944,"pred":4945,"minim":4946,"{0":4947,"val_":4948,"em>":4949,"izeĠ":4950,"sample_":4951,"ĠĠĠĠĠĠĠĠ'''":4952,"fromĠ__future__":4953,"EXT":4954,"develo":4955,"an_":4956,"[0].":4957,"reference":4958,"write_":4959,"CP":4960,"fromĠ__future__ĠimportĠ":4961,"dom":4962,"POINTER(":4963,"time.time":4964,"controll":4965,"progra":4966,"seq_":4967,"614":4968,"you":4969,"Down":4970,"emĠ":4971,"Matri":4972,"lea":4973,"resour":4974,"exportĠ":4975,"14;":4976,"saction":4977,"!!":4978,"ĠĠĠĠĠĠĠĠĠĠĠĠĠĠĠĠĠĠĠĠĠĠĠĠĠĠĠĠĠ":4979,"args":4980,"DD":4981,"notĠbeĠ":4982,"type_":4983,"dle":4984,"Initial":4985,"st.":4986,"ni":4987,"ĠĠĠĠĠĠĠĠĠĠĠĠ#":4988,"IĠamĠ":4989,"(re":4990,"SH":4991,"ampleĠ":4992,"__m":4993,"self).__init__":4994,"FLAG":4995,"gpu":4996,"except:":4997,"ĉĉĉĉĉĉĉĉ":4998,"faile":4999,"irĠ":5000,"ĠĠĠĠĠĠĠĠreturn":5001,"cted_":5002,"count_":5003,"ĠĠĠĠre":5004,"screen":5005,"ĠĠĠĠĠĠĠĠTheĠ":5006,"fr":5007,"Sta":5008,"row_":5009,"lyph":5010,",Ġ0x":5011,"ENT_":5012,"kee":5013,"ĠĠĠĠ};":5014,"ĠĠĠĠfromĠ":5015,"url,Ġ":5016,"goog":5017,"stdout":5018,"atio":5019,"Thread":5020,"quot":5021,"her":5022,"Ġ=Ġget_":5023,"sĠ+Ġ":5024,"hi":5025,"ÑĤ":5026,"ki":5027,"float,Ġ":5028,"static/":5029,"Lev":5030,"wer":5031,"numer":5032,"pg":5033,"Pl":5034,"io.":5035,"s())":5036,"Conver":5037,"self.__":5038,"view.":5039,"_SH":5040,"clone":5041,"DF":5042,"sinceĠ":5043,"order=\"":5044,"by_":5045,"Ġ=Ġ2;":5046,"(input":5047,"AddĠ":5048,"sage":5049,"</ul>":5050,"atche":5051,"aĠ=Ġ":5052,"===Ġ\"":5053,"dur":5054,"UseĠ":5055,"numpy.":5056,"bran":5057,"sleep":5058,"pres":5059,"NV":5060,"ĠĠĠĠ{":5061,"Handl":5062,"theta":5063,"ĠĠĠĠĠĠĠĠĠĠĠĠifĠnotĠ":5064,"âĸ":5065,"anchor":5066,"0_":5067,"List[":5068,")))Ġ{":5069,"Mode":5070,"writeĠ":5071,"erĠofĠ":5072,"api_":5073,"meas":5074,"directory":5075,"Factor":5076,"ĠĠĠĠĠĠĠĠprint(\"":5077,"push(":5078,"ĉ$P":5079,"SQ":5080,"global":5081,"aboutĠ":5082,"liter":5083,"help=\"":5084,"df_":5085,"calculate_":5086,"\"><":5087,"NULL;":5088,"ĠĠĠĠĠ*":5089,"<tdĠclass=\"col-desktop":5090,"FF'>":5091,"scribe":5092,"imgĠ":5093,"ovldĠ__":5094,"parser.add_argument('--":5095,":Ġ`":5096,"v8":5097,"do_":5098,"okie":5099,"fac.Update":5100,"Instruction(cc_":5101,"fac.UpdateInstruction(cc_":5102,"settings.":5103,"allĠtheĠ":5104,"togg":5105,"{}Ġ":5106,"ĠĠĠĠĠĠĠĠĠĠĠĠĠĠĠĠĠĠĠĠĠĠĠĠĠĠĠĠĠĠĠ":5107,"same":5108,"verage":5109,"contentĠ":5110,"42":5111,"ORM":5112,"*-":5113,"prediction.":5114,"tification":5115,"AllĠ":5116,"__PYX_ERR":5117,"dere":5118,"Server":5119,"value)":5120,"çĶ":5121,"pretraine":5122,"Mas":5123,"IV":5124,"ties":5125,"best_":5126,"connect":5127,"&&Ġ!":5128,"process.":5129,"argv":5130,"distribution":5131,"TOĠ":5132,":Ġtrue":5133,"ĠĠĠĠĠĠĠĠĠĠĠĠvarĠ":5134,"theme":5135,"Level":5136,"self,Ġ":5137,"jav":5138,"_t)":5139,"':Ġ[":5140,"Change":5141,"s).":5142,"hereĠ":5143,"SetĠ":5144,"matchĠ":5145,"Sho":5146,"Logg":5147,"field.":5148,"#Ġ-*-Ġ":5149,"fer":5150,"BAS":5151,"lib/python3.7/site-packages/":5152,"nan":5153,"mented":5154,"ĠĠdefĠ":5155,"classmethod":5156,"locale":5157,"THEĠ":5158,"rel=\"":5159,"TW":5160,"åĲ":5161,"frappe":5162,"*)":5163,"coding:Ġutf-8":5164,"CC":5165,"assertEqual(":5166,"ther":5167,"ptr":5168,"absolute":5169,"exc":5170,"parseĠ":5171,"Ġ=Ġthis.":5172,"Can":5173,"]).":5174,"runĠ":5175,"item_":5176,"up_":5177,"OR_":5178,"-1)":5179,"ĉ#ĠGL/glext.h:":5180,"ix":5181,"00;":5182,"And":5183,"rank":5184,"=1":5185,"Main":5186,"ration":5187,"audi":5188,"phase":5189,"Python":5190,"ffici":5191,"å®":5192,"NoĠ":5193,"Batch":5194,"doesn'tĠ":5195,"t>":5196,"thingĠ":5197,"apache":5198,"urlĠ":5199,"Hour":5200,"private":5201,"d-":5202,"window.":5203,"__Pyx_Py":5204,"Ġ-*-":5205,"argsĠ=Ġ":5206,"event_":5207,"Prop":5208,"themĠ":5209,"algorith":5210,"obj,Ġ":5211,"id)":5212,"Require":5213,"commandĠ":5214,"updateĠ":5215,"ĠĠĠĠexceptĠ":5216,"TestCase":5217,"840":5218,"00000000":5219,"world":5220,"character":5221,"Column":5222,"correspon":5223,"cnfnĠ":5224,"ovldĠ__cnfnĠ":5225,"#!":5226,"width=\"":5227,"sentence":5228,"notif":5229,"andĠtheĠ":5230,"someth":5231,"ĠĠĠĠĉa187":5232,"not_":5233,"OD":5234,"Method":5235,"expected":5236,"+-":5237,"I_":5238,"53":5239,"target=\"":5240,"columnĠ":5241,"URE":5242,"8.":5243,"[1],Ġ":5244,"post_":5245,"pend":5246,"r,Ġ":5247,"ValueError(\"":5248,"Import":5249,"ĠĠĠĠ('":5250,"6Ġ":5251,"&#822":5252,"<divĠ":5253,"sampl":5254,"tx":5255,"vis":5256,"forwar":5257,"addition":5258,"et_":5259,"atter":5260,"removed@example.com":5261,"ĠĠĠĠĠĠĠĠĠĠĠĠifĠself.":5262,"args)":5263,"0,Ġ'":5264,"Ġ&&Ġ(a":5265,"(e":5266,"state_":5267,"ator.":5268,"Buil":5269,"ence":5270,"request_":5271,"2*":5272,"pred_":5273,"boot":5274,"StringĠ":5275,"pointer":5276,"success":5277,"EV":5278,"rend":5279,"ndarray":5280,"repr":5281,"atar":5282,"alo":5283,"s\",Ġ":5284,"keep":5285,"db_":5286,"weekday":5287,"glyph":5288,"Pas":5289,"shufflevector":5290,"Ġ=Ġget":5291,"reshape":5292,"caseĠ'":5293,"fyĠ":5294,"valuesĠ":5295,"SD":5296,"xĠ+Ġ":5297,"fc":5298,"R.":5299,"WhenĠ":5300,"$(":5301,"ĠĠĠ<aĠhref=\"#":5302,").to":5303,"ment.":5304,")Ġ%Ġ14999":5305,"_SE":5306,"__builtin_shufflevector":5307,"ax.":5308,"Stand":5309,"ITION":5310,"dele":5311,"2)Ġ":5312,"findĠ":5313,"model,Ġ":5314,"DATA":5315,"resolve":5316,"ĠĠĠĠ__":5317,"------------------------------------------------------------------------":5318,"Ġ&#822":5319,"6;ĠĠĠ<aĠhref=\"#":5320,"Ġ&#8226;ĠĠĠ<aĠhref=\"#":5321,"\\b":5322,"~~~~":5323,"nowĠ":5324,"-214":5325,"WARRANTI":5326,"Service":5327,"tĠinĠ":5328,"ĠĠ#":5329,"_L":5330,"normal":5331,"ÑĢ":5332,";Ġi++)Ġ{":5333,"ĠĠĠĠfunctionĠ":5334,"calledĠ":5335,"imat":5336,"s\"":5337,"arange":5338,"ĠĠĠĠĠĠĠĠĠĠĠĠtry:":5339,"(__p":5340,"2015":5341,"maxim":5342,"java":5343,"trigg":5344,"Range":5345,"alway":5346,"<liĠclass=\"toctree-l1\">":5347,"END":5348,"nx.":5349,"f'":5350,"in_channel":5351,"ta.":5352,"å¤":5353,"Filter":5354,"doubleĠ":5355,"issue":5356,"curac":5357,"T\":Ġ\"":5358,"gradient":5359,"Cy":5360,"dataset_":5361,"sĠ-Ġ":5362,"[[":5363,"primar":5364,"checkĠ":5365,"tiesĠ":5366,"ĠĠĠĠĠĠĠĠĠĠĠĠĠĠĠĠraiseĠ":5367,"&nbsp;</td>":5368,"800":5369,"\\.":5370,"ĠĠĠĠif":5371,"impli":5372,"ciph":5373,"name(":5374,"Byte":5375,"Use":5376,"PyLong":5377,";Ġ\\":5378,"utilsĠimportĠ":5379,"vice_":5380,"astro":5381,"important":5382,"TYPE":5383,"data_format":5384,"ye":5385,"cpu":5386,"bĠ":5387,"%dĠ":5388,"-web":5389,".add":5390,"pageĠ":5391,"#ĠĠĠĠ":5392,"er):":5393,"Name(":5394,"mk":5395,"Work":5396,"buttonĠ":5397,"fieldĠ":5398,"amoun":5399,"ToĠ":5400,"Produ":5401,"106":5402,"objects.":5403,"pand":5404,"IR":5405,"spar":5406,"main_":5407,"dr":5408,"ĠĠĠĠ-214":5409,"c/":5410,"foundĠ":5411,"âĢ¢âĢ¢":5412,"scope.":5413,"wiseĠ":5414,"OB":5415,"ifĠnotĠ":5416,"LOC":5417,"ifi":5418,"admin":5419,"kit-":5420,"content_":5421,"ĠĠĠĠĠĠĠĠfac.UpdateInstruction(cc_":5422,"sĠtoĠtheĠ":5423,"GR":5424,"')Ġ{":5425,"secondĠ":5426,"Meta":5427,"$D.":5428,"sĠ=Ġ['":5429,"Ele":5430,"directoryĠ":5431,"ĠP":5432,"startswith":5433,"correct":5434,"disc":5435,"multipleĠ":5436,"endi":5437,"defĠ__":5438,"/*!":5439,"exports.":5440,"withĠaĠ":5441,"Sequence[":5442,"ing,Ġ":5443,"timezone":5444,"ableĠtoĠ":5445,"ĠĠĠĠ<t":5446,"1Ġ-Ġ":5447,"queryĠ":5448,"fri":5449,"canv":5450,"Network":5451,"suchĠ":5452,"importĠsys":5453,"Obj":5454,"requestĠ":5455,"begin":5456,"class__":5457,"user.":5458,"sĠ+=Ġ":5459,"index_":5460,"Template":5461,"sĠisĠ":5462,"size,Ġ":5463,"W_":5464,"Object.":5465,"_block":5466,"(self)Ġ->Ġ":5467,"$('":5468,"need":5469,"ĠinĠself.":5470,"wise":5471,"callĠ":5472,"#ĠCopyrightĠ":5473,"Iden":5474,"free":5475,"layout":5476,"ynam":5477,"(0.":5478,"datasetĠ":5479,"lot":5480,"console.":5481,"__pyx_L1_error)":5482,"Edi":5483,"ĉ}":5484,"ĠĠĠĠĠĠ//Ġ":5485,"quee":5486,"beta":5487,"visible":5488,"ifĠ(unlikely(":5489,"verif":5490,"Parse":5491,"05":5492,"theĠ\"":5493,"strateg":5494,"wr":5495,"map_":5496,"hr":5497,"z_":5498,"ĉĠ*":5499,"compo":5500,"ĠĠ{":5501,"split(":5502,"298":5503,"1,Ġ2,Ġ":5504,"),Ġ'":5505,"izer.":5506,"TrueĠ":5507,"localĠ":5508,"w,Ġ":5509,"Jo":5510,"+\"":5511,"Ax":5512,"1}":5513,"Distri":5514,"sequence_":5515,"rect":5516,"('/":5517,"astype":5518,"DER":5519,"stract":5520,"Proces":5521,".get(":5522,"lambda":5523,"min(":5524,"Ġ=Ġ1;":5525,"107":5526,"expor":5527,"Ġ=Ġ13;":5528,"DataFrame":5529,"Callback":5530,"gamma":5531,"Mod":5532,"prepa":5533,"03":5534,"'reĠ":5535,"Var":5536,"before":5537,"coding:Ġutf-8Ġ-*-":5538,"cb":5539,"\"Ġid=\"":5540,"=False):":5541,"result_":5542,"seg":5543,"<liĠclass=\"toctree-l1\"><aĠclass=\"referenceĠinternal\"Ġhref=\"":5544,"PyObjectĠ*__pyx_":5545,"ĉĠ*Ġ@paramĠ{":5546,"obta":5547,"eval_":5548,"wait_":5549,"amil":5550,"hex":5551,"2))":5552,"partĠ":5553,"sĠ:Ġ":5554,"System":5555,"s?":5556,"ĠtoĠtheĠ":5557,"\"></script>":5558,"287":5559,"polic":5560,"ĠĠĠĠp":5561,"è¿":5562,"Top":5563,"v,Ġ":5564,"s_list":5565,"ffff":5566,"!important":5567,"Vector":5568,"bodyĠ":5569,"log(":5570,"Auto":5571,"er)":5572,"Transform":5573,"buf":5574,"pipeline":5575,"Apa":5576,"imgĠsrc=\"":5577,"bad":5578,"big":5579,"(__m":5580,"insteadĠ":5581,"2Ġ*Ġ":5582,"experi":5583,".e":5584,"Job":5585,"y:Ġ":5586,"items():":5587,"leftĠ":5588,"form-":5589,"values":5590,"just":5591,"ĠĠĠĠĠĠĠĠd":5592,".remove":5593,"OS":5594,"bias":5595,"node_":5596,"fromĠsympy.":5597,"depre":5598,"Ġ*Ġ(":5599,",'":5600,"Text(":5601,"Contain":5602,"raises(":5603,"Custo":5604,"STRING":5605,"alseĠ":5606,"rangeĠ":5607,"Ran":5608,"#Ġ-*-Ġcoding:Ġutf-8Ġ-*-":5609,"xx":5610,"ssion":5611,"_MA":5612,"actionĠ":5613,"ĠĠĠĠĉa167":5614,"Boolean":5615,"agg":5616,"fontĠ":5617,"#else":5618,"ĠĠĠĠĠĠĠĠĠĠĠĠĠĠĠĠĠĠĠĠĠĠĠĠĠĠĠĠĠĠ":5619,"simp":5620,"Controll":5621,"video":5622,"faceĠ":5623,"message.":5624,"navig":5625,"staticmethod":5626,"context.":5627,"printĠ\"":5628,"ĠĠĠĠĉa12":5629,"login":5630,")ĠasĠf:":5631,"3]":5632,"shoul":5633,"cube":5634,".get(\"":5635,"compare":5636,"tv":5637,"'}":5638,"variableĠ":5639,"x4_tĠ":5640,"height=\"":5641,"400":5642,"toĠuseĠ":5643,"caption":5644,"345":5645,"config_":5646,"aiĠ":5647,"flex":5648,".name":5649,"ted(":5650,"moveĠ":5651,"emptyĠ":5652,"registr":5653,"ĉĉself.":5654,"ĠĠĠĠĉa199":5655,"pt_":5656,"COND":5657,"732":5658,"type=\"text/":5659,"Applic":5660,"u_":5661,"ordin":5662,"templateĠ":5663,"_name,Ġ":5664,"parent_":5665,"pre\">":5666,"bili":5667,"cfg.":5668,"price":5669,"Addres":5670,"Control":5671,"A-":5672,"weight_":5673,"tuple(":5674,"ĠisĠnotĠNone:":5675,"sort":5676,"P_":5677,"06":5678,"ĠĠĠĠĉa188":5679,"sĠonĠ":5680,"15;":5681,"dictĠ":5682,"bro":5683,"sequenceĠ":5684,"Layout":5685,"Ġ=Ġint(":5686,"224":5687,"kernel_size":5688,"volume":5689,"dĠunderĠtheĠ":5690,"versionĠ":5691,"generate_":5692,"reverse":5693,"Fin":5694,"url_":5695,"raw_":5696,"upper":5697,"Pool":5698,"è¯":5699,"\"+":5700,"selectĠ":5701,"\"Ġalt":5702,"batch_size,Ġ":5703,"dim=":5704,"ĠisĠNone:":5705,"Ap":5706,"input_id":5707,"Own":5708,"h:":5709,"ĠaĠ":5710,"umb":5711,"mark.":5712,"resp":5713,"viewĠ":5714,"link_":5715,"WARRANTIESĠ":5716,"figure":5717,"ASĠIS":5718,"1Ġ+Ġ":5719,"SC":5720,"ADD":5721,"show_":5722,"forĠ(varĠ":5723,"cfĠ=Ġ0;":5724,"super":5725,"[j":5726,"Arti":5727,"ACK":5728,"fromĠdjango.":5729,"@pytest.":5730,"-webkit-":5731,"newĠDate":5732,"Session":5733,"amp":5734,"tivity":5735,"SeeĠtheĠ":5736,"ĉtĉfĉfĉfĉf":5737,"ERROR":5738,"sqrt(":5739,"dge":5740,"cmd":5741,"tools.":5742,"(object):":5743,"o\">":5744,"real":5745,"argumentĠ":5746,"holder":5747,"ĉĉĉĉifĠ(":5748,"True:":5749,"changeĠ":5750,"millisecond":5751,"strong>":5752,"order_":5753,")Ġ/Ġ5":5754,"int64":5755,"(this,Ġ":5756,"KIN":5757,"*/Ġ":5758,"ssh":5759,"theirĠ":5760,".txt":5761,"PATH":5762,"mock_":5763,"Arra":5764,"ĠĠĠĠĠĠĠĠf":5765,"colĠ":5766,"writer":5767,"AnĠ":5768,"ĉĠĠĠĠĠĠĠĠĠĠĠĠĠĠĠĠĠĠĠĠ":5769,"Mar":5770,"text>":5771,"deci":5772,"Mock":5773,"Union[":5774,"path_":5775,"Scale":5776,"ware":5777,"f(":5778,"topĠ":5779,"icro":5780,"A,Ġ":5781,"ĠĠĠĠplt.":5782,"ĠĠĠĠ@classmethod":5783,"parser.":5784,"Second":5785,"ApacheĠ":5786,"image.":5787,"uuid":5788,"ĠĠĠĠprint(\"":5789,"(__pyx_":5790,"analysi":5791,"forĠaĠ":5792,"10)":5793,"###":5794,"custom":5795,"PAR":5796,"ference":5797,"upleĠ":5798,"asĠtheĠ":5799,"fa-":5800,"dropout":5801,"Any":5802,"relative":5803,"ctionĠ":5804,"math.":5805,"colle":5806,"bgcolor='":5807,"dt":5808,"thing":5809,"Men":5810,"ĉĉthis.":5811,"ingĠimportĠ":5812,"queeze":5813,"#000000;":5814,"LT":5815,"ĠĠĠĠTheĠ":5816,"index,Ġ":5817,"ffect":5818,"Name.":5819,"(0":5820,"display:Ġ":5821,"(this.":5822,"account":5823,"Lex":5824,"assign":5825,"informationĠ":5826,"æĺ":5827,"\"),Ġ":5828,"WITHO":5829,"bar-":5830,"scores":5831,"name_":5832,"useĠthisĠ":5833,"âĶĢ":5834,"style=\"border-bottom":5835,"-0.":5836,"ard_":5837,"h,Ġ":5838,"deep":5839,"4);":5840,"APIĠ":5841,"appro":5842,"pxĠsolidĠ#000000;":5843,":Ġbool":5844,"mostĠ":5845,"Lang":5846,"ouse":5847,"ary_":5848,"visi":5849,"02":5850,"placeĠ":5851,"lip":5852,"decor":5853,"ateĠtheĠ":5854,"layers.":5855,"privateĠ":5856,"TF":5857,"responseĠ=Ġ":5858,"820":5859,":3pxĠsolidĠ#000000;":5860,"style=\"border-bottom:3pxĠsolidĠ#000000;":5861,"Interval":5862,"after":5863,"rc":5864,"yyyy":5865,"!important;":5866,"&quot":5867,"217":5868,"pose":5869,"air":5870,"ĠĠĠĠĉa13":5871,"cookie":5872,"conv_":5873,"_bl":5874,"ĠĠĠĠĉa30":5875,"dropdown":5876,"SA":5877,"st,Ġ":5878,"Head":5879,"Tool":5880,"\"ASĠIS":5881,"safe":5882,"Tar":5883,"Func":5884,"N_":5885,"gĠ":5886,"ãĢ":5887,"compon":5888,"set_input_":5889,"field-":5890,"removeĠ":5891,"[0,Ġ":5892,"python/":5893,"READ":5894,"ĠĠĠĠĉa112":5895,"throwĠnewĠ":5896,",ĠGL":5897,"]);":5898,"promp":5899,"Ste":5900,"pathĠ":5901,"axe":5902,"initialize":5903,"ĠĠĠĠParameters":5904,"dar":5905,"s('":5906,"\\3\\2\\2":5907,"284":5908,"inputĠ==Ġ":5909,"scalar":5910,");ĠifĠ(unlikely(":5911,"storage":5912,"ject":5913,"i=":5914,"/usr/bin/":5915,"attributeĠ":5916,"FRO":5917,"jector":5918,"204":5919,"file)":5920,"rgba":5921,"split_":5922,"constraint":5923,"card":5924,"idi":5925,"NotImple":5926,"ĠĠĠĠĠĠĠĠĠĠĠĠ(":5927,"y=":5928,"Right":5929,"ization":5930,"rootĠ":5931,"Keyword":5932,"allel":5933,"accurac":5934,"Vi":5935,"View.Memory":5936,"rĠ":5937,"libcity.model.traffic_":5938,"town":5939,"ĠĠĠĠĠĠĠĠĠĠĠĠĠĠĠĠĠĠĠĠĠĠĠĠĠĠĠĠĠĠĠĠĠ":5940,"call(":5941,"ExceptionĠasĠ":5942,"&quot;":5943,"at_":5944,"20,Ġ":5945,"stder":5946,"nameĠinĠ":5947,"NumberĠofĠ":5948,"Zone":5949,"Cal":5950,"tialĠ":5951,"&#x":5952,"name.":5953,"expres":5954,"Found":5955,"radius":5956,"#ĠĠĠ":5957,"Start":5958,"Linear":5959,"ValueĠ":5960,"ãģ":5961,"precision":5962,"[],Ġ":5963,"SELE":5964,"Handler":5965,"NS":5966,"usingĠtheĠ":5967,"info.":5968,"False,Ġ":5969,"AIN":5970,"sur":5971,"compli":5972,"Count":5973,"ListĠ":5974,"<T":5975,"oprot.":5976,"s\">":5977,"release":5978,"erĠimportĠ":5979,"measure":5980,"tokenĠ":5981,"/*!<Ġ":5982,"width,Ġ":5983,"WE":5984,"GOT":5985,"1ĠĠ":5986,"trainingĠ":5987,"ĠĠĠĠĉcfĠ=Ġ0;":5988,"returnedĠ":5989,"!Ġ":5990,"934":5991,"structure":5992,"NotImplemented":5993,"ia":5994,"ĠĠĠĠĠĠĠĠwhileĠ":5995,"VersionĠ":5996,"Na":5997,"äº":5998,"\"Ġalt=\"":5999,"left:Ġ":6000,"2,Ġ1,Ġ":6001,"transl":6002,"frappe.":6003,"12,Ġ":6004,"alk":6005,"pythonĠ":6006,"GOTREF":6007,"hide":6008,"file(":6009,"support":6010,"knowĠ":6011,"ing(":6012,"1)Ġ{":6013,"oldĠ":6014,"_string":6015,"gr":6016,"AY":6017,"\"\")":6018,"0'Ġ":6019,"ThisĠisĠ":6020,"limi":6021,"H:mm":6022,"cog":6023,"POST":6024,"rea":6025,"server_":6026,"ĠĠĠĠĠĠĠĠĠĠĠĠassertĠ":6027,"gory":6028,"tru":6029,"2017":6030,"\")Ġ{":6031,"activation":6032,"constant":6033,"iĠ=Ġ0;ĠiĠ<Ġ":6034,"arrow":6035,"selfĠ":6036,"configuration":6037,"out_channel":6038,"theĠsameĠ":6039,"floatĠ":6040,"iprot.":6041,"sph":6042,"offsetĠ":6043,"sĠtoĠbeĠ":6044,"scen":6045,"local_":6046,"s()Ġ":6047,"ship":6048,"exampleĠ":6049,"Error(\"":6050,"THER":6051,"size:Ġ":6052,"boolĠ":6053,"\"Ġwidth=\"":6054,"3:":6055,"wel":6056,"category":6057,"Ra":6058,"moment([":6059,"flowĠ":6060,"enci":6061,"ORT":6062,"rt":6063,"lineno":6064,"ĠĠĠĠĠĠĠĠproc.set_input_":6065,"Ñģ":6066,"Search":6067,"à¸":6068,"TODO:Ġ":6069,"{{":6070,".is_":6071,"Da":6072,"adap":6073,"charĠ*":6074,"properties.":6075,"}\"":6076,".value":6077,"ven":6078,"Memb":6079,"1e-":6080,"|Ġ:":6081,"PC":6082,"ĠĠĠĠthis.":6083,"ĠĠĠĠĠĠĠĠifĠisinstance(":6084,"s/openmtc-":6085,"ome":6086,"urlĠ=Ġ":6087,"everyĠ":6088,"MMMM":6089,"utĠ":6090,"4Ġ=Ġ":6091,"ĠĠĠĠĠĠĠĠsuper().":6092,"1000":6093,"unitĠ":6094,"exists(":6095,"sg":6096,"shad":6097,"Warning":6098,"fp":6099,"Sup":6100,"Y,Ġ":6101,"scan":6102,"blue":6103,"integer":6104,"']:":6105,"<imgĠsrc=\"":6106,"PleaseĠ":6107,"(u":6108,"ĠthatĠ":6109,"\"],Ġ":6110,"city":6111,"squeeze":6112,"c)":6113,"sĠanĠ":6114,"nn":6115,"ĠĠĠĠĠĠĠĠĠĠĠĠĠĠĠĠĠĠĠĠĠĠĠĠĠĠĠĠĠĠĠĠĠĠ":6116,"haveĠaĠ":6117,"`ĠisĠ":6118,"ineĠ":6119,"orizont":6120,"erĠthanĠ":6121,"s.get('":6122,"NoneĠandĠ":6123,"8_tĠ":6124,"WITHOUTĠ":6125,"serialize":6126,"nee":6127,"x2_tĠ":6128,"Pol":6129,"NUM":6130,"selector":6131,"soft":6132,"ĠĠĠĠĉa86":6133,"ĠĠĠĠĠĠĠĠ:return":6134,"GB":6135,"normaliz":6136,"Softwa":6137,"ĉĉĉthis.":6138,"WOR":6139,"ating":6140,"choice":6141,"\\3\\u0":6142,"Ġ*ĠĠĠĠĠĠĠĠĠĠĠĠĠĠĠĠĠ":6143,"ĠĠĠĠĠĠĠĠr":6144,"bor":6145,"iĠ+Ġ":6146,"filter(":6147,"wy-":6148,"133":6149,"contri":6150,"STAR":6151,"lst":6152,"net_":6153,"Row":6154,"'),Ġ'":6155,"y()":6156,"ALL":6157,"vĠ=Ġ":6158,"zz":6159,"ĠĠĠĠ@staticmethod":6160,"searchĠ":6161,"sĠ=Ġ(":6162,"dir(":6163,".js":6164,"originalĠ":6165,"Emp":6166,"sche":6167,"{}'.format(":6168,"MLĠ":6169,"TYPE_":6170,"ĠĠĠĠconstĠ":6171,"monthĠ":6172,"sizeĠ=Ġ":6173,"attention_mask":6174,"PyObject_":6175,"dice":6176,"INSER":6177,"clip":6178,"feature_":6179,"10Ġ":6180,":,":6181,"+'":6182,"nlp.":6183,"styleĠ":6184,"Quo":6185,"AI":6186,"collap":6187,"æį":6188,"store_":6189,"unittest.":6190,"ly_":6191,"8)":6192,"ĠĠĠĠĠĠĠĠĠĠĠĠexceptĠ":6193,"inner":6194,"*(":6195,"622":6196,"fullĠ":6197,"3-":6198,"divid":6199,"inf":6200,"2D":6201,"PR":6202,"USE":6203,"_in_":6204,"envĠ":6205,"Sequential":6206,"who":6207,"cdefĠ":6208,"s.ĠĠ":6209,"4_":6210,"ĠĠĠĠĠĠĠĠĠ'":6211,"zo":6212,"Bar":6213,")Ġ!=Ġ":6214,"actu":6215,":Ġ[":6216,"heightĠ":6217,"Encod":6218,"sigma":6219,"2018":6220,"lit":6221,"width=":6222,"beingĠ":6223,"javas":6224,"+-+-":6225,"Seq":6226,"copyĠofĠtheĠ":6227,"ATE":6228,"ĠĠĠĠĠĠĠĠĠĠ'":6229,"ough":6230,"Ġ=ĠfunctionĠ()Ġ{":6231,"Ġ=Ġrequire('":6232,"187":6233,"expectedĠ":6234,"dup":6235,"import_":6236,"value)Ġ{":6237,"date_":6238,"escape":6239,"`,Ġ`":6240,"ĉĠĠ":6241,"mask_":6242,"relation":6243,"]['":6244,"var_":6245,"View\":":6246,"noi":6247,"match.":6248,"/*Ġ\"View.Memory":6249,"/*Ġ\"View.MemoryView\":":6250,"inlineĠ":6251,"#ĠĠ":6252,"jQuer":6253,"\"Ġheight=\"":6254,"...Ġ":6255,"id=":6256,"shift":6257,"maske":6258,"Matrix":6259,"[k":6260,"compres":6261,"linkĠrel=\"":6262,"Header":6263,"61":6264,"getĠtheĠ":6265,"lar":6266,"_name)":6267,"(data":6268,"SET":6269,"keras.":6270,"INT":6271,"iterator":6272,"',Ġtype=":6273,"accept":6274,"FIG":6275,"1.0,Ġ":6276,"prior":6277,"(c)Ġ":6278,"entry":6279,"0/":6280,"line-":6281,"_input_":6282,"_id,Ġ":6283,"force":6284,"name\":Ġ\"":6285,"one_":6286,"dictionaryĠ":6287,"ARB":6288,"freq":6289,"fromĠpy":6290,"s.\"\"\"":6291,"sync":6292,"314":6293,"e.g.Ġ":6294,"nav-":6295,":Ġstring":6296,"hold":6297,"grad_":6298,"results/":6299,"ĠĠĠĠĠĠĠĠĠĠĠĠĠĠĠĠ)":6300,"software":6301,"hover":6302,"_blank":6303,"fluid":6304,"apply(":6305,"sĠand":6306,"chain":6307,"again":6308,"ANDĠ":6309,"list,Ġ":6310,"2(":6311,"Dialog":6312,"\"},":6313,"s\",Ġ\"":6314,"storeĠ":6315,"Sto":6316,"_idx":6317,"\\n')":6318,"\\n\")":6319,"<h":6320,"bbox_":6321,"flush":6322,"NOTĠ":6323,"LU":6324,"dĠtoĠtheĠ":6325,"delay":6326,"toĠaĠ":6327,"mg":6328,"cluster":6329,"scriptor":6330,"PFN":6331,"bothĠ":6332,"Polic":6333,"null,Ġ":6334,"_RE":6335,"position:Ġ":6336,"public":6337,"threshold":6338,")Ġ?Ġ":6339,"Document":6340,"ĠĠĠĠĠĠĠĠp":6341,"de_":6342,"neigh":6343,"6,":6344,"context_":6345,"shin":6346,"GU":6347,"ĠĠĠĠ[":6348,"timeĠ=Ġ":6349,"segment":6350,")ĠinĠ":6351,"thisĠisĠ":6352,"__Ġ=Ġ":6353,"mix":6354,"ONG":6355,"tz":6356,"list.":6357,"ĠĠbackground-":6358,"output.":6359,"KIND,Ġ":6360,"printĠ'":6361,"QtWidget":6362,"name,":6363,"}\")":6364,"agree":6365,"er-":6366,"vĠinĠ":6367,"writing":6368,"havi":6369,"ĉ__":6370,"stic":6371,"repeat":6372,"Py_s":6373,"EST":6374,"png":6375,"unicode":6376,"find('":6377,"ĠĠĠĠĉa154":6378,"#ifĠ":6379,"ĠĠĠĠĉa175":6380,"goo":6381,"agent":6382,"availableĠ":6383,"token_":6384,":Ġ%s":6385,"Date.CultureInfo":6386,"Cap":6387,"Conv2":6388,"headerĠ":6389,"Promise":6390,"ĠĠ|":6391,"ĠĠĠĠĠĠĠĠĠĠĠĠĠ'":6392,"load(":6393,"SĠOFĠ":6394,"Device":6395,"frameĠ":6396,"La":6397,"ĠĠĠĠr":6398,"ĠĠĠĠĉa69":6399,"/Ġ(":6400,"php?":6401,"ndim":6402,"ationĠofĠ":6403,"prote":6404,"'][":6405,"Rule":6406,"[:,":6407,"ers":6408,"aboveĠ":6409,"marker":6410,"gover":6411,"Http":6412,"sorted(":6413,"stage":6414,"perform":6415,"correctĠ":6416,"Timeout":6417,"Status":6418,"anny":6419,"_CH":6420,"</em>":6421,"IFT":6422,"relu":6423,"return_":6424,"logic":6425,"RefN":6426,"165":6427,"DECREF(__pyx_t_":6428,"ĠĠĠĠĠĠĠĠifĠlen(":6429,"typeĠ==Ġ":6430,"(f'":6431,"app_":6432,"dĠbyĠtheĠ":6433,"a/":6434,"Sc":6435,"column_":6436,"IMP":6437,"simul":6438,"htmlĠ":6439,"s(),Ġ":6440,"Connection":6441,"plotĠ":6442,"square":6443,"used":6444,"cry":6445,"annotation":6446,"addr":6447,"spect":6448,"xture":6449,"Url":6450,"Expression":6451,"lĠ=Ġ":6452,"supportĠ":6453,"asyncĠdefĠ":6454,"ĠĠĠĠĠĠĠĠĠĠĠĠĠĠĠĠĠĠĠĠreturnĠ":6455,"Height":6456,"ĠĠĠĠĠĠĠĠ});":6457,"[1:":6458,"324":6459,"YouĠmayĠ":6460,"profile":6461,".join(":6462,"ĠĠĠĠĠĠĠĠ('":6463,"INTOĠ":6464,"gen_":6465,"licenses/":6466,"[4":6467,"commit":6468,"Handle":6469,"INSERTĠ":6470,"aĠnewĠ":6471,"XX":6472,"cycle":6473,"dir,Ġ":6474,"split(\"":6475,"cp":6476,"useĠtheĠ":6477,"uint32":6478,"b\"":6479,"Ġ=Ġos.path.join(":6480,"final_update":6481,"Pr":6482,"Âł":6483,"other.":6484,"search_":6485,"TIME":6486,"WH":6487,"GG":6488,"Resource":6489,"suit":6490,"watch":6491,"en_":6492,"bgcolor='#0000":6493,"dered":6494,"#!/usr/bin/":6495,"y,":6496,"EXP":6497,"35614":6498,"f0":6499,"Integer":6500,"459":6501,"Build":6502,"s();":6503,"548":6504,"set()":6505,"top_":6506,"License,Ġ":6507,"ä½":6508,"35614807":6509,"boxĠ":6510,"âĶĢâĶĢ":6511,"ousĠ":6512,"transaction":6513,"-1Ġ":6514,"cance":6515,"ĠĠĠĠĠĠĠĠt":6516,"RefNanny":6517,")?/":6518,"TimeĠ":6519,"ĠĠĠĠ__Pyx_":6520,"1):":6521,"i>":6522,"youĠmayĠ":6523,"Item(":6524,")Ġ#Ġ":6525,"take":6526,"ĠĠĠĠĠĠĠĠĠĠĠĠreturnĠself.":6527,")),Ġ":6528,"ç»":6529,"Stack":6530,"class=\"sig-":6531,"Parser.":6532,"toggle":6533,"come":6534,"body>":6535,"ipĠ":6536,"GET_":6537,"2),Ġ":6538,"Ġ==Ġ34":6539,"509":6540,"null)Ġ{":6541,"../_":6542,"autoĠ":6543,"Ġ=Ġ__webpack_require__(":6544,"random.rand":6545,"norm_":6546,"Langu":6547,"Dir":6548,"[self.":6549,"invent":6550,"table_":6551,"MD":6552,"ĠĠĠĠĠĠĠĠĠĠĠĠĠĠĠĠĠĠĠĠĠĠĠĠĠĠĠĠĠĠĠĠĠĠĠ":6553,"UTC":6554,"edit":6555,"flatten":6556,"bn":6557,"stro":6558,"OL":6559,"int)":6560,".org/licenses/":6561,"tionĠ":6562,"small":6563,"access_":6564,"text.":6565,"YouĠcanĠ":6566,"register_":6567,"ĠĠĠĠ<tdĠ":6568,"ĠĠĠĠĠWaitingPage.":6569,"max_length":6570,"[1])":6571,")Ġ:Ġ":6572,"h_":6573,"PĠ":6574,"Setting":6575,"keyĠinĠ":6576,"Speci":6577,"IX":6578,"compati":6579,"=0,Ġ":6580,"value=\"":6581,"ension":6582,"Current":6583,"sĠforĠtheĠ":6584,"3d":6585,"sci":6586,"s.Q":6587,"somethingĠ":6588,"calculate_output":6589,"PFNGL":6590,"ee":6591,"Ġ+Ġ\"":6592,"randomĠ":6593,"black":6594,"sĠ{":6595,"vec_":6596,"cs.":6597,"Unit":6598,"ĠĠĠĠĠĠĠĠforĠiĠinĠrange(":6599,"One":6600,"anotherĠ":6601,"NumberĠ=Ġ":6602,"mapĠ":6603,"\"Ġ>&nbsp;</td>":6604,"style=\"border-bottom:3pxĠsolidĠ#000000;\"Ġ>&nbsp;</td>":6605,"IfĠtheĠ":6606,"rest":6607,"game.":6608,"indexĠ":6609,"org.":6610,"(2,Ġ":6611,"checkpoint":6612,"acce":6613,"ĠĠĠĠ]":6614,"acity":6615,"lead":6616,"Buffer":6617,"ASS":6618,"Bin":6619,"Comple":6620,"(config":6621,");ĠifĠ(unlikely(!":6622,"cover":6623,"url)":6624,"responseĠ":6625,"CTYP":6626,"degree":6627,"frame_":6628,"flow.":6629,"argparse":6630,"definedĠ":6631,"engine":6632,"Wrap":6633,"charĠ":6634,"stim":6635,"VALUES":6636,"onĠanĠ":6637,"text)":6638,"ĠĠĠĠĠĠĠĠ],":6639,"ĠĠĠĠifĠ(!":6640,"clientĠ":6641,"withinĠ":6642,"sep":6643,"ĠĠĠĠĠĠĠĠĠĠĠĠ//Ġ":6644,"Sco":6645,"ĠĠĠĠĠĠĠĠthis.":6646,"s\"Ġ":6647,"è®":6648,"treeĠ":6649,"_batch":6650,"yĠimportĠ":6651,"destin":6652,"whetherĠ":6653,"histor":6654,"al-":6655,"staticĠ__":6656,"table.":6657,"180":6658,"Enable":6659,"atom":6660,"transpose":6661,"pyxb.utils.":6662,"textĠ=Ġ":6663,"resize":6664,"query.":6665,"utility.":6666,"signal":6667,"capt":6668,"Distribute":6669,"__main__':":6670,"refresh":6671,"Tree":6672,"ht_":6673,"relate":6674,"article":6675,"nes":6676,"s(self.":6677,"211":6678,"endpoint":6679,"744":6680,"F_":6681,"inline__":6682,"214":6683,"('utf-8":6684,"rout":6685,"String.":6686,"Train":6687,"lossĠ=Ġ":6688,",Ġself).__init__":6689,"file_path":6690,"n_s_":6691,"Attr":6692,"movie":6693,"typeĠ=Ġ":6694,"dialog":6695,"yte":6696,"Iterator":6697,"\"Ġtarget=\"":6698,"two":6699,"block_":6700,"*args,Ġ**kwargs):":6701,"showĠ":6702,"ĠĠĠĠc":6703,")Ġ->ĠNone:":6704,"Ġ=Ġ''":6705,"</dt>":6706,"3f":6707,"\"ASĠIS\"Ġ":6708,"pa.":6709,"custom_":6710,"ster_":6711,"matplotlib.":6712,"600":6713,"ĠĠĠĠĉa115":6714,".png\"Ġwidth=\"":6715,"INSERTĠINTOĠ":6716,"android:":6717,"#includeĠ<":6718,"2d":6719,"PH":6720,"Met":6721,"html_":6722,"License,ĠVersionĠ":6723,"_SHIFT":6724,"316":6725,"passe":6726,">>Ġ":6727,"Location(":6728,"ANYĠKIND,Ġ":6729,"antĠ":6730,"param_":6731,"colorĠ":6732,"GOTREF(__pyx_t_":6733,"Error('":6734,"hasattr(":6735,"tryĠ{":6736,"ĠĠĠĠĉa137":6737,"rid":6738,"wra":6739,":Ġstr,Ġ":6740,"Runtime":6741,"\"lib/python3.7/site-packages/":6742,"ĉĉĉ//Ġ":6743,"logger.debug":6744,"observ":6745,"s/flag":6746,"Classifi":6747,"mapping":6748,"install":6749,"i,":6750,"QtWidgets.Q":6751,"wd":6752,");Ġ\\":6753,"7Ġ":6754,"candi":6755,"ĠĠĠĠpublicĠ":6756,"initial_":6757,"9.":6758,"v8::":6759,"layerĠ":6760,"pytest.raises(":6761,"ench":6762,"handleĠ":6763,".\")":6764,"br>":6765,"1:Ġ":6766,"s[0].":6767,"ĠĠĠĠ$":6768,"simil":6769,"interface":6770,"ApacheĠLicense,ĠVersionĠ":6771,"asynci":6772,"receive":6773,"binding.":6774,"\\r":6775,"\":\"":6776,"padding-":6777,"ApacheĠLicense,ĠVersionĠ2.0":6778,"chat":6779,"sf":6780,"ĠĠĠĠĉa164":6781,"decl":6782,"ĠĠĠĠ<aĠclass=\"referenceĠinternal\"Ġhref=\"alfred3_interact.page.WaitingPage.":6783,"m)":6784,"ater":6785,"regular":6786,"ed,Ġ":6787,"PROC":6788,"ĠĠĠĠĠĠĠĠ[":6789,"ĠĠĠĠĠĠĠĠsuper().__init__":6790,"__init__(self,Ġ":6791,"-2.0":6792,"</font":6793,"diag":6794,"__b":6795,"/shin":6796,"incre":6797,"saveĠ":6798,"ĠĠĠĠĠĠĠĠ\"\"\"Return":6799,"2f":6800,"OUT":6801,"Regex":6802,"\"Ġtarget=\"_blank":6803,"Date}":6804,"filter_":6805,"/X":6806,"Stru":6807,"session.":6808,"6)":6809,"\"Ġdata-order=\"":6810,"Serie":6811,"ifĠ__name__Ġ==Ġ'":6812,"x,":6813,"True(":6814,"s=['":6815,"s-iso":6816,"ĠĠĠĠĉa214":6817,"/shiny/":6818,"stre":6819,"ĠĠĠĠĠĠĠĠĠĠĠĠĠĠĠĠ<tdĠclass=\"col-desktop":6820,"flags/flag":6821,"<imgĠsrc=\"flags/flag":6822,"s-iso/shiny/":6823,"ĠĠĠĠĠĠĠĠĠĠĠĠĠĠĠĠ<tdĠclass=\"col-desktop\">":6824,"<imgĠsrc=\"flags/flags-iso/shiny/":6825,"indent":6826,"ĠĠĠĠĠĠĠĠĠĠĠĠĠĠĠĠifĠ(":6827,"ĠĠĠĠĠĠ<":6828,"dag":6829,"âĸĪ":6830,"select_":6831,"job_":6832,"Mix":6833,"tour":6834,"2-":6835,".html#":6836,"CTION":6837,"pyxb.utils.utility.":6838,"outĠ=Ġ":6839,"DEBU":6840,"/vc":6841,"embe":6842,"run(":6843,"åĬ":6844,"choi":6845,"manage":6846,"\\d+":6847,"rn":6848,"</dd>":6849,"åŃ":6850,"params['":6851,"vertical":6852,"ĠĠĠĠprint(":6853,"CONDITION":6854,"inver":6855,"display_":6856,"aria-":6857,"__p0,Ġ":6858,"TestCase):":6859,"calculate_outputm":6860,"role=\"":6861,"middle":6862,"ĉdefĠ":6863,"dum":6864,"ifĠ__name__Ġ==Ġ'__main__':":6865,"ĠĠĠĠĉa39":6866,"Operator":6867,"func_":6868,"s.append":6869,"</font>":6870,"267":6871,")ĠorĠ":6872,"dm":6873,"Seri":6874,"worker":6875,"|Ġ(":6876,"language=":6877,";Ġ//Ġ":6878,"exclude":6879,"Ð¾Ð":6880,"Menu":6881,"maxĠ":6882,"xl":6883,"lawĠ":6884,"exp_":6885,"_by_":6886,"(self,":6887,"199":6888,"constructor":6889,"32,Ġ":6890,"2Ġ+Ġ":6891,"Random":6892,"325":6893,"occur":6894,"Ph":6895,"promise":6896,"stedĠ":6897,"[^":6898,"name:Ġ":6899,"}ĠĠĠ":6900,"comb":6901,"register":6902,"string.":6903,"problemĠ":6904,"R_":6905,"apache.org/licenses/":6906,"Tit":6907,"overĠ":6908,"None):":6909,"194":6910,"ongĠ":6911,"apache.org/licenses/LICENSE":6912,"USE_":6913,"fu":6914,"Order":6915,"requiredĠbyĠ":6916,"decoder_":6917,"fetch":6918,"'+":6919,"{},Ġ":6920,"master":6921,"node,Ġ":6922,"sure":6923,"çĶ¨":6924,"bbox":6925,"ĠĠĠĠwhileĠ":6926,"notification":6927,"queĠ":6928,"INFO":6929,"ĠĠĠĠĠĠĠĠprint('":6930,"catchĠ(":6931,"Pla":6932,"actual":6933,"Child":6934,"s}":6935,"mouse":6936,"name):":6937,":Ġfunction(":6938,"INGĠ":6939,"applicableĠ":6940,"zip(":6941,"Dro":6942,"[-":6943,"CA":6944,"andĠnotĠ":6945,"submit":6946,"Ġ=Ġ$":6947,"ĠĠĠĠ/**":6948,"bra":6949,"PyLong_SHIFT":6950,"159":6951,"player":6952,"ctypes.":6953,"asci":6954,"configurationĠ":6955,"time.time()":6956,"ĠĠĠĠĠĠĠĠ{":6957,"anded":6958,"c:":6959,"ĠĠĠĠĠĠĠĠ\"\"\"Ġ":6960,"(in":6961,"2016":6962,"authenti":6963,"%.":6964,"=ĠĠ":6965,"1024":6966,"s::":6967,"isĠdistributedĠ":6968,"topic":6969,"deleteĠ":6970,"env.":6971,"notĠuseĠthisĠ":6972,"shape[0]":6973,"Ġ&&Ġ":6974,"http://www.apache.org/licenses/LICENSE":6975,"Whe":6976,"_v":6977,"secret":6978,"Del":6979,"Fini":6980,".read":6981,"ILIT":6982,"(?:":6983,"\"Ġtarget=\"_blank\">":6984,"ds.":6985,"exceptĠinĠ":6986,"_H":6987,"cture":6988,"0,Ġ\"":6989,"AUTH":6990,"qa":6991,"alwaysĠ":6992,"autom":6993,"UnlessĠ":6994,"obtainĠaĠ":6995,"Cell":6996,"NoteĠ":6997,"AND":6998,"ĠfileĠ":6999,"ĠĠĠĠĠĠĠĠĠĠĠĠĠĠĠĠĠĠĠĠĠĠĠĠ\"":7000,"eas":7001,"ĉĉ};":7002,"'Ġ/>":7003,"control.":7004,"sive":7005,"d\":":7006,"ĠĠ=Ġ":7007,"<aĠhref=\"https://www.":7008,"3/":7009,"ĠĠĠĠprint('":7010,"Ġ=Ġ14;":7011,"332":7012,"box.":7013,"start,Ġ":7014,"context.get":7015,"systemĠ":7016,"scale_":7017,"112":7018,"floor":7019,"module,Ġ":7020,"#ĠTheĠ":7021,"Include":7022,"dispatch":7023,"customĠ":7024,"1>":7025,"itu":7026,"notebook":7027,"graph_":7028,"BASIS":7029,"COL":7030,"aro":7031,"operation":7032,"ORĠCONDITION":7033,"form.":7034,"Raises(":7035,"',Ġu'":7036,"model(":7037,"ĠĠĠĠĉa34":7038,"fileĠexceptĠinĠ":7039,"WARRANTIESĠORĠCONDITION":7040,"staticĠ__inline__":7041,"fileĠexceptĠinĠcompli":7042,"s_per_":7043,"sub_":7044,"8x16":7045,"validate_":7046,"\"][\"":7047,"call_":7048,"return;":7049,"ĠĠ\"\"\"":7050,"providedĠ":7051,"ĠĠĠĠĠĠĠĠĠĠĠĠĠĠĠĠĠĠ</td>":7052,"eitherĠexpres":7053,"languageĠgover":7054,"è¡":7055,"ĠÐ":7056,"sĠorĠimpli":7057,"project_":7058,"Full":7059,"\\2\\2\\u0":7060,"tupleĠ":7061,"serverĠ":7062,"___":7063,"me.":7064,"{:":7065,"ĠĠ/**":7066,"sym":7067,"ĠĠ};":7068,"possibleĠ":7069,"PS":7070,"erĠtoĠ":7071,"can'tĠ":7072,"ĠĠĠĠĠĠĠĠh":7073,"negative":7074,"country":7075,"languageĠgoverningĠ":7076,"UĠ":7077,"rgb":7078,"ĠĠĠĠĉa200":7079,"createdĠ":7080,"Minute":7081,"816":7082,"ĠĠĠĠĠĠĠĠc":7083,"t-":7084,"importĠtime":7085,"es,Ġ":7086,"ĠĠĠĠ<div":7087,"2d(":7088,"rendere":7089,"WARRANTIESĠORĠCONDITIONSĠOFĠ":7090,"VIC":7091,"ĠĠĠĠĉa213":7092,"notĠuseĠthisĠfileĠexceptĠinĠcompli":7093,"='0'Ġ":7094,"distributedĠunderĠtheĠ":7095,"episo":7096,"Left":7097,"code,Ġ":7098,"Ġ=Ġfunction(":7099,"true);":7100,"':Ġ0,Ġ'":7101,"document.":7102,"LicensedĠunderĠtheĠ":7103,"InvalidĠ":7104,"ĠĠĠĠĠĠĠĠĠĠĠĠĠĠĠĠĠĠĠĠĠĠĠĠĠĠĠĠĠĠĠĠĠĠĠĠĠĠĠĠĠĠĠĠĠĠĠĠĠĠĠĠĠĠĠĠĠĠĠĠĠĠĠĠ":7105,"pyxb.binding.":7106,"Bod":7107,"strip()":7108,"100%":7109,"metaĠ":7110,"0),Ġ":7111,"]*":7112,"\"ASĠIS\"ĠBASIS":7113,"languageĠgoverningĠpermission":7114,"class='":7115,"æĪ":7116,"Target":7117,"864":7118,"LINE":7119,"0Ġ0Ġ":7120,"filenameĠ=Ġ":7121,"tm":7122,"556":7123,"ency":7124,"text,Ġ":7125,"icon-":7126,"data(":7127,"bile":7128,"smo":7129,"te_":7130,"doc.":7131,"2020":7132,"maj":7133,"expand":7134,"16;":7135,"keyĠ=Ġ":7136,"unknown":7137,"containsĠ":7138,"Director":7139,"fast":7140,"(intĠ":7141,"behavi":7142,"group_":7143,"inedĠ":7144,"eitherĠexpressĠorĠimpli":7145,"tit":7146,"2019":7147,"sity":7148,"Ġ=Ġself.get_":7149,"dĠtoĠinĠ":7150,"area":7151,"per.":7152,"placeholder":7153,"kin":7154,"http://www.apache.org/licenses/LICENSE-2.0":7155,".i":7156,"2Ġ=Ġ33Ġ;":7157,"May":7158,"ĠĠĠĠĉĠ":7159,"top:Ġ":7160,"specificĠlanguageĠgoverningĠpermission":7161,"ped":7162,"blank":7163,"dy":7164,"emit":7165,"ĠĠĠĠĠĠ'":7166,"copyĠofĠtheĠLicenseĠ":7167,"pur":7168,",Ġ__pyx_":7169,"ĠĠĠĠĠĠĠĠĠĠĠĠre":7170,"Ġ=Ġnp.zeros(":7171,"orĠagree":7172,"module.export":7173,"requiredĠbyĠapplicableĠ":7174,"ĠĠĠ*Ġ@":7175,"namespaceĠ":7176,"dĠtoĠinĠwriting":7177,"oprot.write":7178,"requiredĠbyĠapplicableĠlawĠ":7179,"p)":7180,",Ġn":7181,"warn":7182,"none;":7183,"pyxb.utils.utility.Location(":7184,"orĠagreedĠtoĠinĠwriting":7185,"UnlessĠrequiredĠbyĠapplicableĠlawĠ":7186,"inher":7187,"License\");":7188,"\"Ġ+Ġstr(":7189,"UnlessĠrequiredĠbyĠapplicableĠlawĠorĠagreedĠtoĠinĠwriting":7190,"avo":7191,"73":7192,"SoĠ":7193,"suffix":7194,"asset":7195,"sal":7196,"box-":7197,"s.get(":7198,"evenĠ":7199,"may":7200,"ga":7201,"root_":7202,"dfĠ=Ġ":7203,"TS":7204,"NPY":7205,"noti":7206,"3333":7207,"underĠtheĠLicense.":7208,"<codeĠlanguage=":7209,"åĽ":7210,"proj":7211,"Ġ=Ġtrue;":7212,"onem2":7213,"æĹ":7214,"ĠĠĠĠĠĠĠĠn":7215,"ĠĠĠĠĠĠĠĠArgs:":7216,"distributedĠunderĠtheĠLicenseĠ":7217,"Deta":7218,"Declar":7219,"ĠĠĠĠĠĠĠĠ<spanĠclass=\"":7220,"(((":7221,"\\3\\2\\2\\2":7222,"th>":7223,"distributedĠunderĠtheĠLicenseĠisĠdistributedĠ":7224,"ĠĠĠĠdefĠset":7225,"_nameĠ=Ġ":7226,"ApacheĠLicense,ĠVersionĠ2.0Ġ(":7227,"there":7228,"2>":7229,"7,":7230,"association.":7231,"[i].":7232,"Hash":7233,"ĠĠ__Pyx_RefNanny":7234,"tity":7235,"outputĠ=Ġ":7236,"Mil":7237,"tryingĠtoĠ":7238,"dynam":7239,"ani":7240,"528":7241,"694":7242,"processor":7243,"Lower":7244,"dn":7245,"bot.":7246,"classĠTest":7247,"program":7248,"regex":7249,"lish":7250,"parent.":7251,"SOF":7252,"estimat":7253,">(":7254,"PL":7255,"\"}":7256,"copyĠofĠtheĠLicenseĠat":7257,"ĠĠĠĠdefĠget":7258,".ĠItĠ":7259,"ng-":7260,"all(":7261,"net.":7262,"Extra":7263,"s)Ġ==Ġ":7264,"takeĠ":7265,"properties.Schema":7266,"google":7267,"feed":7268,"DE_":7269,"disabled":7270,"Ġ\\":7271,"********************************":7272,")Ġ]))":7273,"laun":7274,"ĠĠĠĠf":7275,"[0-9":7276,"ĠĠĠĠĉa88":7277,"viaĠ":7278,":Ġ|Ġ:":7279,"\"Ġ:Ġ\"":7280,"ISO":7281,"colĠalign='":7282,"selected":7283,"mightĠ":7284,"Provid":7285,"tĠ==Ġ":7286,"\":Ġ[":7287,"/***/Ġ":7288,"',ĠfunctionĠ(":7289,"forĠiĠinĠrange(":7290,"lengthĠ":7291,"MB":7292,"'Ġ+Ġstr(":7293,"trajector":7294,"javascript":7295,"SeeĠtheĠLicenseĠ":7296,"extra_":7297,"bucket":7298,"Enum":7299,"s2":7300,"REG":7301,"?:Ġ":7302,"3,Ġ2,Ġ1,Ġ":7303,"stillĠ":7304,"configure":7305,"plain":7306,"worldcube":7307,"WITHOUTĠWARRANTIESĠORĠCONDITIONSĠOFĠ":7308,"association.org/":7309,"worldcubeassociation.org/":7310,"<aĠhref=\"https://www.worldcubeassociation.org/":7311,"ĠĠĠĠĠĠĠĠĠĠĠĠ_":7312,"intern":7313,"signature":7314,"Chat.":7315,"$$":7316,"gle":7317,"ratio":7318,"p.php?":7319,"Bas":7320,"iteĠ":7321,"key)":7322,"callyĠ":7323,"pli":7324,"<aĠhref=\"https://www.worldcubeassociation.org/results/":7325,"Each":7326,"g,Ġ":7327,"activeĠ":7328,",ĠorĠ":7329,"sphin":7330,"p.php?i=":7331,"<aĠhref=\"https://www.worldcubeassociation.org/results/p.php?i=":7332,"237":7333,"fake":7334,"8,":7335,"Dict[":7336,"moz":7337,"byĠtheĠ":7338,"5_":7339,"sampleĠ":7340,"YouĠmayĠobtainĠaĠ":7341,"prev_":7342,"1),":7343,"getattr(":7344,"letter":7345,"ovldĠ__cnfnĠconvert_":7346,"HowĠ":7347,"ral":7348,"ĠĠ__pyx_t_":7349,",ĠsoĠ":7350,"main.":7351,"pre>":7352,"pen":7353,"value:Ġ":7354,"{%Ġend":7355,"Game":7356,"------":7357,"manyĠ":7358,"famil":7359,"runningĠ":7360,"inputĠtype=\"":7361,"problem":7362,"table>":7363,"ĠĠĠĠĉa8":7364,"ĠĠĠĠĉa49":7365,".*":7366,"FLAGS.":7367,"integerĠ":7368,"s_dict":7369,"ĠĠĠ*/":7370,"start.":7371,"Date.today":7372,"ĠĠĠĠĠMatchMakerActivation.":7373,"ĠĠĠĠĠMatchMakerMonitoring.":7374,"organ":7375,"youĠmayĠnotĠuseĠthisĠfileĠexceptĠinĠcompli":7376,"364":7377,"cus":7378,"thoseĠ":7379,"learning_":7380,"_ATTR":7381,"a7":7382,"packet":7383,"mean(":7384,"Ġ&&Ġa":7385,"key.":7386,"repo":7387,"249":7388,"CRE":7389,"types.":7390,"_e":7391,"experiment":7392,"5Ġ=Ġ33Ġ;":7393,"spr":7394,"UT_":7395,"[i]Ġ=Ġ":7396,"CYTHON_":7397,"valĠ=Ġ":7398,"ĉĉĉ};":7399,"era":7400,"simpleĠ":7401,"PyObject":7402,"format('":7403,"ä¸Ģ":7404,"able_":7405,"doĠnotĠ":7406,"speed":7407,"epsi":7408,"FileĠ":7409,"åº":7410,"sz":7411,"TEXT":7412,"ĠĠĠĠ..Ġ":7413,"ifĠyouĠ":7414,"0ĠandĠ":7415,"Pass":7416,"YouĠmayĠobtainĠaĠcopyĠofĠtheĠLicenseĠat":7417,"peĠ":7418,"_idĠ=Ġ":7419,"ĠĠ__pyx_":7420,"ĠĠĠĠThisĠ":7421,"scriptĠsrc=\"":7422,"no-":7423,"test('":7424,"allowe":7425,"answer":7426,"{0}":7427,"\":Ġ{":7428,"Progres":7429,"âķ":7430,"value_":7431,"100,Ġ":7432,"relativeĠ":7433,"openĠ":7434,"ST\":1,\"":7435,"json_":7436,"navbar-":7437,"bf":7438,"ing-":7439,"training_":7440,"669":7441,"1ĉ":7442,"product_":7443,"5);":7444,"AGE_":7445,"Tot":7446,",Ġy_":7447,"()Ġ-Ġ":7448,"-1;":7449,"ĠonĠ":7450,"ĠĠĠĠ-------":7451,")ĠifĠ":7452,")).":7453,"attle":7454,"content.":7455,"Sing":7456,"Namespace":7457,"rec":7458,")Ġ+Ġ'":7459,"Invalid":7460,"matrixĠ":7461,"ĠĠĠĠĠĠĠĠĠĠĠĠĠĠĠĠself._":7462,"const":7463,"map.":7464,"\"Ġhref=\"#":7465,"Ġ==Ġ0:":7466,"WN":7467,"Error,Ġ":7468,"))Ġ&&Ġa":7469,"gestion":7470,"-=Ġ":7471,"ĠĠĠĠĠ*/":7472,"match(":7473,"Depre":7474,"s),":7475,"LE_EN":7476,"access":7477,"Ob":7478,"ĠĠĠĠ</":7479,"_id)":7480,"(h":7481,"d:Ġ":7482,"################################################################":7483,"subscription":7484,"_PRO":7485,"gue":7486,"__Ġ(":7487,"parse(":7488,"ĠĠĠĠĠĠĠĠĠĠĠĠprint(\"":7489,"&&ĠĠ":7490,"produce":7491,"NL":7492,"Queue":7493,"]Ġ+Ġ":7494,"ly.":7495,"326":7496,";Ġ__pyx_":7497,"delete_":7498,"[0],":7499,"pd":7500,"iĠ__":7501,"15,Ġ":7502,"</span><spanĠclass=\"n\">":7503,".__":7504,"ical":7505,"Chan":7506,"publish":7507,".')":7508,"team":7509,"fileĠ=Ġ":7510,"<fontĠ":7511,"remain":7512,"trafficd":7513,"10,":7514,"aj":7515,"logĠ":7516,"os.path.exists(":7517,"Ø§":7518,"appe":7519,"json.dump":7520,"frequ":7521,"ĠĠĠĠt":7522,"#!/usr/bin/envĠ":7523,"float64":7524,"m;":7525,"kedĠ":7526,"=1)":7527,"log('":7528,"veryĠ":7529,"9999":7530,"args):":7531,"__builtin_shufflevector(__":7532,"color='#":7533,"e)Ġ{":7534,"s,Ġself.":7535,"os.environ":7536,"1,ĠĠ":7537,"transpa":7538,")</a>":7539,"elseĠ{":7540,"onĠanĠ\"ASĠIS\"ĠBASIS":7541,"ON_":7542,"U+":7543,"slo":7544,"l>":7545,"report":7546,"contrib.":7547,"brevi":7548,"Spa":7549,"AL_":7550,"255,Ġ255,Ġ":7551,"libcity.data.":7552,"EF":7553,"DEL":7554,"inn":7555,"ĠĠĠĠimportĠ":7556,"Bit":7557,"ĠĠĠĠĠĠĠĠ(\"":7558,"\\w":7559,"limitationsĠ":7560,"deprecate":7561,");ĠifĠ(unlikely(!__pyx_t_":7562,"ularĠ":7563,"VALUESĠ(":7564,"\"ĠtoĠ":7565,"lineĠinĠ":7566,"secur":7567,"<dtĠ":7568,"compar":7569,"thereĠisĠ":7570,"er:":7571,"ĠĠĠĠĠĠĠĠĠĠĠĠĠĠĠĠĠĠĠĠĠĠĠĠĠĠĠĠĠĠĠĠĠĠĠĠĠ":7572,"anceĠwithĠtheĠ":7573,"ĠĠĠĠĠĠĠĠĠĠĠĠĠĠĠĠĠĠĠĠĠĠĠĠĠĠĠĠĠĠĠĠĠĠĠĠĠĠĠĠĠĠĠĠ":7574,"recor":7575,"ĠĠĠĠ<aĠclass=\"referenceĠinternal\"Ġhref=\"alfred3_interact.page.MatchMakerActivation.":7576,"ĠĠĠĠ<aĠclass=\"referenceĠinternal\"Ġhref=\"alfred3_interact.page.MatchMakerMonitoring.":7577,"Compo":7578,"instanceofĠ":7579,"positive":7580,"enceĠ":7581,")Ġ__":7582,"path):":7583,"-1.":7584,"ĉĉifĠ":7585,"Detail":7586,"string,Ġ":7587,"?|":7588,"ary.":7589,"0],":7590,"attn_":7591,"theĠ\"License\");":7592,"childĠ":7593,"ĠĠĠĠReturns":7594,"ĉreturnĠ":7595,"UnlessĠrequiredĠbyĠapplicableĠlawĠorĠagreedĠtoĠinĠwriting,Ġ":7596,"s=\"":7597,"Collection":7598,"ĠĠĠĠĠĠĠĠbuf.write(":7599,"0.00":7600,"SV":7601,")Ġ<Ġ":7602,"ĠĠĠĠĠĠĠĠĠĠĠĠĠĠĠĠĠĠĠĠĠĠĠĠ'":7603,"embed_":7604,"file:":7605,"169":7606,"fragment":7607,"cut":7608,"ANYĠKIND,ĠeitherĠexpressĠorĠimpli":7609,"interfaceĠ":7610,"</font></td>":7611,"Ġ%Ġ":7612,"tion_":7613,"requi":7614,"UnlessĠrequiredĠbyĠapplicableĠlawĠorĠagreedĠtoĠinĠwriting,Ġsoftware":7615,"contextĠ":7616,"socket.":7617,"ival":7618,"numpy/":7619,"æł":7620,"whenĠtheĠ":7621,"iĠclass=\"":7622,"808":7623,"Quest":7624,"tb":7625,"ISĠ":7626,"Custom":7627,"setĠtoĠ":7628,"executor":7629,"ĠĠĠĠĠĠĠĠbuf.write(u\"":7630,"ĠĠĠĠĠĠĠĠself.__":7631,"Flag":7632,":ĠOptional[":7633,"args[0]":7634,"[])":7635,"fold":7636,"@pytest.mark.":7637,"single":7638,"=>":7639,"vectorĠunsignedĠ":7640,"s.html\">":7641,"best":7642,"213":7643,"beam":7644,"lengthĠ=Ġ":7645,"forĠtheĠspecificĠlanguageĠgoverningĠpermission":7646,"-v":7647,"intoĠaĠ":7648,"set.":7649,"size_":7650,"imdb":7651,"ine_":7652,"ĠĠĠĠn":7653,"uri":7654,"LicensedĠunderĠtheĠApacheĠLicense,ĠVersionĠ2.0Ġ(":7655,"gon":7656,"hidden_":7657,"ĉĉĉĉĉ}":7658,"Statu":7659,"Ġ<":7660,"person":7661,"2Ġ-Ġ":7662,"ĠĠĠĠĠĠĠĠĠĠĠĠwithĠ":7663,"op_":7664,"Mask":7665,"comput":7666,"calend":7667,"DefaultĠ":7668,"combin":7669,"318":7670,"ĉ/*Ġ":7671,"write('":7672,"server.":7673,"spacing":7674,"dimĠ":7675,"ĠĠĠĠĠĠĠĠĠĠĠĠĠĠĠĠĠĠĠĠĠĠĠĠĠĠĠĠĠĠĠĠĠĠĠĠĠĠ":7676,"stream.":7677,"horizont":7678,"interpol":7679,"NF":7680,"ĠĠĠĠĠĠĠĠ]":7681,"score_":7682,"traceback":7683,"r\"":7684,"size)":7685,"ctu":7686,"Anim":7687,"deca":7688,"propos":7689,"ThereĠ":7690,"ĠĠthis.":7691,"(v":7692,"357":7693,"gĠ=Ġ":7694,"First":7695,"(obj":7696,"Product":7697,"2011":7698,"``.":7699,"\\'":7700,"es.":7701,"Name(\"":7702,"opt.":7703,"attach":7704,",Ġ{":7705,"arrayĠofĠ":7706,"!==Ġ\"":7707,"json.load":7708,"cf==1Ġ":7709,"=\"\"":7710,"Parallel":7711,"&&ĠĠcf==1Ġ":7712,"length,Ġ":7713,"distributedĠunderĠtheĠLicenseĠisĠdistributedĠonĠanĠ\"ASĠIS\"ĠBASIS":7714,"8Ġ=Ġ33Ġ;":7715,"ĠĠĠĠ<tdĠstyle=\"border-bottom:3pxĠsolidĠ#000000;\"Ġ>&nbsp;</td>":7716,"AF":7717,"Ġ||Ġ":7718,"allclose":7719,"ĠĠĠĠĉa94":7720,"arange(":7721,"expect":7722,"ft_":7723,"ĠĠintĠ":7724,"passedĠ":7725,"text(":7726,"ĠĠĠĠĠĠĠĠĠĠĠĠ[":7727,"s,Ġ'":7728,"port_":7729,"page_":7730,"stylesheet":7731,"sĠlikeĠ":7732,"file=":7733,"cf==1ĠĠ":7734,"Conv":7735,"ĠĠĠĠĠĠĠĠĠĠĠĠĠĠĠĠĠĠĠĠ}":7736,"ĠĠĠĠĠĠĠĠprint(":7737,"contra":7738,"btnĠ":7739,"usage":7740,"ĉĉĉĉvarĠ":7741,"ĠĠĠĠ#ĠĠĠĠĠ":7742,"2014":7743,"static_":7744,"ĠĠĠĠ\"\"\"Ġ":7745,"ero":7746,"sĠ||Ġ":7747,"}/${":7748,"contour":7749,"cha":7750,"ĠĠĠĠArgs:":7751,"System.":7752,"Sk":7753,".replace('":7754,"ssi":7755,":ĠtheĠ":7756,"olution":7757,"ButĠ":7758,"whichĠisĠ":7759,"ĉĉĉĉthis.":7760,"message_":7761,"Cor":7762,"DU":7763,"arie":7764,"element_":7765,"turn":7766,"LINEĠ":7767,".from_":7768,"average":7769,"ĠĠĠĠax":7770,"schedule":7771,"to(":7772,"Channel":7773,"insideĠ":7774,"dĠandĠ":7775,"*Ġ(":7776,"Ġ=Ġnn.":7777,"Record":7778,"hidden_size":7779,"reason":7780,"\\2\\2\\u":7781,"obje":7782,"if_":7783,"typen":7784,"SM":7785,"Host":7786,"model_name":7787,"sys.argv":7788,"copy()":7789,"UI":7790,"n)":7791,"filesĠ":7792,"H_":7793,"tilĠ":7794,"fixture":7795,"adj":7796,"attention_":7797,"\"><spanĠclass=\"pre\">":7798,"Ag":7799,"Af":7800,"fmt":7801,"&&Ġthis.":7802,"led":7803,".b":7804,"cessor":7805,"ui-":7806,"1).":7807,"Sum":7808,"beforeĠ{":7809,"limitationsĠunderĠtheĠLicense.":7810,"960":7811,"IDE":7812,"layer.":7813,"ĉĉĉĉĉ//Ġ":7814,"ra,Ġ":7815,"ĠĠĠĠĠĠĠĠReturns:":7816,"Distributed":7817,"step_":7818,"ĠĠĠĠĠĠĠĠĠĠ}":7819,"displayĠ":7820,"457":7821,"ET":7822,"sume":7823,"alance":7824,"levelĠ":7825,"ĠĠĠĠĠĠĠĠresult":7826,"dot":7827,"æį®":7828,"orĠ\"":7829,"':'":7830,"perm":7831,"right:Ġ":7832,"kind":7833,"v4":7834,"stepĠ":7835,"Delete":7836,"fy":7837,"optimizer":7838,"Ġ=Ġ(a":7839,"forĠeachĠ":7840,"projectĠ":7841,"actĠ":7842,"ĠĠĠĠĉa60":7843,"call(this,Ġ":7844,"540":7845,"s=None,":7846,"LicensedĠunderĠtheĠApacheĠLicense,ĠVersionĠ2.0Ġ(theĠ\"License\");":7847,"UL)Ġ":7848,"ddd":7849,"El":7850,"246":7851,"DEBUG":7852,"S,Ġ":7853,"ĠĠĠĠĠĠĠĠifĠself._":7854,"ĠĠĠĠĠĠĠĠm":7855,"er()":7856,"Ġ.":7857,"False,":7858,"extend(":7859,"ĠĠĠĠĠĠĠĠ$":7860,"html>":7861,"Plug":7862,"UL)Ġ/*!<Ġ":7863,"Process":7864,"/usr/include":7865,"SĠ=Ġ":7866,"TWARE":7867,"OTHER":7868,"\"Ġname=\"":7869,"ĉĉĉĉ//Ġ":7870,"ĠĠĠĠĠĠĠĠĠĠĠĠĠĠĠĠĠ'":7871,"clou":7872,"flask":7873,"2Ġ=Ġ32Ġ;":7874,"solve":7875,"lambdaĠx:Ġ":7876,"opts.":7877,"SeeĠtheĠLicenseĠforĠtheĠspecificĠlanguageĠgoverningĠpermission":7878,"coeff":7879,"_byte":7880,"entity":7881,"_X_":7882,"helpĠ":7883,"time.sleep":7884,"achĠ":7885,"2}":7886,"msg.":7887,"sĠ=ĠfunctionĠ(":7888,"[0]Ġ=Ġ":7889,"strap":7890,"'ĠandĠ":7891,"True,":7892,"match_":7893,"ĠĠĠĠforĠiĠinĠrange(":7894,"titleĠ":7895,"049":7896,"229":7897,"data=":7898,"Font":7899,"LIT":7900,"ĠĠ#defineĠ":7901,"aĠlistĠofĠ":7902,"0x0":7903,"Title":7904,"SeeĠtheĠLicenseĠforĠtheĠspecificĠlanguageĠgoverningĠpermissionsĠand":7905,"ATCH":7906,"e)":7907,"forme":7908,"G.":7909,"original":7910,"gap":7911,"repl":7912,"ANYĠKIND,ĠeitherĠexpressĠorĠimplied.":7913,"otherwiseĠ":7914,"col_":7915,"ĠĠĠĠparser.add_argument('--":7916,");Ġ__pyx_t_":7917,"WITHOUTĠWARRANTIESĠORĠCONDITIONSĠOFĠANYĠKIND,ĠeitherĠexpressĠorĠimplied.":7918,":0":7919,"LIST":7920,"<emĠ":7921,"ĠĠĠĠ</div>":7922,"importĠjson":7923,"640":7924,"SOFTWARE":7925,"ationĠofĠtheĠ":7926,"circle":7927,"percent":7928,"appen":7929,"type)":7930,"staticĠPyObjectĠ*__pyx_":7931,"ĠĠĠĠĉa33":7932,"ĠĠĠĠĠĠĠĠĠĠĠĠĠĠĠĠcontinue":7933,"Cho":7934,"automati":7935,"anceĠwithĠtheĠLicense.":7936,"d/":7937,"lint":7938,"ulĠclass=\"":7939,"XML":7940,"Weight":7941,"parameterĠ":7942,"ABILIT":7943,"paddle.":7944,"distributedĠunderĠtheĠLicenseĠisĠdistributedĠonĠanĠ\"ASĠIS\"ĠBASIS,":7945,"ĠĠĠĠĠĠĠĠb":7946,".px":7947,"Description":7948,"sidu":7949,"295":7950,"âĢĵ":7951,">Ġ0:":7952,"auth_":7953,"probabili":7954,"TL":7955,"3D":7956,"spath":7957,"allowed":7958,"Dat":7959,":ĠH":7960,"0.9":7961,"1.Ġ":7962,"gz":7963,"modif":7964,"ĠĠĠ*Ġ**":7965,"trun":7966,"-group":7967,"Dim":7968,"stateĠ=Ġ":7969,"Display":7970,"input_shape":7971,"Required":7972,"ĠĠĠĠĠĠĠĠreturnĠ'":7973,"dim,Ġ":7974,"ĠĠĠĠĠĠĠĠĠĠĠĠĠĠĠĠelifĠ":7975,"FILE":7976,"----------":7977,"0,0,0,0,":7978,"act_":7979,"Identifi":7980,"iou":7981,"class=\"field-":7982,"16x":7983,"basic":7984,"\\s*":7985,"Ġì":7986,"ĉ__u":7987,"**:Ġ`":7988,"cur_":7989,"1.3.":7990,"../../../":7991,"mayĠbeĠ":7992,"Emb":7993,"docs.":7994,"buildĠ":7995,"each(":7996,"umul":7997,"nc":7998,"insteadĠofĠ":7999,"Py_ssize_tĠ":8000,"eni":8001,"12Ġ":8002,"N,Ġ":8003,"_instance":8004,"namespace.":8005,"ãĥ":8006,"<tdĠalign='":8007,"pap":8008,"useĠstrict":8009,"å¼":8010,"æĺ¯":8011,"msg_":8012,"NĠ":8013,"ĠĠĠĠĠĠ#Ġ":8014,"config['":8015,"valĠ":8016,"desi":8017,"image,Ġ":8018,"149":8019,"__aiĠ":8020,"ST\":Ġ\"":8021,"o,Ġ":8022,"Exec":8023,"s[:,Ġ":8024,"pd.DataFrame":8025,"workĠ":8026,"res.":8027,".pop":8028,"%s'Ġ%Ġ":8029,"-block":8030,"10000":8031,"mach":8032,"um_":8033,"color='#FFFF":8034,"division":8035,"grid_":8036,".prototype.":8037,"mean_":8038,"++;":8039,"ĉĠ*Ġ%":8040,"</table>":8041,"ĠĠreturnĠ__ret;":8042,"K.":8043,"<fontĠcolor='#FFFF":8044,"<fontĠcolor='#FFFFFF'>":8045,"]ĠforĠ":8046,"memoryview_":8047,"create(":8048,"CM":8049,"name\">":8050,"shortĠ":8051,"title>":8052,"Examples":8053,"popul":8054,"TType.":8055,"chron":8056,"licit":8057,"self,":8058,"gotĠ":8059,"ME_":8060,"ãĤ":8061,"value):":8062,"Expanded":8063,"ĠĠĠĠĉa149":8064,"Syntax":8065,"youĠmayĠnotĠuseĠthisĠfileĠexceptĠinĠcomplianceĠwithĠtheĠLicense.":8066,"abc":8067,"ĠĠĠĠĠĠĠĠ</div>":8068,"s.GL":8069,"',Ġself.":8070,"Author":8071,"fromĠ'":8072,"HEAD":8073,"Globals.":8074,"throw":8075,"label=\"":8076,"active_":8077,"5]":8078,"ĠĠĠĠĉa57":8079,"usesĠ":8080,"stderr":8081,"vir":8082,"pedĠ":8083,"state,Ġ":8084,"tip":8085,"ReactionĠ":8086,"request,Ġ":8087,".ĠIĠ":8088,"tensorĠ":8089,"fraction":8090,"importĠlogging":8091,"'ĠorĠ":8092,"string(":8093,"ver,Ġ":8094,"132":8095,"Cython":8096,"150":8097,"ExceptionĠasĠe:":8098,"ortĠ":8099,"filename,Ġ":8100,":Ġtrue,":8101,"e-":8102,"':Ġ{":8103,"totalĠ":8104,"hĠ":8105,"minĠ":8106,"Select":8107,"worl":8108,"iteration":8109,"ĠĠĠĠx":8110,"ĠĠĠĠparser.add_argument":8111,"setĠtheĠ":8112,"initializ":8113,"invalid":8114,"day.":8115,"instan":8116,"mov":8117,"wiki":8118,"enchmark":8119,"ValueError('":8120,"posĠ=Ġ":8121,"Post":8122,".replace(":8123,"BB":8124,"dst":8125,"pt.":8126,"orde":8127,")ĠVALUESĠ(":8128,"</dl>":8129,"duplic":8130,".btn-":8131,"wĠ=Ġ":8132,"appli":8133,"buffer_":8134,"number_":8135,"Cog":8136,"np.array([":8137,"ĠtoĠthisĠ":8138,"materi":8139,"fromĠaĠ":8140,"xml/":8141,"subject":8142,"databaseĠ":8143,"2013":8144,".pxd\":":8145,"dtype=np.":8146,"668":8147,".Comp":8148,"atur":8149,"exact":8150,"nn.Module":8151,"|\\":8152,"_SIZE":8153,"detection":8154,"sent":8155,"debu":8156,"Bot":8157,"nameĠofĠtheĠ":8158,"every":8159,"#!/usr/bin/envĠpython":8160,"EDĠ":8161,"ĠĠĠĠĠĠĠĠ@":8162,"Date.today().":8163,"to.":8164,"Ñĥ":8165,"group.":8166,"compil":8167,"shadow":8168,"mesh":8169,"cost":8170,"Faile":8171,"thatĠisĠ":8172,"classes":8173,"109":8174,"navigation":8175,"AsĠ":8176,"describe":8177,"large":8178,"ĠĠĠĠ-Ġ":8179,"ut_":8180,"shown":8181,"mitive":8182,"override":8183,"align:Ġ":8184,"dĠ(":8185,"3))":8186,"<codeĠlanguage=python":8187,"blob":8188,"/.":8189,"intoĠtheĠ":8190,"round(":8191,"concaten":8192,"numpy/__init__":8193,"ĠĠĠĠĠĠĠĠxĠ=Ġ":8194,"MIN":8195,"RegExp":8196,"numpy/__init__.pxd\":":8197,"remove_":8198,"num_classe":8199,"Cache":8200,"Quota.":8201,"head>":8202,"rup":8203,"dir)":8204,"md-":8205,"given":8206,"partition":8207,"E(":8208,"chart":8209,"result,Ġ":8210,"shared_":8211,"dn'tĠ":8212,"expect(":8213,"hasĠbeenĠ":8214,"deplo":8215,"2710":8216,"sun":8217,"command_":8218,"WhetherĠ":8219,"tite":8220,"schedul":8221,"Tab":8222,"Mid":8223,"ĠĠĠĠ}ĠelseĠ{":8224,"modelsĠimportĠ":8225,"weĠcanĠ":8226,"wayĠtoĠ":8227,"ĠĠborder-":8228,"ĠĠĠĠĉa132":8229,"staticĠCYTHON":8230,"Unknown":8231,"windowĠ":8232,"fields.":8233,"TRAIN":8234,"positor":8235,",Ġis_":8236,"Word":8237,"-x":8238,"filte":8239,"s>":8240,"alloc":8241,":ĠfunctionĠ()Ġ{":8242,"containĠ":8243,"ane":8244,"ĠĠĠĠĠĠĠĠĠĠĠĠTheĠ":8245,"Name,Ġ":8246,"StandardĠ":8247,"uĠ":8248,"_INLINEĠ":8249,"()Ġ==Ġ":8250,"SIZE":8251,"Protocol":8252,"both":8253,"go,Ġ":8254,"endifĠ":8255,"FIT":8256,"Id,Ġ":8257,"gate":8258,"padding:Ġ":8259,"reset":8260,"),Ġ\"":8261,"NotĠ":8262,"edĠtoĠ":8263,"key=":8264,"extern":8265,"file__":8266,"ĠĠĠĠĠĠĠĠĠĠĠĠ},":8267,"signĠ":8268,"f\"{":8269,"ĠĠfunctionĠ":8270,"les":8271,"template_":8272,"DEFIN":8273,"Pub":8274,"664":8275,"applicationĠ":8276,"_mm":8277,"###Ġ":8278,"isĠ=Ġ":8279,"16Ġ":8280,"rb":8281,"IfĠyouĠ":8282,"HĠ":8283,"speed_":8284,"Exe":8285,"GetĠtheĠ":8286,"#ifdefĠ__":8287,"er,":8288,"CSSĠ":8289,"fla":8290,"Ġ=Ġnull;":8291,"(varĠ":8292,"ĠĠĠĠ<divĠclass=\"":8293,"dio":8294,"DoĠ":8295,"memoryĠ":8296,"Also":8297,"__main__\":":8298,"series":8299,"dade":8300,"////////////////":8301,"<tableĠ":8302,"throughĠ":8303,"LowerCase":8304,"pre_":8305,"()Ġ+Ġ":8306,"0))":8307,"sĠ*Ġ":8308,"ĠĠ</":8309,"sug":8310,"Locale":8311,"<codeĠlanguage=python>":8312,"pho":8313,"alig":8314,"Object(":8315,"ĠĠĠĠĠĠĠĠassert_equal(":8316,"swe":8317,"360":8318,"EE":8319,"997":8320,"error(":8321,"handle_":8322,"mdc-":8323,"analy":8324,"period":8325,"Mis":8326,"ĉfĉ":8327,"memview":8328,"å°":8329,"\"].":8330,"RGB":8331,"application/":8332,"parentĠ":8333,"values.":8334,"=True):":8335,"out,Ġ":8336,"file_name":8337,"Avatar":8338,"Pattern":8339,"labelĠ":8340,"Ker":8341,"Stop":8342,"backgro":8343,"entrie":8344,"VAR":8345,"}.":8346,"exter":8347,"Eval":8348,"show()":8349,"ĠĠ__rev":8350,"flat":8351,"WhatĠ":8352,"417":8353,"sĠ=Ġself._":8354,"indexOf":8355,"overflow":8356,"Ġ=Ġre.":8357,"expand_":8358,"ĠĠĠĠĠĠĠĠĠĠĠ'":8359,"611":8360,"hav":8361,"s'Ġ":8362,"ĠĠĠĠĠĠĠĠself.assertEqual":8363,"js/":8364,"importĠpy":8365,"ĉĠ*Ġ@returnĠ{Date}":8366,"cls_":8367,"ASE":8368,"ĠĠĠĠĠĠĠĠ<divĠclass=\"":8369,"ĉĠĠĠĠĠĠĠĠĠĠĠĠvarĠ":8370,"320":8371,"(\"--":8372,"'.join(":8373,"Write":8374,"far":8375,"setĠofĠ":8376,"2:Ġ":8377,"dia":8378,"</span><spanĠclass=\"o\">":8379,"processe":8380,"\\x00\\x00\\x00\\x00":8381,"tp_":8382,"documentationĠ":8383,"format(":8384,"It":8385,"TIC":8386,"q.":8387,"s(\"":8388,"(){":8389,"name':Ġ'":8390,"FR":8391,"id_arti":8392,"os.path.dir":8393,"Query":8394,"font-size:Ġ":8395,"keepĠ":8396,"link\"Ġhref=\"#":8397,"wereĠ":8398,"#ĠĠĠĠĠĠĠĠĠ":8399,"Progra":8400,"1Ġ==Ġ":8401,"(__p0,Ġ":8402,"fromĠ..":8403,"s)):":8404,"Finish":8405,"format_":8406,"doneĠ":8407,"resnet":8408,"insert":8409,"AGE":8410,"HTMLĠ":8411,"slice(":8412,"destro":8413,"s=None,Ġ":8414,"ra_de":8415,"trafficdl.":8416,"filename)":8417,"malink":8418,"larg":8419,"4]":8420,"edbg":8421,"render_":8422,"BS":8423,"Millisecond":8424,"MakeĠ":8425,"s());":8426,"[];":8427,"3,ĠĠ":8428,"left_":8429,"SQL":8430,"containingĠ":8431,"installĠ":8432,"ĠĠĠĠĠĠĠĠĠĠĠĠpass":8433,"open_":8434,"echoĠ\"":8435,"stream_":8436,"Artigo":8437,"ViewĠ":8438,"previousĠ":8439,"configĠ=Ġ":8440,"215":8441,"represen":8442,"initializer":8443,"ked":8444,"Ġ=Ġfalse;":8445,"IGH":8446,"264":8447,"neg_":8448,"0.0.":8449,"B_":8450,"extract_":8451,"LIMIT":8452,"ato":8453,"sĠ=ĠNone":8454,"in.":8455,"ing:":8456,"undefinedĠ":8457,"compute_":8458,"bootstrap":8459,"ry":8460,"other):":8461,"ĠĠĠĠĉa124":8462,"icalĠ":8463,"ftĠ":8464,"zero_":8465,"scrib":8466,"quantidade":8467,"ECT":8468,"api/":8469,"ĠĠĠĠAĠ":8470,"s[i].":8471,"temp_":8472,"buffer.":8473,"id_comp":8474,"æķ°æį®":8475,"FNAC":8476,"legend":8477,"ifĠ__name__Ġ==Ġ\"":8478,"âĸĪâĸĪ":8479,"until":8480,"Asser":8481,"Sw":8482,"startĠ=Ġ":8483,"footer":8484,"noqa":8485,"vec":8486,"subprocess.":8487,"\">Â":8488,"fact":8489,"UTF":8490,"long)":8491,"half":8492,"}ĠcatchĠ(":8493,"reddi":8494,"pad_":8495,"[x":8496,"_T":8497,"ĠĠĠĠĉa77":8498,"1',Ġ'":8499,"2500":8500,"((((a":8501,"))Ġ&&Ġ(":8502,"##Ġ":8503,"(C":8504,"16,Ġ":8505,"logger.info(\"":8506,"input.":8507,"episode":8508,"ĠĠĠĠclassĠ":8509,"ĠĠĠĠĠĠĠĠ),":8510,"_indice":8511,"<aĠclass=\"header":8512,"Key(":8513,"id,":8514,"Deprecation":8515,"ĠĠĠĠĠĠĠĠxĠ=Ġself.":8516,"894":8517,"Overri":8518,"_X_Artigo":8519,"ra_de_X_Artigo":8520,"axisĠ":8521,"es_":8522,"ĠĠĠĠĠĠĠĠĠĠĠĠĠĠĠĠĠĠĠĠĠĠĠĠself.":8523,"Ġ=Ġ15;":8524,"conti":8525,"id_artigo,Ġ":8526,"type.":8527,"¶</a>":8528,"upload":8529,"\">Â¶</a>":8530,"eĠtoĠ":8531,"neighbor":8532,"sĠ(id_comp":8533,"INSERTĠINTOĠFNAC":8534,".Compra_de_X_Artigo":8535,"INSERTĠINTOĠFNAC.Compra_de_X_Artigo":8536,"INSERTĠINTOĠFNAC.Compra_de_X_ArtigosĠ(id_comp":8537,"Ġ|Ġ":8538,"ĠĠĠĠĠĠĠĠĠĠĠĠĠĠĠĠ<":8539,"consist":8540,"sklear":8541,"OnlyĠ":8542,"ra,Ġid_artigo,Ġ":8543,"quantidade)ĠVALUESĠ(":8544,"INSERTĠINTOĠFNAC.Compra_de_X_ArtigosĠ(id_compra,Ġid_artigo,Ġ":8545,"INSERTĠINTOĠFNAC.Compra_de_X_ArtigosĠ(id_compra,Ġid_artigo,Ġquantidade)ĠVALUESĠ(":8546,"lineĠ=Ġ":8547,"invalidĠ":8548,"<aĠclass=\"headerlink\"Ġhref=\"#":8549,")ĠĠ#Ġ":8550,"lici":8551,"test(":8552,"foun":8553,"np.ndarray":8554,"convert":8555,"manager.":8556,"weekĠ":8557,"response_":8558,"instead":8559,"avg_":8560,"657":8561,"theĠfollowingĠ":8562,"',ĠNone,Ġ":8563,"code.":8564,"branch":8565,"ifĠ__name__Ġ==Ġ\"__main__\":":8566,"binaryĠ":8567,"WR":8568,",Ġ$":8569,"execut":8570,"Embed":8571,"importĠre":8572,"howĠtoĠ":8573,"abbrevi":8574,"Calcul":8575,"Json":8576,"finalĠ":8577,"reserve":8578,"\"\",":8579,"Column(":8580,"bon":8581,"</pre>":8582,"Timezone":8583,"ĠĠ__retĠ=Ġ(":8584,"<spanĠclass=\"sig-":8585,"solver":8586,")Ġ||Ġ":8587,"éĢ":8588,"ĠĠĠĠd":8589,"tokeniz":8590,"animation":8591,"nameĠ=Ġ'":8592,"Cython/":8593,")*":8594,"1f":8595,"s/numpy/__init__.pxd\":":8596,"statusĠ":8597,"Includes/numpy/__init__.pxd\":":8598,"Cython/Includes/numpy/__init__.pxd\":":8599,"ĠĠĠĠĉa174":8600,"Error):":8601,"ä¸ª":8602,"OBJ":8603,"function.":8604,"window_":8605,"negativeĠ":8606,"initialĠ":8607,"ĠĠĠĠĠĠĠĠĠĠĠĠĠĠĠĠbreak":8608,"epsilon":8609,"losse":8610,"other_":8611,"graph.":8612,"DateTime":8613,"staticĠCYTHON_INLINEĠ":8614,"l,Ġ":8615,"requiredĠ":8616,"avoidĠ":8617,"Entry":8618,"ln":8619,"APP":8620,"a-z":8621,"ĠĠĠĠĠĠĠĠifĠnotĠself.":8622,"focu":8623,"IDĠ":8624,"FROMĠ":8625,"647":8626,"ssh_":8627,"_MO":8628,"controlĠ":8629,"à®":8630,"s,ĠandĠ":8631,"Non":8632,"lenĠ=Ġ":8633,"logger":8634,"ender":8635,"confir":8636,"copie":8637,"unctu":8638,"1.val":8639,"éĩ":8640,"CI":8641,"cipher":8642,"pyxb.namespace.":8643,"i18":8644,"clin":8645,"unpack":8646,"pyxb.namespace.Expanded":8647,"Ġ=Ġnp.array([":8648,"pyxb.namespace.ExpandedName(":8649,"img.":8650,"Comment":8651,"processĠ":8652,"\"ĠĠ":8653,");Ġ//Ġ":8654,"driver.":8655,":Ġfloat":8656,"serviceĠ":8657,"DOM":8658,"pth":8659,"170":8660,"Condition":8661,"Ġ;Ġ":8662,"os.path.join":8663,"absolute_":8664,"(\"/":8665,"_PATH":8666,"necess":8667,"bestĠ":8668,"specifyĠ":8669,"ĠĠconstĠ":8670,",Ġ0,Ġ":8671,"recei":8672,"FORĠ":8673,"GT":8674,"items()":8675,"haveĠtoĠ":8676,"parserĠ=Ġ":8677,"PP":8678,"x):":8679,"fluid.":8680,"importĠtorch":8681,"paren\">":8682,"this,Ġ":8683,"3>":8684,"Red":8685,"sort_":8686,"irror":8687,")Ġ__builtin_":8688,"åį":8689,"Selector":8690,"å¯":8691,"[name":8692,"qui":8693,"ategory":8694,"ined":8695,"dayOf":8696,"897":8697,"basedĠonĠ":8698,"mobile":8699,"åľ":8700,"rawĠ":8701,"]Ġ-Ġ":8702,"Ġ=Ġ(((((a":8703,"roi_":8704,"Constan":8705,"2):":8706,"æī":8707,"ĉĉ#Ġ":8708,"Pos":8709,"cos(":8710,"Fire":8711,"tun":8712,"featureĠ":8713,"ted.":8714,"åĩ":8715,"Chil":8716,"%s)":8717,"entryĠ":8718,"\":Ġ\"^":8719,"ĠĠ},":8720,"s.set":8721,"s:Ġ{":8722,"Trace":8723,"<dlĠ":8724,"}')":8725,"Other":8726,"ty/":8727,"cleĠ":8728,"Cat":8729,"hasOwn":8730,"order.":8731,"T-":8732,"admin_":8733,"pyedbg":8734,"version__":8735,"ĠĠĠĠĠĠ__Pyx_":8736,"serializer":8737,"cla":8738,"ĠĠĠĠĠĠĠĠĠĠĠĠĠĠĠĠĠĠĠĠĠĠĠĠĠĠĠĠĠĠĠĠĠĠĠĠĠĠĠĠĠĠ":8739,"dic":8740,"allowĠ":8741,"Permalink":8742,"ding_":8743,"ametri":8744,"list)":8745,"declar":8746,"action_":8747,"original_":8748,"tude":8749,"ef":8750,"shape)":8751,"right_":8752,"ĠĠĠĠĠĠĠĠdataĠ=Ġ":8753,"tĠofĠ":8754,"limiter":8755,")ĠisĠ":8756,"PyTuple":8757,"Execu":8758,"Ð°Ð":8759,"Sig":8760,"header_":8761,"cannotĠ":8762,"get('":8763,"PermalinkĠtoĠthisĠ":8764,"(G":8765,"encyĠ":8766,"Category":8767,"feed_":8768,"3637":8769,"valueĠinĠ":8770,"ĠĠĠĠdefĠ__init__(self):":8771,"added":8772,"64,Ġ":8773,"Java":8774,"ctx,Ġ":8775,"list()":8776,"filenameĠ":8777,"ÐµÐ":8778,"plu":8779,"$('#":8780,"áĥ":8781,"rateĠ":8782,"listĠ=Ġ":8783,"s().":8784,"ui.":8785,"fficient":8786,"com.":8787,"val,Ġ":8788,"instance.":8789,"value;":8790,"be_":8791,"/(":8792,"cancel":8793,"(\"#":8794,"convertĠ":8795,"Abstract":8796,"\"Ġtitle=\"PermalinkĠtoĠthisĠ":8797,"236":8798,"associatedĠ":8799,"panel":8800,"$R.":8801,"Application":8802,"%Y":8803,"ĠB":8804,"importĠ*":8805,"\":Ġ0,Ġ\"":8806,"finall":8807,"tou":8808,"244":8809,"listen":8810,"exitĠ":8811,"ĠĠĠĠĠĠĠĠbuf.write(\"":8812,"encode('utf-8":8813,"ĠĠĠĠassert_":8814,"predict":8815,"os.path.is":8816,"ant_":8817,"similar":8818,"IST":8819,"spec.":8820,"equalĠ":8821,"notify.":8822,"str:":8823,"ĉ(":8824,"cos":8825,"indexĠ=Ġ":8826,"en/":8827,"think":8828,"bm":8829,"ĠĠĠĠ__pyx_t_":8830,"data:":8831,"numpy":8832,"ingĠforĠ":8833,"line)":8834,"sum_":8835,"scaleĠ":8836,"-bitĠ":8837,"style.":8838,"wantĠ":8839,"listener":8840,"configĠ":8841,"-C":8842,"itemĠinĠ":8843,"ĠĠĠĠĠĠĠĠG":8844,"Reference":8845,"DataĠ":8846,"0,Ġ0,Ġ0,Ġ0,Ġ":8847,"a,":8848,"\"Ġaria-":8849,"ms-":8850,"untilĠ":8851,"content:Ġ\"":8852,"i;":8853,"OpenGL":8854,"objĠ=Ġ":8855,"3933":8856,":Ġ1":8857,"ctx->":8858,"())Ġ{":8859,"dot(":8860,"MainWindow":8861,"PRE":8862,"SG":8863,"Script":8864,"Ġ=Ġ((((a":8865,"Stor":8866,"ORMAT":8867,"ple":8868,"s');":8869,"________________":8870,"<!--Ġ":8871,"ionĠ":8872,"s([":8873,"Ġ=Ġ0x":8874,"s=self.":8875,"index.":8876,"in,Ġ":8877,"Ġ=Ġmodels.":8878,"1,Ġ'":8879,"data):":8880,"rh":8881,"ĠĠ});":8882,"rgba(":8883,")Ġ|Ġ(":8884,"time,Ġ":8885,"angular":8886,"Exception(":8887,"ĠĠĠĠĉa32":8888,"data[\"":8889,"GER":8890,"extendsĠ":8891,"639":8892,"odeĠ":8893,"700":8894,"neon_":8895,"BatchNorm":8896,"Begin":8897,"Span":8898,"AIL":8899,"installe":8900,"from(":8901,"u'/home/":8902,"1(":8903,"translate(\"":8904,"æĸĩ":8905,"ls":8906,"attr(self,Ġ":8907,"paddle":8908,"HH:mm":8909,"[],":8910,"Car":8911,"dock":8912,"underĠ":8913,"object,Ġ":8914,"ĠforĠtheĠ":8915,"Close":8916,"IsĠ":8917,"x,Ġy,Ġ":8918,"op.":8919,"s[-1]":8920,"8785":8921,"[1].":8922,"candidate":8923,"'},":8924,"T\",":8925,"tile":8926,"pygame.":8927,"']Ġ==Ġ":8928,"6684":8929,"DIAN":8930,"ql":8931,"ignore_":8932,"LONG":8933,"true,Ġ":8934,"ĠĠĠĠĉa27":8935,"d1Ġ=Ġ":8936,"MyĠ":8937,"DS":8938,"recur":8939,"CTĠ":8940,"download_":8941,"-in":8942,"Sug":8943,"ĠĠĠĠpass":8944,"385":8945,"-01":8946,"](":8947,"er('":8948,"32Ġ":8949,"reduce_":8950,"gitĠ":8951,"accord":8952,"DES":8953,"guide":8954,"propertiesĠ":8955,"resolution":8956,"Sun":8957,"Array_":8958,"-----------------------------------------------------------------------------":8959,"HereĠ":8960,"return_value":8961,"sĠ=Ġlist(":8962,"basel":8963,"algorithm":8964,"vĠ":8965,"computeĠ":8966,"highlight":8967,"inventor":8968,"b>":8969,"parametri":8970,"or.":8971,"ĠĠĠĠĉa67":8972,"super(":8973,"keys()":8974,"main()":8975,"Date.CultureInfo.":8976,"}ĠĠĠTheĠ":8977,"dayĠofĠtheĠ":8978,"piece":8979,"0),":8980,":ĠĠ":8981,"tooĠ":8982,"usedĠforĠ":8983,"1d":8984,"streamĠ":8985,"az":8986,"Simple":8987,"fit_":8988,"'Ġbgcolor='#0000":8989,"FF'><fontĠcolor='#FFFFFF'>":8990,"'Ġbgcolor='#0000FF'><fontĠcolor='#FFFFFF'>":8991,"doctype":8992,"ĠĠĠĠĠ*Ġ@paramĠ{":8993,"gene":8994,"scoreĠ":8995,"\\n\\n":8996,"Layer":8997,"al,Ġ":8998,"USER":8999,"debug('":9000,"[index":9001,"typingĠimportĠ":9002,"semb":9003,"netĠ":9004,"ONE":9005,"\"]:":9006,"`ĠandĠ":9007,"PM":9008,"{})":9009,"/C":9010,"tag_":9011,"botto":9012,"click.":9013,"pickle":9014,"send(":9015,"kernel_":9016,"At(":9017,"rentĠ":9018,"ĠĠĠĠĉa100":9019,"ĠĠĠĠĠĠĠĠĠĠĠĠraiseĠValueError(\"":9020,"reduce":9021,"clineno":9022,"Fl":9023,"':Ġself.":9024,"ĠĠĠĠifĠlen(":9025,"<tr>":9026,"Bind":9027,"green":9028,"COMP":9029,"dĠfromĠ":9030,"partial":9031,"standardĠ":9032,"Jan":9033,"_bin":9034,"imag":9035,"ĠĠĠĠĠĠĠĠĠĠĠĠĠĠĠĠĠĠĠĠĠĠĠĠĠĠĠĠĠĠĠĠĠĠĠĠĠĠĠ":9036,"optionĠ":9037,"=dict(":9038,"bitĠ":9039,"zeroĠ":9040,"pyedbglib.":9041,"_from_":9042,"cas":9043,"InputĠ":9044,"complex":9045,"6280":9046,"correspondingĠ":9047,"x/":9048,"ality":9049,"allback":9050,"Thank":9051,"Test(":9052,"586":9053,"commonĠ":9054,"Handler(":9055,"'Ġ+":9056,"11/":9057,"$.":9058,"sĠ=Ġtf.":9059,")Ġ&&Ġ(a":9060,"theĠfirstĠ":9061,"#ĠThisĠ":9062,"message)":9063,"Move":9064,"voidĠcalculate_outputm":9065,"exclu":9066,"logging.info":9067,"n_cell":9068,"Empty":9069,"Alig":9070,"startingĠ":9071,"MMMMĠ":9072,"Play":9073,"Toontown":9074,"forward(self,Ġ":9075,"BE":9076,")Ġ<<Ġ":9077,"QtCo":9078,"m/":9079,"forEach":9080,".__name__":9081,"Next":9082,"flu":9083,"hh":9084,"ĠĠĠĠĠĠĠĠĠĠĠĠĠĠĠĠĠĠĠĠĠĠĠĠifĠ":9085,"s={'":9086,"Plugin":9087,"4449":9088,"swap":9089,"size(":9090,".format(self.":9091,"POINTER(GL":9092,"fan":9093,"Program":9094,"AndĠ":9095,"CE_":9096,"N.":9097,"wav":9098,"ĠĠĠĠasyncĠdefĠ":9099,"o-":9100,"m(":9101,"native":9102,"service_":9103,"sys.exit":9104,"779":9105,"Ġ=":9106,"{\"name\":Ġ\"":9107,"content:Ġ\"\\":9108,"Ġ=Ġ2":9109,"ket":9110,"dense":9111,"mt_":9112,"7);":9113,"msg)":9114,"ping_":9115,"issu":9116,"501":9117,"belowĠ":9118,"createĠaĠ":9119,"expi":9120,"ĠĠĠĠpost":9121,"astropy.":9122,"config,Ġ":9123,"android.":9124,"Sm":9125,"distanceĠ":9126,"Ġ=Ġ\"\"":9127,"Spec.":9128,"ĠĠĠĠĠĠthis.":9129,"160":9130,"c2":9131,"manu":9132,"ĠĠĠĠĠĠĠĠawaitĠ":9133,"js\"></script>":9134,").Ġ":9135,"ĠĠ</div>":9136,"generateĠ":9137,"]Ġ==Ġ":9138,"BER":9139,"kĠinĠ":9140,"à¥":9141,"åĮ":9142,"Property(":9143,"sĠ=Ġtorch.":9144,"404":9145,"ep_":9146,"ĠĠĠĠĠĠĠĠĠĠĠĠreturnĠFalse":9147,"Array(":9148,"module.exportsĠ=Ġ":9149,"a',Ġ'":9150,"INCREF":9151,",ĠitĠ":9152,"605":9153,")Ġ{ĠreturnĠ":9154,"equival":9155,"validator":9156,"rd":9157,"headĠ":9158,"#pop":9159,"Panel":9160,"ĠĠĠĠĠĠĠĠresultĠ=Ġ":9161,"ĠĠĠĠ//":9162,"html#":9163,"enabled":9164,"-1);":9165,"leastĠ":9166,"Suc":9167,"directive":9168,"existingĠ":9169,"///Ġ\\":9170,"'Ġ:Ġ":9171,"loader":9172,"</span></em>":9173,"cs_":9174,"1288":9175,"meridi":9176,"hyper":9177,"calĠ":9178,"(r\"":9179,"json.loads(":9180,"ĠĠ<divĠclass=\"":9181,"positiveĠ":9182,"}{":9183,"strf":9184,"2009":9185,"labels":9186,"land":9187,"environment":9188,"avg":9189,"ĠĠĠĠatĠ":9190,"-Ġ(":9191,"archive":9192,"reci":9193,"ĠĠĠĠĉa64":9194,"history":9195,"v)":9196,"ErrorĠasĠ":9197,"parameters":9198,"u,Ġ":9199,"]Ġ+=Ġ":9200,"ä¹":9201,"str)":9202,"Api":9203,"expan":9204,"host_":9205,"print_function":9206,"allow_":9207,"Basic":9208,"00:00":9209,"7)":9210,"xĠ-Ġ":9211,"calendar":9212,"\"/>":9213,"ĠĠĠĠĉa163":9214,"get(":9215,".ĠimportĠ":9216,"owner":9217,"RemoveĠ":9218,"377":9219,"PUT":9220,"goĠ":9221,"[0-":9222,"ingĠofĠ":9223,"Abbr":9224,"Email":9225,"inten":9226,"__PYX_ERR(0,Ġ":9227,"decim":9228,"Scope":9229,"ĠĠifĠ":9230,"loadedĠ":9231,"tokenize":9232,"apply":9233,"z,Ġ":9234,"NoneĠelseĠ":9235,"1ĠandĠ":9236,"elem":9237,"Group.":9238,"wouldĠbeĠ":9239,"output,Ġ":9240,".getLogg":9241,",\"":9242,"PER":9243,"toolsĠimportĠ":9244,"criptĠ":9245,"ĠĠĠĠĠĠĠĠself.assertTrue(":9246,"s.pop":9247,"finished":9248,"ĠĠĠĠĠĠĠĠreturnĠFalse":9249,"prepare_":9250,"iceĠ":9251,"%r":9252,"fromĠtypingĠimportĠ":9253,"Expe":9254,"docs/":9255,"options":9256,"lite":9257,"mime":9258,"Howe":9259,"ILE":9260,"atureĠ":9261,"ĉĉifĠ(!":9262,"literal":9263,"xsd',Ġ":9264,"13,Ġ":9265,"device)":9266,"requires_":9267,"focus":9268,"b)":9269,"ja":9270,"__all":9271,"paralle":9272,"dependenci":9273,"__pyx_n_s_":9274,"x,Ġy":9275,"VALID":9276,"ĠĠĠĠĠĠĠĠplt.":9277,"timedelta":9278,"json.dumps(":9279,"[0.":9280,"../_static/":9281,".append":9282,"tk":9283,"__pyx_k_":9284,"altern":9285,"2),":9286,"2])":9287,"mĠinĠ":9288,"8);":9289,"on('":9290,"AK":9291,"when":9292,"yĠtoĠ":9293,"ify(":9294,"iterable":9295,"ĠĠĠĠĉa196":9296,"TheseĠ":9297,"framework::":9298,"ĠĠ#Ġnoqa":9299,"ĠĠĠĠG":9300,"DATA_":9301,"LITT":9302,"[i],Ġ":9303,"ORĠOTHER":9304,"6);":9305,"containerĠ":9306,"rx":9307,"Common":9308,"Icon":9309,"idx,Ġ":9310,"utf8":9311,"head_mask":9312,"modules/":9313,"CHAN":9314,"_bi":9315,"File(":9316,"slug":9317,"iprot.read":9318,"ĠĠĠĠ],":9319,"illa":9320,"7966":9321,"ties.":9322,")ĠreturnĠ":9323,"ersĠ":9324,"Face":9325,"106Ġ=Ġ":9326,"Tri":9327,"Ã©":9328,"count(":9329,"libcity.data.dataset.":9330,"_cs.GL":9331,"RC":9332,"ĠĠĠĠ-21474":9333,"once":9334,"LE_ENDIAN":9335,"inv":9336,"button>":9337,"tk.":9338,":Ġfalse":9339,"LAN":9340,"dedĠtoĠ":9341,"Poly":9342,"Zero":9343,"class.":9344,"implemen":9345,"KEN":9346,"id:Ġ":9347,"</span>Ġ<spanĠclass=\"n\">":9348,"LD":9349,"yĠtheĠ":9350,"Rect":9351,"canvas":9352,"root.":9353,"workingĠ":9354,"\\s+":9355,"LITTLE_ENDIAN":9356,"Feature":9357,"1])":9358,"BĠ":9359,"SSION":9360,"ĠĠ__Pyx_X":9361,"operatorĠ":9362,"stu":9363,"dirĠ=Ġ":9364,"temper":9365,"exports,Ġ":9366,"dĠ==Ġ":9367,"function('":9368,"3625":9369,"opt_":9370,"auto_":9371,"Counter":9372,"Sched":9373,"ĠĠĠĠĠĠĠĠĠĠĠĠĠĠĠĠĠĠĠĠĠĠĠĠĠĠĠĠĠĠĠĠĠĠĠĠĠĠĠĠĠĠĠĠĠĠĠĠĠĠĠĠ":9374,"packageĠ":9375,"logging.getLogg":9376,"keep_":9377,"scra":9378,"lookup":9379,"Show":9380,"âĢ¢âĢ¢âĢ¢âĢ¢":9381,"3),Ġ":9382,"Forward":9383,"objective":9384,"zy":9385,"thereĠareĠ":9386,"ĉĠ*Ġ@paramĠ{Number":9387,"h.":9388,"?Ġ'":9389,"stit":9390,"attemp":9391,"_description":9392,"fd":9393,"_path)":9394,"func,Ġ":9395,"adv":9396,"e,Ġ":9397,"',Ġ'C":9398,"Serializ":9399,"ĠĠmargin-":9400,"anno":9401,"ĠĠĠ#Ġ":9402,"IGHT":9403,"phone":9404,"........":9405,"optionalĠ":9406,"Fore":9407,"aff":9408,"mor":9409,"arr.":9410,"Manager":9411,"builtin":9412,"Axis":9413,"cĠinĠ":9414,"str]":9415,"place_":9416,"passĠ":9417,"\":Ġ0,Ġ\"ReactionĠ":9418,"ĉ$D.":9419,"Sign":9420,"_count":9421,"epĠ":9422,"process(":9423,"Coord":9424,"boo":9425,"indices":9426,"groupĠ":9427,"al(":9428,"%%":9429,"Vide":9430,"componentĠ":9431,"Ju":9432,"ĠĠĠĠb":9433,"s[:":9434,"possible":9435,"CheckĠ":9436,"dict['":9437,"388":9438,":Ġnone;":9439,".pyĠ":9440,"widthĠ=Ġ":9441,"F.":9442,"ĠĠĠĠĠĠĠĠĠĠĠĠoprot.write":9443,"METH":9444,"Class(":9445,"ValueError(":9446,"NaN":9447,"s='":9448,"params)":9449,"URLĠ":9450,"970":9451,"face_":9452,"criter":9453,"inputs_":9454,"s[key":9455,"charset":9456,"Exception:":9457,"information":9458,"\\0":9459,"pleaseĠ":9460,"aliase":9461,"ElementĠ":9462,"<dd>":9463,"ĠĠĠĠĠĠĠĠ-Ġ":9464,"alert":9465,"texture":9466,"8769":9467,"Vol":9468,"çĽ":9469,"complexĠ":9470,"conda":9471,"shape,Ġ":9472,"checkĠifĠ":9473,"validation":9474,"itude":9475,"ĠĠĠĠdefĠset_":9476,"LITTLE_ENDIAN__":9477,"Lim":9478,"str_":9479,"ĠĠĠĠ<linkĠrel=\"":9480,"B,Ġ":9481,"d,":9482,"[3]":9483,"ĠĠ<tdĠalign='":9484,"ĠĠ<colĠalign='":9485,"#ifdefĠ__LITTLE_ENDIAN__":9486,"Gen":9487,"actuallyĠ":9488,"350":9489,"falseĠ":9490,"ĠĠĠĠĠĠĠĠThisĠ":9491,"Sim":9492,"aroundĠ":9493,"ĠĠĠĠĠĠĠĠ\"/^":9494,"(__pyx_v_":9495,"-ms-":9496,"san":9497,"switchĠ(":9498,"-item":9499,"1664":9500,"ĠĠĠĠĠĠifĠ":9501,"Bert":9502,"gy":9503,"abspath":9504,"k)":9505,"siteĠ":9506,"ĠĠĠĠĉa40":9507,"runn":9508,"ov":9509,"stop_":9510,"fine":9511,"ĉifĠ":9512,"deta":9513,"tear":9514,"parametrize":9515,"*,Ġ":9516,"4f":9517,"Adap":9518,"075":9519,"_INT":9520,"ĠĠĠĠĠĠĠĠĠĠĠĠd":9521,"__class__":9522,"ĠĠĠĠĠĠĠĠĠĠĠĠself.assert":9523,"Dou":9524,"micro":9525,"formatter":9526,"copy_":9527,"':ĠNone,":9528,"']Ġ":9529,"generatedĠ":9530,"ĠĠĠĠĉa109":9531,"216":9532,"Dri":9533,"slice_":9534,"typing.":9535,"Transp":9536,"ale":9537,"',Ġ'event":9538,"ING_":9539,"batchĠ":9540,"ĠĠĠĠ:return":9541,"licenseĠ":9542,"Orig":9543,"ĠĠcolor:Ġ#":9544,"__Pyx_PyObject_":9545,"Ter":9546,"sign_":9547,"-10":9548,"ingĠ=Ġ":9549,"categorie":9550,"854":9551,"endswith":9552,"trail":9553,"_init":9554,"dist_":9555,"default='":9556,"ropy":9557,"ĠĠĠĠĠĠĠĠĠĠĠĠĠĠĠĠĠĠĠĠelse:":9558,"cacheĠ":9559,"1],":9560,"3Ġ=Ġ33Ġ;":9561,"user,Ġ":9562,"hello":9563,"__p1,Ġ":9564,"typenameĠ":9565,"item)":9566,"dp":9567,"115":9568,"sĠfromĠtheĠ":9569,"np.array(":9570,"hum":9571,"ceil":9572,"279":9573,"fixed":9574,"sĠisĠNone:":9575,"=1,":9576,"<liĠclass=\"toctree-l1\"><aĠclass=\"referenceĠinternal\"Ġhref=\"../":9577,"life":9578,"line,Ġ":9579,"dict()":9580,"A-Z":9581,"XĠ=Ġ":9582,"Type(":9583,"NowĠ":9584,"-1,":9585,"Vertex":9586,"=1.":9587,"ĠĠĠĠĠĠĠĠĠĠĠĠĠĠĠĠĠĠĠĠĠĠĠĠĠĠĠĠĠĠĠĠĠĠĠĠĠĠĠĠĠĠĠĠĠĠ":9588,"clock":9589,"''Ġ":9590,"LoadĠ":9591,"array,Ġ":9592,"===":9593,"ownĠ":9594,".execute":9595,"amount":9596,"379":9597,"Eng":9598,"ĠĠĠĠst_":9599,"dictionary":9600,"WHER":9601,"%s'Ġ%Ġ(":9602,"4:":9603,"INCL":9604,"_path,Ġ":9605,"ĠĠĠĠĠĠĠĠĠĠĠĠ<tr>":9606,"f;":9607,"folderĠ":9608,"dtype='":9609,"_get_":9610,"Cro":9611,"f)":9612,"statement":9613,"classification":9614,"ĠĠĠĠĠĠself.":9615,"DIRE":9616,"link_function('":9617,"titem":9618,"str(self.":9619,"Fix":9620,"ListĠofĠ":9621,"z)":9622,"onĠaĠ":9623,"overlap":9624,"Vis":9625,"settingĠ":9626,"bility":9627,"ono":9628,"[n":9629,"zĠ=Ġ":9630,"valueĠisĠ":9631,"1\",":9632,"makeĠsureĠ":9633,"libĠimportĠ":9634,"cutil":9635,"stick":9636,"ĠĠĠĠĠĠĠĠreturnĠ\"":9637,"returnĠtheĠ":9638,"iter_":9639,"FalseĠ":9640,"Modifi":9641,"Date.parse":9642,"ĠĠĠĠĠĠĠĠnew_":9643,"exc_":9644,"Goog":9645,"grid(":9646,"moveTo":9647,"full_":9648,"')),":9649,".P":9650,"base64":9651,"_schema":9652,"Content-":9653,"ulong":9654,"Suit":9655,"maximumĠ":9656,"AW":9657,"conn.":9658,"running":9659,"||Ġ(":9660,"sĠ*/":9661,"Generator":9662,"ĠĠĠĠĠĠĠĠĠĠĠĠ{":9663,"yaml":9664,"']Ġ=Ġ'":9665,"determin":9666,"result)":9667,"localhost":9668,"resource_":9669,"_PO":9670,"pra":9671,"FFER":9672,"ĉvarĠd1Ġ=Ġ":9673,"endĠ=Ġ":9674,"loggerĠ=Ġ":9675,"remĠ":9676,"documentĠ":9677,"Fri":9678,"yĠ+Ġ":9679,"weightĠ":9680,".S":9681,"Edge":9682,"axis.":9683,"ReturnĠ":9684,"Ordered":9685,"(a,Ġb":9686,"[1,Ġ":9687,"short_":9688,"reshape(":9689,"æŀ":9690,"Ġ=Ġ__":9691,"toString":9692,"copy(":9693,"DayOf":9694,"2)Ġ{":9695,"Bound":9696,"2.Ġ":9697,"369":9698,"<text>":9699,"ated_":9700,"ReadĠ":9701,"-MM":9702,"ĠĠ/*Ġ":9703,"ĠĠĠĠ):":9704,"url=":9705,"shape(":9706,"isĠnotĠNoneĠandĠ":9707,"projection":9708,"ĠĠĠĠmargin-":9709,"typedefĠ":9710,"fĠinĠ":9711,"radius:Ġ":9712,",ĠweĠ":9713,"strftime":9714,"ws":9715,"numpy_":9716,"lightĠ":9717,"header.":9718,"currentlyĠ":9719,"\"ĠtoĠ\"":9720,"{self.":9721,"225":9722,"ĠĠĠĠĠĠĠĠĠĠĠĠprint('":9723,":Ġ\"/^":9724,"TypeError(\"":9725,"Last":9726,"jĠinĠrange(":9727,"UNCTYP":9728,"j,Ġ":9729,"out)":9730,"2058":9731,"7232":9732,"355":9733,"ENG":9734,"Lin":9735,"hal":9736,"?)":9737,"(constĠ":9738,"ly,Ġ":9739,"exi":9740,"ail":9741,"ban":9742,"5Ġ=Ġ":9743,"zi":9744,"ĠĠĠĠĠĠĠĠout":9745,"['name":9746,"SELECTĠ":9747,"tq":9748,"perio":9749,"typeĠ==Ġ'":9750,"characterĠ":9751,"2Ġ==Ġ":9752,"ĠĠĠĠĠĠĠĠreturnĠ(":9753,"5Ġ=Ġ32Ġ;":9754,"retrie":9755,"False)Ġ]))":9756,"duringĠ":9757,"decoder":9758,"exper":9759,"1234":9760,"number,Ġ":9761,"type=\"text/javascript":9762,"%s_":9763,"nm":9764,"448":9765,")Ġ=>Ġ":9766,"NotFound":9767,"returnsĠ{":9768,"draw_":9769,"default:Ġ":9770,"sid":9771,"ity_":9772,"ĠĠĠĠĉa129":9773,"32_":9774,"state_dict":9775,"field(":9776,"alias":9777,"569":9778,"pm":9779,"()))":9780,"_COMP":9781,"Vec":9782,"unic":9783,"datetimeĠ":9784,"parse_arg":9785,"adeĠ":9786,"Int_":9787,"retri":9788,"Fir":9789,"ĠĠĠĠĠĠĠĠĠĠĠĠĠĠĠĠĠĠĠĠforĠ":9790,"ĠĠĠĠĠĠĠĠifĠ'":9791,"selected_":9792,"though":9793,"fire":9794,"files":9795,"*.":9796,"zen":9797,"dl":9798,"6418":9799,"CFUNCTYP":9800,"ReturnsĠtheĠ":9801,"cour":9802,"not(":9803,"ref_":9804,"extension__Ġ(":9805,"io/":9806,"3(":9807,"Ġ**Ġ":9808,"M,Ġ":9809,"L,Ġ":9810,"r;":9811,"tĠ==ĠNPY":9812,")Ġ+Ġ\"":9813,"fli":9814,"ĉ<":9815,"addedĠ":9816,"allen":9817,"oleanĠ":9818,"patter":9819,"set,Ġ":9820,"SET_":9821,"final":9822,"Listen":9823,"CONFIG":9824,"HOST":9825,"Maybe":9826,"alpha_":9827,"insert(":9828,"TED":9829,"smooth":9830,"ĠĠ@":9831,"this:":9832,"PyArray_":9833,"train.":9834,"AMP":9835,"Pick":9836,"deviceĠ":9837,"</button>":9838,"road":9839,"function(module,Ġ":9840,"ĠĠĠĠĠĠĠĠraiseĠNotImplemented":9841,"kĠ=Ġ":9842,"utc":9843,"</text>":9844,"mode='":9845,"great":9846,";&#x":9847,"Listener":9848,"ping":9849,"codeĠ==Ġ":9850,"provideĠ":9851,"(\".":9852,"trak":9853,"558":9854,"ãĢĤ":9855,"plate":9856,"))))Ġ{":9857,"State(":9858,"trin":9859,"libcity/":9860,"asyncio.":9861,"below":9862,"FIL":9863,"up.":9864,"%s.":9865,"func.":9866,"TOKEN":9867,"================================================================":9868,"650":9869,"ĠĠĠĠĠĠĠĠĠĠĠĠself.assertEqual(":9870,"NameĠ=Ġ":9871,"walk":9872,"keywordĠ":9873,"I'veĠ":9874,"supportedĠ":9875,"A.":9876,"Activity":9877,"DOC":9878,"Hook":9879,"\"></i>":9880,"apiĠ":9881,"guil":9882,"Synap":9883,"C:":9884,"174":9885,"ĠĠĠĠĠĠĠĠ<spanĠclass=\"glyph":9886,"d.Ġ":9887,"px;Ġ":9888,"ĠĠĠĠĠĠĠĠĠĠĠĠ('":9889,"soĠthatĠ":9890,"comparis":9891,"ĠisĠaĠ":9892,"context,Ġ":9893,"cti":9894,"ĠĠĠĠĠĠĠĠĠĠĠĠĠĠĠĠ//Ġ":9895,"pre><":9896,"ĠĠĠĠĠĠĠĠfromĠ":9897,"ones(":9898,"ĠĠĠĠdefĠforward(self,Ġ":9899,"index(":9900,":ĠfunctionĠ":9901,"abstract":9902,"docutil":9903,"jsonĠ":9904,"yaml_":9905,"literalĠ":9906,")Ġ=>Ġ{":9907,"even":9908,"http_":9909,"bufferĠ":9910,"identifier":9911,"ĠĠĠĠĠĠĠĠParameters":9912,"single_":9913,"boar":9914,"16x8_tĠ":9915,"actualĠ":9916,"ĠĠĠĠĠĠĠĠassert.equal(moment([":9917,"############":9918,"[5":9919,"ts.":9920,"ĠĠĠĠSeeĠ":9921,"functionĠ(s)Ġ{":9922,"Vo":9923,"hostĠ":9924,"Composition":9925,"btnĠbtn-":9926,"ĠĠĠĠwithĠpytest.raises(":9927,"(*args,Ġ":9928,"Synaptic":9929,"avId":9930,"channels_":9931,"End()":9932,"CFUNCTYPE(":9933,"Sli":9934,"ĠĠĠĠdefĠ__repr":9935,"]Ġ*Ġ":9936,"pa_":9937,"jpg":9938,"loc_":9939,"']Ġ==Ġ'":9940,"sources":9941,"14,Ġ":9942,"paramsĠ=Ġ":9943,"------------------------------------------------":9944,"happen":9945,"ĠĠĠĠĠĠĠĠĠĠĠĠĠĠĠĠĠĠ'":9946,"attack":9947,"2],Ġ":9948,"namedĠ":9949,"min,Ġ":9950,"ae":9951,"ATE_":9952,"&Ġ0x":9953,"#ĠCopyrightĠ(c)Ġ":9954,"Permission":9955,"Struct":9956,"}),":9957,"ĠĠĠĠĠĠĠĠĠĠĠĠĠĠĠĠĠĠĠĠĠĠĠĠĠĠĠĠĠĠĠĠĠĠĠĠĠĠĠĠĠĠĠ":9958,"__webpack_require__":9959,"skip_":9960,"Mag":9961,"ABLEĠ":9962,"phase_":9963,"Single":9964,"VE":9965,"forĠthisĠ":9966,"Account":9967,"LanguageĠ":9968,"(0x":9969,"Defini":9970,"f.read":9971,"UpdateĠ":9972,"ĠĠĠĠif(((a":9973,"1)Ġ*Ġ":9974,"TEST_":9975,"meanĠ":9976,"start()":9977,"ĠĠĠĠĠĠĠĠt.":9978,"pandasĠ":9979,"class=\"sig-param":9980,"<emĠclass=\"sig-param":9981,"ĉĠ*Ġ@returnĠ{Date}ĠĠĠĠ":9982,"ĉvarĠd1Ġ=ĠDate.parse":9983,"Synaptic['":9984,"cache_":9985,"suchĠasĠ":9986,"Chro":9987,"BR":9988,"%M":9989,"IS_":9990,"we'reĠ":9991,"ĠĠĠĠpostSynaptic['":9992,"array.":9993,"Pipe":9994,"frame.":9995,"encryp":9996,"C.":9997,"{Ġ\\":9998,"termine":9999,"id.":10000,"<li><aĠhref=\"":10001,"Dense":10002,"s.push(":10003,"SU":10004,"max_length=":10005,"_('":10006,"Builder":10007,"n)Ġ{":10008,"ĠĠĠĠ.":10009,"Place":10010,"z.":10011,"ance_":10012,"view(":10013,"#-----------------------------------------------------------------------------":10014,"</th>":10015,"defined(":10016,"Root":10017,"Sph":10018,"ĠĠĠĠĠĠĠĠnum_":10019,"th_":10020,"results":10021,"name:":10022,"learning_rate":10023,"variance":10024,"-12":10025,"MT":10026,"max-":10027,"338":10028,"å¾":10029,"older":10030,"Unicode":10031,"startswith('":10032,"nn.Module):":10033,"adjust":10034,"Disable":10035,"a:":10036,"summary_":10037,"apply_":10038,"Has":10039,"ingĠandĠ":10040,"collapse":10041,"opacity":10042,"ru":10043,"zoneĠ":10044,"ĠĠĠĠĉa1840":10045,"-4":10046,"MAP":10047,"DNA":10048,"tp.":10049,"ĠĠĠĠĠĠĠĠĠĠĠĠprint(":10050,"Draw":10051,"strĠ=Ġ":10052,"sĠinĠaĠ":10053,"audio":10054,"ĠĠĠĠĠĠĠĠdelĠ":10055,"ĠĠĠĠĠĠĠĠĠĠifĠ(":10056,"ä¸Ń":10057,"quad":10058,"]ĠLT":10059,"crop_":10060,"variable_":10061,"Controller":10062,"np.random.":10063,"128,Ġ":10064,"uint64":10065,"Parameters:":10066,"x1":10067,"flex-":10068,"ĠĠĠĠĠĠĠĠIfĠ":10069,"(2)":10070,"disk":10071,"list):":10072,"tur":10073,"Ġ=Ġ0.":10074,"ctiveĠ":10075,"679":10076,"target,Ġ":10077,"ĠĠĠĠĠĠĠĠĠĠĠĠĠĠĠĠifĠnotĠ":10078,"=args.":10079,"Msg":10080,"ĠĠĠĠĠĠĠĠĠĠĠĠĠĠĠĠtry:":10081,"link_function('gl":10082,"radiu":10083,"gotoĠ__pyx_L":10084,"100%;":10085,"ous":10086,"(name,Ġ":10087,",ĠthenĠ":10088,"Mini":10089,"4954":10090,"angleĠ":10091,"Libr":10092,"#includeĠ\"":10093,"get_output_":10094,"torch.Tensor":10095,"search.":10096,"giveĠ":10097,"orĠ(":10098,":ĠE":10099,"1],Ġ":10100,"tuple_":10101,")Ġ&&Ġ":10102,"imgĠ=Ġ":10103,"AVE_":10104,"ente":10105,"IĠwantĠtoĠ":10106,"d.get":10107,"which":10108,"FN_ATTR":10109,"DEFAULT_FN_ATTR":10110,"x=":10111,"all()":10112,"QtCore.":10113,"s=None):":10114,"flags.":10115,"ĠĠĠĠĠĠĠĠifĠ(!":10116,"aggreg":10117,"child_":10118,"appear":10119,"(m":10120,"avatar":10121,"ĠĠĠĠĠĠĠĠĠĠĠĠifĠlen(":10122,"type':Ġ'":10123,"sim":10124,"macro":10125,"Init":10126,"1_3_":10127,"thumb":10128,"<emĠclass=\"sig-param\"><spanĠclass=\"":10129,"open(\"":10130,"specialĠ":10131,"\"Ġsrc=\"":10132,"\"Ġ+":10133,"ReturnsĠ":10134,"[2],Ġ":10135,"aniti":10136,"Dict[str,Ġ":10137,"height,Ġ":10138,"AnyĠ":10139,":ss":10140,"',Ġ'#":10141,"LM":10142,"editor":10143,"color=":10144,"settings":10145,"odd":10146,"2012":10147,"ANS":10148,"rep":10149,"lev":10150,"ĠĠĠĠĉa79":10151,"overrideĠ":10152,"]Ġ=ĠNone,":10153,"Duration":10154,"Hist":10155,"OT":10156,"sĠwillĠbeĠ":10157,"files.":10158,"Diff":10159,":beforeĠ{":10160,"ĠĠĠĠprint":10161,"CanĠ":10162,"power":10163,"ĉ},":10164,"checkpoint_":10165,"split('_":10166,"~~~~~~~~":10167,"<emĠclass=\"sig-param\"><spanĠclass=\"n\">":10168,"int]":10169,"ĉĉthis.set":10170,"378":10171,"ped_":10172,"axis=0)":10173,"Override":10174,"GroupQuota.":10175,"histo":10176,"oo":10177,"dict__":10178,"axis=1)":10179,"rever":10180,"Suggestion":10181,"len,Ġ":10182,"line(":10183,"ĠĠbackground-color:Ġ#":10184,"233":10185,"Async":10186,"TAG":10187,"ATTRS_":10188,"<spanĠclass=\"sig-paren\">":10189,"[0]Ġ==Ġ":10190,"useful":10191,"querie":10192,"action=\"":10193,"protocols.":10194,"hĠ=Ġ":10195,"ĠinĠenumerate(":10196,"shel":10197,"_size,Ġ":10198,"Active":10199,"ttenĠ":10200,".data":10201,".java":10202,"COM":10203,";Ġ++":10204,"async":10205,"0.0,Ġ0.0,Ġ":10206,"Ġ=ĠCFUNCTYPE(":10207,"ic.":10208,"Bl":10209,"2Ġ=Ġ6;":10210,"Project":10211,"(__file__":10212,"aler":10213,"share":10214,"å¹":10215,"aĠ(":10216,"next(":10217,"ĠĠĠĠĉa2034":10218,"If":10219,"\"Ġ:Ġ":10220,"additionalĠ":10221,"[(":10222,"ĠĠĠĠĉa82":10223,"8955":10224,"selectedĠ":10225,"platform::":10226,"ĠĠĠĠĠĠĠĠitem":10227,"functionĠtoĠ":10228,"java.":10229,"analysis_":10230,"deploy":10231,"color_":10232,"loss.":10233,"sĠisĠnotĠNone:":10234,"edgeĠ":10235,"subscribe":10236,"ĠĠĠĠĠĠ__pyx_t_":10237,"scriptĠtype=\"text/javascript":10238,"extension__Ġ({Ġ\\":10239,"elifĠtĠ==ĠNPY":10240,"Ġ=Ġ((((((a":10241,"camer":10242,"pos,Ġ":10243,"testing.":10244,"token_type":10245,"regression":10246,"onem2m-":10247,"PyObject*Ġ":10248,"Micro":10249,"1.3.0/":10250,"0.xsd',Ġ":10251,"NoneĠorĠ":10252,"!=Ġ'":10253,"method.":10254,"1b":10255,"gc":10256,"parameters.":10257,"sĠ/Ġ":10258,"ĠĠĠĠĉa1484":10259,"null,":10260,"remote":10261,"/v1.3.0/":10262,"rst/vc":10263,"xsd/v1.3.0/":10264,"python/serializer":10265,"s/openmtc-onem2m-":10266,"s/openmtc-python/serializer":10267,"xml/xsd/v1.3.0/":10268,"1_3_0.xsd',Ġ":10269,"rst/vcs/openmtc-python/serializer":10270,"s/openmtc-onem2m-xml/xsd/v1.3.0/":10271,"rst/vcs/openmtc-python/serializers/openmtc-onem2m-xml/xsd/v1.3.0/":10272,"rst/vcs/openmtc-python/serializers/openmtc-onem2m-xml/xsd/v1.3.0/CD":10273,"CRIP":10274,",ĠwhichĠ":10275,"CodeĠ":10276,"cali":10277,"1739":10278,"lookĠ":10279,"prefixĠ":10280,"finally:":10281,"ĉfĉt":10282,"ctypes.c_":10283,"V_":10284,"\"Ġ(":10285,"media":10286,"INCLUD":10287,"s\\":10288,"ĠĠĠĠ========":10289,"ness":10290,"Ġ=Ġnp.array(":10291,"verageĠ":10292,"params,Ġ":10293,"ko":10294,"Regist":10295,"ationĠ=Ġ":10296,"tre":10297,"ES.":10298,"/\\":10299,"S)":10300,"ylabel":10301,"unce":10302,"Spec":10303,"s</a>":10304,"classĠ=Ġ":10305,"plt":10306,"table-":10307,"body_":10308,"se.":10309,"ForĠexample":10310,"REN":10311,"lowerĠ":10312,"Ord":10313,"MAX":10314,"alog.":10315,"neon_v":10316,"%,Ġ":10317,"doc_":10318,"ARG":10319,"mock.":10320,"eff":10321,"digest":10322,"trainĠ":10323,"5404":10324,"{%ĠblockĠ":10325,"float32)":10326,"libcity.model.traffic_flow_":10327,"$expor":10328,"cateĠ":10329,"forĠxĠinĠ":10330,"URI":10331,"Date.CultureString":10332,"DEFAULT_FN_ATTRS":10333,"pc":10334,"æİ":10335,"ĠĠĠĠĠĠĠĠĠĠĠĠĠĠĠĠĠĠĠĠĠĠĠĠ#Ġ":10336,"-5":10337,"|ĠĠ":10338,"labels,Ġ":10339,"ing=":10340,"Model.":10341,"ĠĠĠĠĉa3357":10342,"Datab":10343,"ger":10344,"rem;":10345,"dev/":10346,"Credential":10347,"embedding_":10348,"moment.":10349,"user_id":10350,"209":10351,"store_true":10352,"_set":10353,"(functionĠ()Ġ{":10354,"coco":10355,"5969":10356,"simpli":10357,"ÂłÂł":10358,"1',":10359,"names":10360,"Socket":10361,"cm.":10362,"root,Ġ":10363,"nt":10364,"EnterĠ":10365,"Shape":10366,"è½":10367,"ĠĠĠĠĉa177":10368,"i+":10369,"applyĠ":10370,"ITEM":10371,"features.":10372,"eck":10373,"summary":10374,"allclose(":10375,"tlen":10376,"chro":10377,"%s\"Ġ%Ġ(":10378,"<dlĠclass=\"":10379,"ATTRS_o_":10380,"OfĠ":10381,"(),Ġ'":10382,"Storage":10383,"NoteĠthatĠ":10384,"(-1,Ġ":10385,"theyĠareĠ":10386,"ĠĠĠĠĠĠĠĠĠĠĠĠreturnĠNone":10387,"sĠbyĠ":10388,"Model):":10389,"(this);":10390,"0'":10391,"Evalu":10392,"dim_":10393,"100)":10394,"binary":10395,"2011,Ġ":10396,"%s\"Ġ%Ġ":10397,"fullyĠ":10398,"å·":10399,"shell":10400,"1011":10401,"cross_":10402,"-3":10403,"FloatTensor":10404,"num,Ġ":10405,"ĠisĠtheĠ":10406,"Grid":10407,"ĠĠĠĠĠĠĠĠreturnĠTrue":10408,"tmp_":10409,"PyLong_SHIFT)Ġ|Ġ(":10410,")Ġ<<ĠPyLong_SHIFT)Ġ|Ġ(":10411,"ĠĠĠĠĠĠĠĠoutput_":10412,"lash":10413,"Set(":10414,"Scroll":10415,"add({":10416,"8955934":10417,"LST":10418,"2727":10419,"ARRA":10420,"E,Ġ":10421,"backward":10422,"on.":10423,"Selection":10424,"byteĠ":10425,"maĠ":10426,"Punctu":10427,"data:Ġ":10428,"imageĠ=Ġ":10429,"SoftwareĠ":10430,"2Ġ=Ġ34Ġ;":10431,"nextState":10432,"fill_":10433,"utori":10434,"9911":10435,"string_":10436,")</span>":10437,"164":10438,"ENTĠ":10439,"\"ĠorĠ\"":10440,"sendĠ":10441,"dropdown-":10442,"atic":10443,"MAX_":10444,"qĠ=Ġ":10445,"CUR":10446,";}":10447,"descriptor":10448,"sĠ=Ġ0":10449,"itĠtoĠ":10450,",Ġ__":10451,"sĠwhichĠ":10452,"6666":10453,"a)":10454,"}'":10455,"Ġ=Ġnx.":10456,"ĠĠĠĠĠĠĠĠreturnĠNone":10457,"ĠĠĠĠĠĠĠĠtheĠ":10458,"test,Ġ":10459,"20062":10460,"whileĠ(":10461,"\"Ġstyle=\"":10462,"ctor.":10463,"lower()":10464,"1Ġ=Ġ33Ġ;":10465,"result;":10466,"decimalĠ":10467,"ObjectĠ":10468,"filterĠ":10469,"uniqueĠ":10470,"Metho":10471,"arc":10472,"RelativeĠ":10473,"unittest.TestCase):":10474,"sa.":10475,"vector<":10476,"ĠĠĠĠĉa1511":10477,"data_dir":10478,"pdf":10479,"colo":10480,"conn":10481,"open('":10482,"drop_":10483,"Ñı":10484,"hood":10485,"8716":10486,"predict_":10487,"Wrapper":10488,"\":Ġ{\"":10489,"TRAC":10490,"]|":10491,"-1:":10492,"367":10493,"ĠĠĠĠĠĠĠĠ:return:Ġ":10494,"_64":10495,"tf_":10496,"3x":10497,"graphĠ":10498,"programĠ":10499,"Cr":10500,"denĠ":10501,"fit(":10502,"Setup":10503,"(self,Ġctx":10504,"obj_":10505,"self.__class__":10506,"s`Ġ":10507,"intĠ__":10508,"this->":10509,"sess.":10510,"controller":10511,"ext.":10512,"347":10513,"java:":10514,"ordered_":10515,"Ã¡":10516,"didĠ":10517,"8468":10518,"Upper":10519,"cellspacing":10520,"task_":10521,"ded.":10522,"GRO":10523,"Data.":10524,"sIn":10525,"StateĠ":10526,"Look":10527,"]Ġ=Ġ(":10528,"rst/vcs/openmtc-python/serializers/openmtc-onem2m-xml/xsd/v1.3.0/CDT-":10529,"088":10530,"sort(":10531,"dict,Ġ":10532,"699":10533,"combine":10534,"Rece":10535,"Type,Ġ":10536,"124":10537,",Ġ'w":10538,"__(self,Ġother):":10539,"v(":10540,"accessĠ":10541,"SY":10542,"MainWindow\",Ġ\"":10543,"tleneck":10544,"aĠsingleĠ":10545,"\"Ġrole=\"":10546,"RF":10547,"abstra":10548,"16x4_tĠ":10549,"component_":10550,"Agent":10551,"label,Ġ":10552,"siveĠ":10553,"Ġ*ĠĠĠ":10554,"ĠĠĠĠĉa155":10555,"NodeĠ":10556,"s={":10557,"urs":10558,"Desc":10559,"requirement":10560,"valueĠofĠ":10561,"Password":10562,"ä¼":10563,"tree.":10564,"8x8":10565,"4/":10566,"Ġ=Ġ_link_function('gl":10567,"JP":10568,"processingĠ":10569,"Tuple[":10570,"importĠtorch.":10571,"mention":10572,"sĠ%}":10573,"conf.":10574,"Ġcf==1ĠĠ":10575,"certifi":10576,"YYYY":10577,"Ig":10578,"entri":10579,"error.":10580,"JSONĠ":10581,"rating":10582,"9,":10583,"Mapp":10584,"ffĠ":10585,"items":10586,"year,Ġ":10587,"Number(":10588,"NewĠ":10589,"77820":10590,"RĠ":10591,"fg":10592,"9Ġ":10593,"0])":10594,"][\"":10595,"ĠĠ#Ġtype:Ġ":10596,"SUB":10597,"find(":10598,"(event":10599,"topicĠ":10600,"ĠĠĠĠĠĠĠĠself,":10601,"ĠĠĠĠĠĠĠĠĠĠĠĠthis.":10602,"Short":10603,"ĉĠ*Ġ@paramĠ{Number}ĠĠĠTheĠ":10604,"transform:Ġ":10605,"ĉvarĠd1Ġ=ĠDate.parse(\"":10606,"ĠĠĠĠĉa65":10607,"sensor":10608,"Interface":10609,"Double":10610,"ffset":10611,")Ġ=Ġ":10612,"curve":10613,"sklearn.":10614,"params":10615,"parsingĠ":10616,"urllib.":10617,"5,Ġ4,Ġ":10618,"trajectory_":10619,"202":10620,"Loop":10621,"3,Ġ4,Ġ":10622,"ĠĠĠĠĉa808955934":10623,"ĠĠĠĠĠĠĠĠ}ĠelseĠ{":10624,"=None)":10625,"Definition":10626,"FOR":10627,"self.assert":10628,"splitĠ":10629,"translate(\"MainWindow\",Ġ\"":10630,"X-":10631,"689":10632,"9);":10633,"evaluate":10634,"Ġ=Ġlen(":10635,"<<Ġ\"":10636,"background:Ġ":10637,"ĠĠĠĠĠĠĠĠproc.set_input_tuple":10638,"cmp":10639,"transform_":10640,"loss,Ġ":10641,"Configuration":10642,"youĠareĠ":10643,"}_":10644,"ECK":10645,"&gt":10646,"3Ġ=Ġ32Ġ;":10647,"Null":10648,"fromĠ.ĠimportĠ":10649,"extent":10650,"guide/":10651,"ana":10652,"token,Ġ":10653,"ĠĠĠĠĠĠĠĠos.":10654,"'llĠ":10655,"-%":10656,"ĠĠĠĠĠĠĠĠprint":10657,"\"Ġvalue=\"":10658,"000000":10659,"DSS":10660,"ablyĠ":10661,"inte":10662,"models/":10663,"ized":10664,"(X":10665,"enum,ĠGL":10666,"]),":10667,"hasĠaĠ":10668,"$scope.":10669,"pĠclass=\"":10670,"defĠmain":10671,"library":10672,"shape_":10673,"80211":10674,"renderer":10675,"ĠĠĠĠĉa150":10676,"cid":10677,"ĠĠĠĠĠĠĠĠĠĠĠĠcontinue":10678,"try_":10679,"fast_":10680,"1.0Ġ":10681,"web_":10682,"cannotĠbeĠ":10683,"Optim":10684,"Edit":10685,"Iso":10686,"^{":10687,"FUN":10688,"RET":10689,"os.get":10690,"source.":10691,"<strong>":10692,"</dd></dl>":10693,"ACTION":10694,"libcity.model.traffic_flow_prediction.":10695,"undle":10696,"ĠĠĠĠĉa139":10697,"046":10698,"manager":10699,"s__":10700,"{1}":10701,"Ġ=Ġ['":10702,"missing":10703,"entry.":10704,"function(){":10705,"Dete":10706,".getElement":10707,"å½":10708,"æ¨":10709,"///ĠĠĠĠ":10710,"1Ġ=Ġ10;":10711,"direct_":10712,"ĠĠ__retĠ=Ġ":10713,"pyedbglib.protocols.":10714,"ĠĠĠĠĠĠĠĠĠĠĠĠĠĠĠĠĠĠĠĠĠĠĠĠĠĠĠĠĠĠĠĠĠĠĠĠĠĠĠĠĠ":10715,"Operator(":10716,"__webpack_require__)Ġ{":10717,"5/":10718,"ĠĠĠĠxĠ=Ġ":10719,"ĠĠĠĠĉa50":10720,"lĠimportĠ":10721,"_id\":Ġ\"":10722,"include_":10723,"importĠdatetime":10724,"to-":10725,"objectĠtoĠ":10726,"ä¸º":10727,"Size(":10728,"any(":10729,"CHAR":10730,"è¡Į":10731,"'})":10732,"most_":10733,"()).":10734,"_w":10735,"ĠĠĠĠĠĠĠĠĠĠĠĠx":10736,"physi":10737,"EP":10738,"subtra":10739,"elseĠifĠ(":10740,"mmingĠ":10741,"NING":10742,"require(\"":10743,"848":10744,"public_":10745,"path(":10746,"Sample":10747,"encoder":10748,"GRE":10749,"P<":10750,"individ":10751,"sĠthatĠareĠ":10752,"ValueĠSuggestion":10753,"ĠĠĠĠĉa28":10754,"acro":10755,"IdĠ=Ġ":10756,"invoke":10757,"Extension":10758,"directlyĠ":10759,"'][nextState":10760,"QtCore.Q":10761,"RP":10762,"ĠĠĠĠĠĠĠĠĠĠĠĠĠĠĠĠ<td>":10763,"Err_":10764,"Manager.":10765,"3;":10766,"pybuffer":10767,"25,Ġ":10768,"cĠimportĠ":10769,"stock":10770,"geome":10771,"-MM-":10772,"day_":10773,"templateĠ<":10774,"login_":10775,"ĠĠĠĠdefĠ_get_":10776,"/usr/include/":10777,"most":10778,"bottom:Ġ":10779,"ArrayĠ":10780,"ji":10781,"sb":10782,"#ĠUnlessĠrequiredĠbyĠapplicableĠlawĠorĠagreedĠtoĠinĠwriting,Ġsoftware":10783,"nomi":10784,"CultureInfo":10785,"à½":10786,"ĠĠĠĠĠĠĠĠ----------":10787,"uint8":10788,"tryĠtoĠ":10789,"WHEREĠ":10790,"device_":10791,"+0":10792,"pĠinĠ":10793,"video_":10794,"synta":10795,"å®ļ":10796,"Origin":10797,"s,Ġ\"":10798,"read(":10799,"img,Ġ":10800,"+-+-+-+-":10801,"0);Ġ\\":10802,"289":10803,"768":10804,"nd_":10805,"domainĠ":10806,"class(":10807,"vote":10808,"_PRE":10809,"body.":10810,"convolution":10811,"wrong":10812,"0,Ġ1,Ġ":10813,"InitialĠ":10814,"dim)":10815,"[key]Ġ=Ġ":10816,"argparse.":10817,"issueĠ":10818,"ĠĠĠĠĉa111":10819,"str):":10820,"above":10821,"-Ġ-Ġ":10822,"results.":10823,"secre":10824,"BIT":10825,"HTTPĠ":10826,"estimator":10827,"House":10828,"ĠĠĠĠĠĠĠĠ};":10829,"prun":10830,"Gre":10831,"ĠĠĠĠĉa87":10832,"missingĠ":10833,"ä¸į":10834,"Standard":10835,"har":10836,"tl":10837,"ĠĠĠĠĠĠĠĠĠĠĠĠĠĠĠĠvarĠ":10838,"Expr":10839,"sĠ=Ġ[];":10840,"ä¿":10841,"ĠĠĠĠĠĠĠĠĠĠĠĠp":10842,"validation_":10843,"s[2]":10844,"token(":10845,"',Ġ'--":10846,"atĠleastĠ":10847,"color=\"":10848,"834":10849,"statusĠ=Ġ":10850,"LOAD":10851,"changed":10852,"ĉĠĠĠĠĠĠĠĠĠĠĠĠĠĠĠĠĠĠĠĠĠĠĠĠ":10853,"Liter":10854,"Kernel":10855,"lision":10856,"child.":10857,"ĠĠĠĠĠĠĠĠl":10858,"trueĠifĠ":10859,"env_":10860,"callable":10861,"Save":10862,"more":10863,"ComputeĠ":10864,"forĠ(varĠiĠ=Ġ0;ĠiĠ<Ġ":10865,"FE":10866,"tgt_":10867,"cellĠ":10868,"Entity":10869,"ĠĠĠĠĉa1050":10870,"django.contrib.":10871,"can_":10872,"ACH":10873,"CharField(":10874,"i)Ġ{":10875,",Ġu'":10876,"uniform":10877,"ĠĠTheĠ":10878,"onceĠ":10879,"Jap":10880,"</strong>":10881,"properties":10882,"MITĠ":10883,"7_":10884,"\"ĠandĠ":10885,"ìĿ":10886,"ability":10887,"grp":10888,"filepath":10889,"v1.":10890,"sĠhaveĠ":10891,"unit_":10892,"msgĠ=Ġ":10893,"\">Â¶</a></dt>":10894,"elements":10895,"|Ġ**":10896,"dst_":10897,"github.":10898,"mak":10899,"it('":10900,"ĠĠĠĠglobalĠ":10901,"target.":10902,"Localizer.":10903,"Mark":10904,"ĠĠĠĠĉa179":10905,"codeĠ=Ġ":10906,"ĠĠĠĠĠĠĠĠĠĠĠĠĠĠĠ'":10907,"visu":10908,"Member":10909,"ĠĠĠĠĠĠĠĠoutput":10910,",Ġ1.":10911,"ĠĠĠĠurl":10912,"sic":10913,"data)Ġ{":10914,"datat":10915,"ĉĠ*Ġ@returnĠ{Boolean":10916,"gray":10917,"ĉĠĠĠĠĠĠĠĠvarĠ":10918,"BM":10919,"virtu":10920,"reset_":10921,"noise":10922,"reallyĠ":10923,"cip":10924,"offĠ":10925,"!\")":10926,"wx.":10927,"wellĠ":10928,"\"Ġtype=\"text/":10929,"795":10930,"ĠĠĠĠwithĠopen(":10931,"broad":10932,"warnings.":10933,"ĠĠĠĠĉa808":10934,"exports,Ġ__webpack_require__)Ġ{":10935,"function(module,Ġexports,Ġ__webpack_require__)Ġ{":10936,"endor":10937,")Ġ==Ġ'":10938,"smallĠ":10939,"12.":10940,"ĠĠĠĠĠĠĠĠĠĠĠĠĠĠĠĠĠĠĠĠĠĠĠĠĠĠĠĠĠĠĠĠĠĠĠĠĠĠĠĠĠĠĠĠĠ":10941,"177":10942,"æľī":10943,"nf":10944,"labels_":10945,"dropout_":10946,"orientation":10947,"âĢĻ":10948,"$D.get":10949,"common.":10950,"zĠ":10951,"struct.":10952,"this[":10953,"ä»¶":10954,"Big":10955,"1,1,":10956,"proc.get_output_":10957,"ifĠweĠ":10958,"binding":10959,"usingĠaĠ":10960,"Named":10961,"GIVER":10962,"freeĠ":10963,"nil":10964,"pylint":10965,"DIS":10966,"id(":10967,"list:":10968,"ĠĠĠĠĉa74":10969,"identity":10970,"GIVEREF":10971,"Int(":10972,"__pyx_memoryview_":10973,"deriv":10974,"correspond":10975,"LOW":10976,"sever":10977,"ĉĉĉifĠ":10978,"ISE":10979,"locationĠ":10980,"Battle":10981,"batche":10982,"rege":10983,"sĠ>Ġ":10984,"optimizer.":10985,"Stri":10986,"used.":10987,"module_":10988,"[i])":10989,"whereĠtheĠ":10990,"dĠforĠ":10991,"DATE":10992,"QUEST":10993,"ĠĠĠĠĠĠĠĠs":10994,"ado":10995,"ĠĠĠĠĠĠĠĠĠĠĠĠĠĠĠĠĠĠĠĠifĠ(":10996,"ĠĠĠĠĠĠĠĠĠĠreturnĠ":10997,"groups(":10998,"months":10999,"expr.":11000,"Split":11001,"ĠĠĠĠĠĠĠĠrequired":11002,"includingĠ":11003,"White":11004,"__PYX_ERR(1,Ġ":11005,"Align":11006,"erĠandĠ":11007,"c3":11008,"Ġ=Ġplt.":11009,".java:":11010,"ĠĠĠĠĠĠĠĠĠĠĠĠĠĠĠĠ#":11011,"_COL":11012,"yĠinĠ":11013,"=='":11014,"cell_":11015,"moment(":11016,"discord":11017,"ĠĠĠĠg":11018,"requests.":11019,"ArgumentParser":11020,"Metadata":11021,"vices":11022,"10);":11023,"ZZ":11024,"155":11025,"2Ġ=Ġ7;":11026,"capture":11027,"',Ġ{":11028,"mi-":11029,"__name__)":11030,"\\3\\2\\2\\2\\u0":11031,"Constru":11032,"suppli":11033,"ar_":11034,"assert(":11035,"pyxb.utils.utility.Location(u'/home/":11036,"copyrightĠ":11037,"7,Ġ6,Ġ":11038,"quick":11039,"isn'tĠ":11040,"res_":11041,"3,Ġ2,Ġ1,Ġ0);":11042,"snap":11043,"Store":11044,"xlabel":11045,"definition\">Â¶</a></dt>":11046,"leadingĠ":11047,"\"Ġtitle=\"PermalinkĠtoĠthisĠdefinition\">Â¶</a></dt>":11048,"c1":11049,"'));":11050,"{},":11051,"containingĠtheĠ":11052,"copy.":11053,"mediate":11054,"'Ġ%}":11055,"keys(":11056,"-n":11057,".ui-":11058,"VO":11059,"Diction":11060,"faĠ":11061,"keys():":11062,"THE":11063,"os.path.abspath":11064,"ĠĠĠĠĠĠĠĠelifĠself.":11065,"Cance":11066,"ctĠtheĠ":11067,"LLLL":11068,"libraryĠ":11069,"developer.":11070,"ĠĠ|Ġ":11071,"ĠĠĠĠĠĠĠĠupdate_":11072,"realĠ":11073,"layout_":11074,"metric_":11075,"composition":11076,"ĠĠĠĠĠĠĠĠexcept:":11077,"ted,Ġ":11078,"s.get_":11079,"ument_":11080,"classĠ_":11081,"todo":11082,"activi":11083,"chem":11084,"auth.":11085,"',ĠNone,Ġ[":11086,"k,ĠvĠinĠ":11087,"#ĠLicensedĠunderĠtheĠApacheĠLicense,ĠVersionĠ2.0Ġ(theĠ\"License\");":11088,"corner":11089,"func(":11090,"Pack":11091,"ifĠitĠ":11092,"encoder.":11093,"ĠĠĠĠdefĠ__repr__(self):":11094,"0):":11095,"utils":11096,"mn":11097,"field.Ġ*/":11098,"239":11099,"ĠĠĠĠdataĠ=Ġ":11100,",ĠthisĠ":11101,"Reserve":11102,"453":11103,"Ren":11104,"ĠĠĠĠĠĠĠĠĠĠĠĠĠĠĠĠ</td>":11105,"ObjectName(\"":11106,"{%ĠendifĠ":11107,"s|":11108,"port.":11109,"cluster_":11110,"Port":11111,"ght":11112,"s])":11113,"past":11114,"16/":11115,"1200":11116,"),ĠĠ#Ġ":11117,"duce":11118,"primitive":11119,"Ev":11120,"Any,Ġ":11121,"7-":11122,"muchĠ":11123,"value);":11124,"âķĲ":11125,"ĠĠPyObjectĠ*":11126,"format,Ġ":11127,"integr":11128,"Inst":11129,".shape[0]":11130,"fm":11131,"</a>Ġ":11132,"meansĠ":11133,"ĠĠĠĠĉ}":11134,"ĠĠĠĠĠĠ});":11135,"ĠĠĠĠĠĠĠĠĠĠĠĠifĠisinstance(":11136,"int,Ġdefault=":11137,"[i]Ġ":11138,"date.":11139,"double_":11140,"éĹ":11141,"130":11142,"random.randint(":11143,"220":11144,"fixĠ":11145,"Video":11146,"checkbox":11147,"barĠ":11148,"length)":11149,"ĠĠĠĠĉa650":11150,".css":11151,"Send":11152,"instruction":11153,"contact":11154,"here.":11155,"persist":11156,"ĠĠĠĠĠ'":11157,"stroke":11158,"FirstĠ":11159,"(functionĠ(":11160,"30,Ġ":11161,"emo":11162,"s=True)":11163,"SymbolĠ=Ġ":11164,"C,Ġ":11165,"curr":11166,"BitĠ":11167,"æĿ":11168,"less":11169,"ND":11170,"WIN":11171,"non_":11172,"Ġ*ĠĠĠĠĠcdefĠ":11173,"processing.":11174,"coreĠ":11175,"loadingĠ":11176,"ĠĠĠĠĉa48":11177,"Step":11178,"lower(":11179,"d3":11180,"tempor":11181,"speed_prediction.":11182,"respe":11183,"ALLĠ":11184,"vingĠ":11185,"à¦":11186,"ĉĠĠĠĠĠĠĠĠĠĠĠĠ}":11187,"other,Ġ":11188,"failed":11189,"Ima":11190,"à°":11191,"ofĠshapeĠ":11192,"ago":11193,"-link":11194,"size()":11195,"expire":11196,"Rot":11197,"dĠwithĠ":11198,"Remove":11199,";ĠiĠ<Ġ":11200,"corpu":11201,"scenari":11202,"IT_":11203,"refĠ":11204,"at.":11205,"suite":11206,"(Ġ'":11207,"orĠnotĠ":11208,"inspe":11209,"throughĠ\"":11210,":ĠAĠ":11211,"</span><spanĠclass=\"o\">.":11212,"eĠ=Ġ":11213,"pag":11214,"ĠĠĠĠĉa739":11215,"docutilsĠ":11216,"BL":11217,"__ovldĠ__cnfnĠconvert_":11218,"KĠ":11219,"details.":11220,"coordinateĠ":11221,"fille":11222,".json":11223,"ĉĠĠĠĠvarĠ":11224,"sender":11225,"Part":11226,"Body":11227,"(str":11228,"By.":11229,"pickle.":11230,"asc":11231,"commentĠ":11232,"memoryview":11233,"hl":11234,"Config(":11235,"_mm_":11236,"tests.":11237,"']))":11238,"list[":11239,"ĠĠĠĠĠĠĠĠ..Ġ":11240,"ĠĠĠĠĉa89":11241,"pyplotĠ":11242,"width='":11243,"_interval":11244,"Ġ=Ġpyxb.binding.":11245,"ĠĠĠĠĉĉ":11246,"sĠ=Ġ{'":11247,"ĠĠĠĠĉa118":11248,"ĠĠĠĠ'24":11249,"ĠĠĠĠ})":11250,"isĠnotĠNone":11251,"\"Ġheight=\"16":11252,"ĉĠ*ĠExample":11253,"ĠĠĠĠĉa143":11254,"private_":11255,"threeĠ":11256,"SEĠ":11257,"åŀ":11258,"ĠĠ/*Ġ\"View.MemoryView\":":11259,"39;":11260,"compareĠ":11261,"<tdĠdata-":11262,"_url":11263,"optimize":11264,"astype(np.":11265,"WORD":11266,"ĉDate.today().":11267,"Develo":11268,"LED":11269,"ĉ$P.":11270,"!==Ġ'":11271,"5f":11272,"Sin":11273,"Error:Ġ":11274,"370":11275,"_task":11276,"margin:Ġ":11277,"#ĠSeeĠtheĠLicenseĠforĠtheĠspecificĠlanguageĠgoverningĠpermissionsĠand":11278,"}Ġ[":11279,"EachĠ":11280,"s*":11281,".\"":11282,"ĠĠĠĠĠĠĠĠy":11283,"added_":11284,"meter":11285,"(g":11286,"_h":11287,"123":11288,"labelĠ=Ġ":11289,"meth:`":11290,"evaluator":11291,"trigger":11292,"#ĠlimitationsĠunderĠtheĠLicense.":11293,"time)":11294,"EndĠ":11295,"seek":11296,"erĠinĠ":11297,"NOTE":11298,"dil":11299,"df['":11300,"save(":11301,"2b":11302,"AME":11303,"#ĠdistributedĠunderĠtheĠLicenseĠisĠdistributedĠonĠanĠ\"ASĠIS\"ĠBASIS,":11304,"ally,Ġ":11305,"198":11306,"dynamic":11307,"tokenizer.":11308,"warn_cell":11309,"save()":11310,"pyxb.utils.utility.Location(u'/home/rst/vcs/openmtc-python/serializers/openmtc-onem2m-xml/xsd/v1.3.0/CDT-":11311,"ĠĠĠĠĠĠĠĠ{\"name\":Ġ\"":11312,"()Ġ=>Ġ{":11313,"=0)":11314,")Ġ==Ġ0:":11315,"MassĠ":11316,"759":11317,"well":11318,"likeli":11319,"ticalĠ":11320,"ĠĠifĠ(!":11321,"channel_":11322,"Atta":11323,"started":11324,"ĉĉ\"%":11325,")?/\",":11326,"don":11327,"hadĠ":11328,"'Ġ:Ġ'":11329,"betterĠ":11330,"FullYear":11331,"React":11332,"ĉĉĉ}ĠelseĠ{":11333,"_FILE":11334,"\"$":11335,"ĠĠĠĠĠĠĠĠĠĠĠĠĠĠĠĠpass":11336,"29267":11337,"categoryĠ":11338,"_URL":11339,"python_":11340,"erĠforĠ":11341,"maximum":11342,"Linear(":11343,"twe":11344,"delimiter":11345,"#ĠWITHOUTĠWARRANTIESĠORĠCONDITIONSĠOFĠANYĠKIND,ĠeitherĠexpressĠorĠimplied.":11346,"sorted_":11347,"IĠcanĠ":11348,"<codeĠclass=\"":11349,"',Ġ[":11350,"variant":11351,"svg":11352,"placehold":11353,"long)digit":11354,"Bi":11355,"checked":11356,"mp_":11357,"ĠĠĠĠĠĠĠĠĠĠĠĠ(r'(":11358,"ascii":11359,"ĠĠĠĠReturns:":11360,"DST":11361,"perc":11362,"':Ġ{'":11363,"Exception):":11364,"contrib":11365,"statistic":11366,"Numer":11367,"Attrib":11368,"FĠ":11369,"ally":11370,"address":11371,"Quanti":11372,"\"Ġheight=\"24":11373,"warn_cell_id\":Ġ\"":11374,"110":11375,"1)Ġ+Ġ":11376,"disable=":11377,"(this.get":11378,"unittest":11379,"7,Ġ6,Ġ5,Ġ4,Ġ":11380,"en-":11381,"dict):":11382,"dĠ=ĠFalse":11383,"NC":11384,"squ":11385,"ĠĠĠĠĠĠĠĠ.":11386,"validationĠ":11387,"datetime.now":11388,"memory_":11389,",Ġ1,Ġ":11390,"17;":11391,"while":11392,"COPY":11393,"ĠĠĠĠĉif":11394,"Design":11395,"lib/python2.":11396,"TEXTURE":11397,"reward":11398,"{%ĠendblockĠ":11399,",Ġ-":11400,"py\",":11401,"**kw":11402,"t.get":11403,"BaseĠ":11404,"OneĠ":11405,"----:Ġ|Ġ:":11406,"Done":11407,".png\"Ġwidth=\"24":11408,"ĠĠĠĠmodel.":11409,"ready":11410,"range(self.":11411,"struct_":11412,"TAR":11413,"MaybeSequence[":11414,"d;":11415,"fs":11416,"æĹ¶":11417,"UsingĠ":11418,"Ð»":11419,"frac":11420,"subo":11421,"e.Ġ":11422,"16\"Ġheight=\"16":11423,"50,Ġ":11424,"extract":11425,"builder.":11426,".png\"Ġwidth=\"24\"Ġheight=\"24":11427,"989":11428,"documentation":11429,"them":11430,"edge_":11431,"99204":11432,"DELE":11433,"ĠĠĠĠĠĠĠĠĠĠĠĠĠĠĠ</tr>":11434,".png\"Ġwidth=\"16\"Ġheight=\"16":11435,"{%ĠendifĠ%}":11436,"ĠĠĠĠĠĠĠĠĠĠĠĠĠĠĠĠ<tdĠdata-":11437,"ĠĠĠĠĠĠĠĠĠĠĠĠĠĠĠĠĠĠĠĠ<imgĠsrc=\"flags/flags-iso/shiny/":11438,"ĠĠĠĠĠĠĠĠĠĠĠĠĠĠĠĠĠĠ<tdĠclass=\"col-":11439,"ĠĠĠĠĠĠĠĠĠĠĠĠĠĠĠĠĠĠ<tdĠclass=\"col-desktop":11440,"ĠĠĠĠĠĠĠĠĠĠĠĠĠĠĠĠĠĠ<imgĠsrc=\"flags/flags-iso/shiny/":11441,"wy-nav-":11442,"mobile\"Ġdata-order=\"":11443,"ĠĠĠĠĠĠĠĠĠĠĠĠĠĠĠĠ<tdĠdata-order=\"":11444,"ĠĠĠĠĠĠĠĠĠĠĠĠĠĠĠĠĠĠ<tdĠclass=\"col-mobile\"Ġdata-order=\"":11445,"ĠĠĠĠĠĠĠĠĠĠĠĠĠĠĠĠĠĠ<tdĠclass=\"col-desktop\"Ġdata-order=\"":11446,"ĠĠĠĠĠĠĠĠĠĠĠĠĠĠĠĠĠĠ<imgĠsrc=\"flags/flags-iso/shiny/24":11447,"Replace":11448,"Japan":11449,"#ĠyouĠmayĠnotĠuseĠthisĠfileĠexceptĠinĠcomplianceĠwithĠtheĠLicense.":11450,"259":11451,"ImportError:":11452,"http.":11453,"booleanĠ":11454,"group(":11455,"query(":11456,"std::vector<":11457,"DR":11458,"Ġ=Ġ16;":11459,"name);":11460,"eg":11461,"py3.":11462,"size=(":11463,"hoo":11464,"COUN":11465,"4Ġ=Ġ33Ġ;":11466,"720":11467,"past_":11468,"':Ġ('":11469,"how":11470,"ONĠ":11471,"tooltip":11472,"853":11473,"loadĠtheĠ":11474,"task.":11475,"Container":11476,"]{":11477,"5Ġ=Ġ34Ġ;":11478,"Annot":11479,"CannotĠ":11480,"consum":11481,"317":11482,"qt":11483,"docstring":11484,"system_":11485,"Ġ=ĠCFUNCTYPE(None,Ġ":11486,"\",Ġ\"warn_cell_id\":Ġ\"":11487,"'.split('_":11488,"optional):Ġ":11489,".png\"Ġwidth=\"24\"Ġheight=\"24\"Ġalt=\"":11490,".png\"Ġwidth=\"16\"Ġheight=\"16\"Ġalt=\"":11491,".val":11492,"Fig":11493,"åĨ":11494,"wise_":11495,"launch":11496,"%s,Ġ":11497,"_id=":11498,"typeĠ==Ġ\"":11499,"åŀĭ":11500,"sted_":11501,"[i][":11502,"Number.":11503,"CG":11504,"ĠĠĠĠĠĠĠĠĠĠĠĠĠĠ'":11505,"appropri":11506,"_l":11507,"Acces":11508,"IdĠ":11509,"values,Ġ":11510,"proposal":11511,"opts":11512,"8x16_t)":11513,"/'":11514,"q,Ġ":11515,"SOFTWAREĠ":11516,"</span><spanĠclass=\"o\">.</span><spanĠclass=\"n\">":11517,"_t)Ġ__builtin_":11518,"W,Ġ":11519,"Loader":11520,"exceptionĠ":11521,"Ġ=ĠQtWidgets.Q":11522,"{%ĠifĠ":11523,"(?P<":11524,"framework.":11525,"NL80211":11526,"/,":11527,"joint":11528,"Alph":11529,"pyplotĠasĠ":11530,"[idx":11531,"b(":11532,"1,Ġ0.":11533,"loopĠ":11534,"YourĠ":11535,"tial_":11536,"State.":11537,"OBJECT":11538,"demo":11539,"ĠĠĠĠĠĠĠĠĠĠĠĠĠĠĠĠĠĠĠĠĠĠĠĠĠĠĠĠ'":11540,"mit_":11541,"ĠĠĠĠ<aĠclass=\"referenceĠinternal\"Ġhref=\"alfred3_interact.element.":11542,"VIDE":11543,"clust":11544,"importĠmatplotlib.":11545,"=2,Ġ":11546,"100,":11547,"01\"Ġtarget=\"_blank\">":11548,"aussi":11549,"usedĠinĠ":11550,"item,Ġ":11551,"ByĠ":11552,"npy_":11553,"__pyx_filenameĠ=Ġ":11554,"makedir":11555,"384":11556,"Sel":11557,"ĉ\"":11558,"ĉĉĉĉĉĉĉĉĉ":11559,"quantity":11560,"baseĠimportĠ":11561,"benchmark":11562,"tin":11563,"message,Ġ":11564,"h5":11565,"only_":11566,"//Ġ=>Ġ":11567,"1989":11568,"184":11569,"To(":11570,"Ġ=Ġ[];":11571,"ip.":11572,"#ĠYouĠmayĠobtainĠaĠcopyĠofĠtheĠLicenseĠat":11573,"csr":11574,"mask,Ġ":11575,"https://docs.":11576,"D_AN":11577,"__pyx_v_self":11578,"InProgres":11579,"s[name":11580,"||Ġ!":11581,"live":11582,"erĠisĠ":11583,"MassĠ=Ġ":11584,"nameĠdesc":11585,"accumul":11586,"tol":11587,"expectedĠ=Ġ":11588,"install_":11589,"</code></pre>":11590,"s.add(":11591,"normalĠ":11592,"internalĠ":11593,"#ĠGL/glext.h:":11594,"heightĠ=Ġ":11595,"callbackĠ":11596,"StartĠ":11597,"8Ġ*Ġ":11598,"sĠonĠtheĠ":11599,"5077":11600,"batch,Ġ":11601,"buck":11602,"s[j":11603,"Exception(\"":11604,"ĠĠ/*Ġ\"":11605,"&#39;":11606,"importĠtensor":11607,"ĠĠĠĠĉa56":11608,"1\"":11609,"ĠĠĠĠassertĠlen(":11610,"Ġ<Ġa":11611,"Direct":11612,"-text":11613,"ĠĠĠĠĠĠĠĠg":11614,"creatingĠ":11615,"Radi":11616,"(3,Ġ":11617,"(tf.":11618,"1\")":11619,"pingĠ":11620,"256,Ġ":11621,"ValueĠSuggestion:Ġ":11622,")[0]":11623,"PDF":11624,"'],Ġ'":11625,"testĠ=Ġ":11626,"-lg":11627,"container.":11628,"#ifn":11629,"'Ġ&&Ġ":11630,"ĠĠĠĠĠĠĠĠwithĠopen(":11631,"fromĠ__future__ĠimportĠprint_function":11632,"ĠĠint":11633,"ĠĠĠĠĉa134":11634,"DN":11635,"oct(":11636,"POS":11637,"atesĠ":11638,"#ĠIfĠ":11639,"5,Ġ0.":11640,"OFF":11641,"restri":11642,"IsotopicĠ":11643,"importĠ{Ġ":11644,"pretrainedĠ":11645,"IsotopicĠComposition":11646,"x.length":11647,"CreateĠaĠ":11648,"AtomicĠSymbolĠ=Ġ":11649,"AtomicĠMassĠ=Ġ":11650,"StandardĠAtomicĠ":11651,"RelativeĠAtomicĠMassĠ=Ġ":11652,"%s/":11653,"ce.":11654,"00000":11655,"dict)":11656,"css/":11657,"and/":11658,"writtenĠ":11659,"ĠĠ#Ġtype:Ġignore":11660,"|'":11661,"+1]":11662,"det":11663,"assum":11664,"ç½":11665,"Descriptor":11666,"ĉĉĉ\"":11667,"position_":11668,"userĠ=Ġ":11669,"Total":11670,"automaticallyĠ":11671,"sti":11672,"20Ġ":11673,"6e":11674,"}),Ġ":11675,"Sear":11676,"erci":11677,"ULE_":11678,"failure":11679,"GPIO":11680,"poseĠ":11681,"index)":11682,"sed_":11683,"arm":11684,"dc":11685,"Geo":11686,"1414":11687,"Firefo":11688,"Mut":11689,"Transaction":11690,"+1)":11691,"210":11692,"gran":11693,"seu":11694,"callback(":11695,"ife":11696,"s_in_":11697,"ReLU":11698,"triedĠ":11699,"(false":11700,"tic_":11701,"ignoreĠ":11702,"688":11703,"Id(":11704,"MAC":11705,"accountĠ":11706,"Image.":11707,"åľ¨":11708,"O_":11709,"priority":11710,"Conv2d(":11711,"ĠĠĠĠĠĠĠĠĠĠĠĠyieldĠ":11712,"url.":11713,"supported":11714,"ajax":11715,"uary":11716,"3])":11717,"D(":11718,")Ġ+":11719,")ĠforĠxĠinĠ":11720,"Ã¤":11721,"thir":11722,"staticĠ__inline__Ġ":11723,"æ¨¡":11724,"transparent":11725,"<dlĠclass=\"pyĠ":11726,"1')":11727,"_ĠinĠrange(":11728,"ling":11729,"repositor":11730,"Validation":11731,"cleanup":11732,"__version__":11733,"messageĠ=Ġ":11734,"bygroups(":11735,"net/":11736,"à´":11737,"ĠĠĠĠĠĠĠĠĠĠĠĠf":11738,"...,Ġ":11739,"dir_":11740,"miss":11741,"ĠĠĠĠtheĠ":11742,"Factory":11743,"Directory":11744,"loader.":11745,"X.":11746,"plur":11747,"ify":11748,"Pop":11749,"dev_":11750,"fiden":11751,"3\">":11752,"nameĠ=Ġ\"":11753,"cularĠ":11754,"ifĠself.":11755,"created":11756,"OutputĠ":11757,"TTLocalizer.":11758,"lib/python2.7/site-packages/":11759,"config)":11760,"4080":11761,"588":11762,"':Ġ['":11763,"rowĠinĠ":11764,"ĠĠĠĠtest_":11765,"seem":11766,"block.":11767,"element,Ġ":11768,"022":11769,"td":11770,"2010":11771,"2007,Ġ":11772,"Access":11773,"Lear":11774,"String,Ġ":11775,"è¾":11776,"backĠ":11777,"s[0],Ġ":11778,"ĠĠĠĠifĠisinstance(":11779,"'Ġ+Ġ'":11780,"leave":11781,"ACE":11782,"os_":11783,"six.":11784,"worksĠ":11785,"abbreviated":11786,"NP":11787,"ps":11788,"prefer":11789,"disco":11790,"Ġ__m":11791,"ConvertĠ":11792,".join":11793,"2404":11794,"closeĠ":11795,"external":11796,"width='100%":11797,"URN":11798,"itĠwillĠ":11799,"ĠĠĠĠĠĠĠĠĠĠ<":11800,"1926":11801,"catedĠ":11802,"vm.":11803,"aspe":11804,"unsqueeze":11805,"ending":11806,"Util.":11807,"againstĠ":11808,"pyplotĠasĠplt":11809,"(node":11810,"CLI":11811,"gg/":11812,"registe":11813,"840Ġ=Ġ":11814,"ged":11815,"x**":11816,"react":11817,"spid":11818,"ĠĠĠĠĠĠĠĠreturnĠ[":11819,"['id":11820,"(batch_size,Ġ":11821,"input,Ġ":11822,"CUD":11823,"ĠĠdisplay:Ġ":11824,"Authenti":11825,"shot":11826,"GEN":11827,"type:Ġ'":11828,"ID,Ġ":11829,"datalo":11830,"åĢ":11831,"git_":11832,"i.e.Ġ":11833,"@pytest.mark.parametrize":11834,"6/":11835,"ĠĠĠĠĠĠĠĠĠĠĠĠĠĠĠĠĠĠĠĠĠĠĠĠĠĠĠĠĠĠĠĠĠĠĠĠĠĠĠĠĠĠĠĠĠĠĠĠĠ":11836,"content=\"":11837,"scale=":11838,")Ġ*Ġ5":11839,"matrix_":11840,"\".join(":11841,"choices":11842,"funcĠ":11843,"Ġ*Ġself.":11844,"previous":11845,"412":11846,"ĠĠĠĠintĠ":11847,"class,Ġ":11848,"sound":11849,"ĠTheĠ":11850,"_is_":11851,"action='":11852,"ABILITY,Ġ":11853,"[:-1]":11854,"commen":11855,"content.Element":11856,"Exc_":11857,"inherit":11858,"[]Ġ":11859,"producedĠbyĠ":11860,"cmap":11861,"withinĠtheĠ":11862,"cessors":11863,"lowe":11864,"int,":11865,"curr_":11866,"alignment":11867,"scipy.":11868,"cellspacing='0'Ġ":11869,"Mer":11870,"219":11871,"ĠĠĠĠm":11872,"1057":11873,"explo":11874,"fixed_":11875,"temperature":11876,"append_":11877,"{};":11878,"float_":11879,"df,Ġ":11880,"console":11881,"ĠĠĠĠĠĠĠĠtest_":11882,"ĠĠĠĠĠĠĠĠself.assertRaises(":11883,"TODOĠ":11884,"__mmask":11885,"PyExc_":11886,"```":11887,"post(":11888,"Middle":11889,"GROUP":11890,"border='0'Ġ":11891,"ABLE_":11892,"have":11893,"masked_":11894,"noteĠ":11895,"8734":11896,"hiddenĠ":11897,"extraĠ":11898,"e.g.":11899,"ç±":11900,"154":11901,"description='":11902,"ĠasĠaĠ":11903,"D_ANON_":11904,"ĠĠĠĠĠĠĠĠĠĠĠĠawaitĠ":11905,"TERN":11906,"codeĠisĠ":11907,"multi_":11908,"Constra":11909,"CV":11910,"\"Ġ&&Ġ":11911,")?s?":11912,"afterĠtheĠ":11913,".n":11914,"280":11915,"execute()":11916,"\\\\.":11917,"sql_":11918,"timedelta(":11919,"Cle":11920,"maskĠ=Ġ":11921,"604":11922,"ULT":11923,":',Ġ":11924,"im_":11925,"Assertion":11926,"MassĠNumberĠ=Ġ":11927,"Square":11928,"ĠĠĠĠĉa128":11929,"ĠĠĠĠĠĠĠĠĠĠĠĠreturnĠTrue":11930,"Address":11931,"bold":11932,"00Ġ":11933,"Angle":11934,"effe":11935,"tan":11936,"s,ĠbutĠ":11937,"prime":11938,"resources.":11939,"fb":11940,"auto;":11941,"ĠĠĠĠĉa350":11942,"Saf":11943,"size_t":11944,"isĠnotĠaĠ":11945,"bias_":11946,"_pathĠ=Ġ":11947,"ĉ4":11948,"oneĠofĠ":11949,"+=Ġ'":11950,".replace(\"":11951,"hard":11952,"lan":11953,"date,Ġ":11954,"86_64":11955,"0:Ġ":11956,"mĠimportĠ":11957,"opti":11958,"GĠ":11959,"sted":11960,"Name)":11961,"TimeSpan":11962,"(function(":11963,"@@":11964,"MER":11965,"comeĠ":11966,"1,Ġ28":11967,"assert)Ġ{":11968,"include('":11969,"_t)Ġ__builtin_neon_v":11970,"Value(":11971,"factory":11972,"linu":11973,"top-":11974,"primary_":11975,"ULAR":11976,"Github":11977,"forĠiĠinĠ":11978,"offset_":11979,"_bias":11980,"rm":11981,"explicit":11982,"ACC":11983,"Catalog":11984,"orĠaĠ":11985,"205":11986,"izationĠ":11987,"questionĠ":11988,"Parti":11989,"(f,Ġ":11990,"four":11991,"ROC":11992,"joint_":11993,"Element(":11994,"ĠĠĠĠSeeĠAlso":11995,"sĠcanĠbeĠ":11996,"transformĠ":11997,"ĠĠĠĠĉa734":11998,"rati":11999,"printer":12000,"infoĠ":12001,"torch.FloatTensor":12002,"_NO":12003,"content-":12004,"occurren":12005,"contigu":12006,"',ĠNone,Ġ[GL":12007,"\":Ġself.":12008,"mac":12009,"TEMP":12010,"sectionĠ":12011,"`):":12012,"doingĠ":12013,"**/":12014,"sys.stdout":12015,"clear_":12016,"limitĠ":12017,"atesĠtheĠ":12018,"True),":12019,"idĠinĠ":12020,"moz-":12021,"#pop'),":12022,"00\",":12023,"board_":12024,"staff":12025,"output)":12026,"Path(":12027,"\\x00\\x00\\x00":12028,"should":12029,"cellspacing='0'Ġborder='0'Ġ":12030,"cellspacing='0'Ġborder='0'Ġwidth='100%":12031,"rv":12032,"document.getElement":12033,"ĠĠĠĠĠĠĠĠĠĠĠĠĠĠĠĠifĠself.":12034,"msg,Ġ":12035,"MODEL":12036,"Parent":12037,"ĠĠĠĠĠĠ.":12038,"+=Ġ\"":12039,"cator":12040,"enc_":12041,"version_info":12042,"pre><code>":12043,"what":12044,"bel":12045,"class=":12046,"igen":12047,"method,Ġ":12048,"localeĠ":12049,"jQuery.":12050,"callingĠ":12051,"setup_":12052,"countryCode":12053,"Padd":12054,"],Ġ'":12055,"instance_":12056,"_CONFIG":12057,"c0":12058,"OPTION":12059,"Hy":12060,"gettingĠ":12061,"LanguageĠ::Ġ":12062,"shape[1]":12063,".py\",":12064,"token_type_id":12065,"appĠ":12066,"6488":12067,"TypeĠ=Ġ":12068,"s:Ġ'":12069,"$Ġ":12070,"836":12071,"ds":12072,"returnsĠaĠ":12073,"umeĠ":12074,"mkdir":12075,"balance":12076,"countĠ=Ġ":12077,"2008":12078,"destination":12079,"Ġ==Ġ9":12080,"555":12081,"IĠhaveĠaĠ":12082,"\"ĠthroughĠ\"":12083,"quota.":12084,"This":12085,"]).format('":12086,"min-":12087,"pylint:Ġ":12088,"ĠĠĠĠĠĠĠĠax":12089,"ĠĠĠĠdefĠ__str":12090,"effect":12091,"directĠ":12092,"COMM":12093,"M.":12094,"877":12095,"(y":12096,"oleĠ":12097,"Callable":12098,"matplotlib":12099,"Cam":12100,"spectr":12101,"ĠĠĠĠdefĠsetUp":12102,"ret,Ġ":12103,"output_attention":12104,"ĠĠĠĠĠĠĠĠproperties.Schema":12105,"Ġ=Ġproperties.Schema":12106,"retr":12107,"cimal":12108,"html.":12109,"enable_":12110,"ĠĠĠĠĠĠĠĠupdate_allowed":12111,"ĠĠĠĠĠĠĠĠproperties.Schema.":12112,"Ġ=Ġproperties.Schema(":12113,"sĠto":12114,"labelsĠ=Ġ":12115,"resources":12116,"SQLĠ":12117,"330":12118,"&&Ġ(inputĠ==Ġ":12119,"(0,Ġ0,Ġ0,Ġ":12120,"replace(":12121,"ort.":12122,"\\d{":12123,"')ĠasĠ":12124,"pre-":12125,"src.":12126,"0.15":12127,"GN":12128,"ĠĠĠĠĉa127":12129,"ĠĠĠĠdefĠis_":12130,"Model,Ġ":12131,"eg.Ġ":12132,"ino":12133,"åıĸ":12134,"red.":12135,"ĠĠĠĠĠ-Ġ":12136,"KeyError:":12137,"UTF-8":12138,"238":12139,"sat":12140,"ilyĠ":12141,"TA":12142,"bash":12143,"2004":12144,"django":12145,"(vectorĠ":12146,"=0,":12147,"Hal":12148,"Pay":12149,"ESS":12150,"threadĠ":12151,"df)":12152,"resourceĠ":12153,"('.":12154,"SĠORĠ":12155,"src/":12156,"crypt":12157,"LINE__":12158,"tau":12159,"moreĠthanĠ":12160,"5))":12161,"functions.":12162,"\",Ġ\"\"":12163,"_button":12164,"ii":12165,"astropy":12166,"bboxe":12167,"lib/python2.7/site-packages/Cython/Includes/numpy/__init__.pxd\":":12168,"<v8::":12169,"ĠĠĠĠExamples":12170,"month,Ġ":12171,"cnt":12172,"_MAJ":12173,"RIGH":12174,"processing":12175,"ĠĠĠĠĠĠĠĠĠĠĠĠĠĠĠĠĠĠĠ'":12176,"Role":12177,"see":12178,"delt":12179,"staticĠ__inline__Ġ__m":12180,"Cl":12181,"HH":12182,"smar":12183,"optionsĠ":12184,":Ġ\"DSS":12185,"false,Ġ":12186,"ĠĠĠĠ------------":12187,"text=":12188,"\",Ġ\"#":12189,"342":12190,"bar.":12191,"dl_":12192,"chr":12193,"\"));":12194,"yearĠ":12195,"environmentĠ":12196,"ĠĠĠĠĠĠĠĠĠĠĠĠnew_":12197,"Specifi":12198,"\"Ġaria-label=\"":12199,"np.pi":12200,"en.":12201,"images/":12202,"(.":12203,"s.ĠTheĠ":12204,"-moz-":12205,"actor":12206,"s.add":12207,"dot_":12208,"tuple__":12209,"Pres":12210,"str,":12211,"para":12212,"ĠĠĠĠĠĠĠĠifĠ\"":12213,"ply":12214,"toggle=\"":12215,"a9":12216,"str.":12217,"config.get('":12218,"8869":12219,"EQ":12220,"ĠĠĠĠĠĠĠĠĠĠĠĠĠĠĠĠĠĠĠĠ<aĠhref=\"https://www.worldcubeassociation.org/results/p.php?i=":12221,"6Ġ=Ġ11;":12222,"ĠĠĠĠĠĠĠĠĠĠĠĠĠĠĠĠĠĠĠĠĠĠ<aĠhref=\"https://www.worldcubeassociation.org/results/p.php?i=":12223,"NAME=":12224,"ProgrammingĠ":12225,"ceĠtheĠ":12226,"metadata=":12227,"i18n.":12228,"DIRECT":12229,"pandasĠasĠ":12230,"Rate":12231,"graphic":12232,"magic":12233,"\\r\\n":12234,")Ġ\\":12235,"ĠĠĠĠĠĠĠĠ:typeĠ":12236,"layĠ":12237,"List(":12238,"points":12239,"ABEL":12240,"ĠĠĠ*ĠTheĠ":12241,"tedĠtoĠ":12242,"Exact":12243,"clear()":12244,"6_":12245,"softwareĠ":12246,"åħ¥":12247,"libcity.model.traffic_speed_prediction.":12248,"[0:":12249,"2704":12250,"ĠĠĠĠĠĠĠĠĠĠĠĠĠĠĠĠĠĠĠĠĠĠĠĠĠĠĠĠ\"":12251,"attentionĠ":12252,"Response(":12253,"ĠĠĠĠĠĠĠĠdata":12254,"timesĠ":12255,"font_":12256,"concatenate":12257,"ç±»":12258,"returnsĠtheĠ":12259,"11.":12260,"ĠĠĠĠĠĠĠĠĠĠĠĠ),":12261,"one.":12262,"etsi":12263,"change_":12264,"ruleĠ":12265,"Bool":12266,"elem.":12267,"Ø§Ù":12268,"tokenizer":12269,"params(":12270,"method=\"":12271,"_SUB":12272,"multiple":12273,"export_":12274,"SELECT":12275,"replaceĠ":12276,"Regi":12277,"list.append(":12278,"Id)":12279,"font-weight":12280,"basedĠonĠtheĠ":12281,"faĠfa-":12282,"(arg":12283,"alĠ=Ġ":12284,"color:":12285,"xpath":12286,"acc_":12287,"specĠ":12288,"error:":12289,"frame,Ġ":12290,"Anal":12291,"She":12292,"pet":12293,"\">Ġ":12294,"2060":12295,"[1]Ġ=Ġ":12296,"Hello":12297,"scheme":12298,"SIG":12299,"[1;":12300,"nodeĠ=Ġ":12301,"2',Ġ'":12302,"Ã¶":12303,"sonĠ":12304,"s={\"":12305,"Proble":12306,"8957":12307,"support.":12308,"tele":12309,"cause":12310,"8x8_t)":12311,"</h1>":12312,"Child(":12313,"and/orĠ":12314,"BP":12315,"Operation":12316,"ticĠ":12317,"low_":12318,"lati":12319,")',Ġ":12320,"=_C":12321,"recog":12322,"script_":12323,"s':Ġ[":12324,"Mu":12325,"Pie":12326,"ilog":12327,"ctr":12328,"1,2,":12329,"8Ġ__":12330,"residu":12331,"125":12332,"å±":12333,"arter":12334,"memo":12335,"angeĠ":12336,"ModuleĠ":12337,"<AĠ":12338,"Node.":12339,"entry_":12340,"epochĠ":12341,"should_":12342,"rtype:Ġ":12343,"zr":12344,"er',":12345,"ĠĠĠĠĉa22":12346,"fromĠsklearn.":12347,"DAM":12348,"bot_":12349,"addon":12350,"List,Ġ":12351,"x1,Ġ":12352,"tok":12353,"questĠ":12354,"(0,Ġ0,Ġ":12355,"ĠĠĠĠh":12356,"sil":12357,"index.html":12358,"vocab_size":12359,"lines":12360,"client,Ġ":12361,"fromĠ__future__ĠimportĠabsolute_":12362,"t):":12363,"seman":12364,"conversion":12365,"(((((a":12366,"CTD_ANON_":12367,"separator":12368,"Samp":12369,"friend":12370,",Ġself).__init__(":12371,"union":12372,"label>":12373,"algorithmĠ":12374,"logger.debug(\"":12375,"`,Ġ`optional":12376,"cloud":12377,"centerĠ":12378,"split()":12379,"force_":12380,"s[index":12381,"approx":12382,"account_":12383,"ĠĠĠĠĠĠĠĠforĠiĠinĠ":12384,"Language":12385,"2d_":12386,"ĠĠĠĠĠĠĠĠĠĠĠĠ});":12387,"Convert":12388,"735614807":12389,"val)":12390,"mber":12391,"n_sample":12392,"token.":12393,"builder":12394,"OR_VERSION":12395,"ump":12396,"moment([2007,Ġ":12397,"moment([2007,Ġ1,Ġ28":12398,"bul":12399,"usu":12400,"809":12401,"ĠĠĠĠĠĠĠĠReturns":12402,"encode('utf-8')":12403,"(cls,Ġ":12404,"ĠĠĠĠ...":12405,"res,Ġ":12406,"text):":12407,"_rate":12408,"d',Ġ":12409,"Ġ(__":12410,"sliceĠ":12411,"bytes":12412,"dll":12413,"kwargs)":12414,"Html":12415,"Database":12416,"ĠĠĠĠĠĠĠĠĠĠĠĠ\"\"\"":12417,"pagin":12418,"ĠĠĠĠĠĠĠĠĠĠĠĠoprot.writeField":12419,"ĠĠĠĠstate":12420,"Login":12421,"Fast":12422,"WriteĠ":12423,"However,Ġ":12424,"_translate(\"MainWindow\",Ġ\"":12425,"clau":12426,"name))":12427,"train,Ġ":12428,"IMPLI":12429,"%H:":12430,"mig":12431,"189":12432,"}ĠcatchĠ(e)Ġ{":12433,"AS_":12434,"1Ġ=Ġ7;":12435,"sin(":12436,"toontown":12437,"_NAME":12438,"importĠrandom":12439,"0.5)":12440,"à¨":12441,"etc.":12442,"dĠ=ĠTrue":12443,"positionĠ":12444,"<divĠid=\"":12445,"SizeĠ":12446,"875":12447,"Env":12448,"_delete":12449,"']),":12450,"tensor.":12451,"_BU":12452,"-f":12453,"ĠĠĠĠĠĠĠĠĠ*Ġ":12454,"sĠ=Ġget_":12455,"'ĠnotĠinĠ":12456,"2445":12457,"âĶĢâĶĢâĶĢâĶĢ":12458,"%20":12459,"gath":12460,"mod_":12461,"ical_":12462,"np.nan":12463,"3],Ġ":12464,":=Ġ":12465,"sensi":12466,"\\\\d":12467,"prototype.":12468,"box-shadow":12469,"ĠĠĠĠĠĠĠĠself.conv":12470,"PyErr_":12471,"otherwise":12472,"epoch_":12473,"Plot":12474,"season":12475,"ony":12476,"ĠĠĠĠĠĠĠĠ})":12477,"(int);":12478,"jquery":12479,"seed(":12480,"IsotopicĠCompositionĠ=":12481,"719":12482,"room":12483,"proc":12484,"char*Ġ":12485,"(file":12486,"raw.":12487,"Ġ=Ġ{};":12488,"(key":12489,"16)":12490,"Ġ==Ġ6":12491,"token_id":12492,"3,3,":12493,"(float":12494,"padding_":12495,"pandasĠasĠpd":12496,"will":12497,"0x1":12498,"../../../../":12499,"GPU":12500,")Ġ<=Ġ":12501,"expressionĠ":12502,"ĠĠĠĠĠĠTheĠ":12503,"TensorĠ":12504,"ï¼ļ":12505,"1Ġ*Ġ":12506,"s=[\"":12507,"inputs,Ġ":12508,"LEF":12509,"T.":12510,"TC":12511,"Usage":12512,"sĠ\"":12513,"Ġ==Ġ10":12514,"sysc":12515,"generated":12516,"st->":12517,"itter":12518,"fair":12519,".pk":12520,"tensor(":12521,"><br>":12522,"validate(":12523,"pd.read_":12524,"horizontal":12525,"<-Ġ":12526,"DS_":12527,"6789":12528,"1057229":12529,"Depend":12530,"ĠĠĠĠĠĠĠĠ#ĠĠĠĠĠ":12531,"parser.parse_arg":12532,"',ĠNone)":12533,"ĠĠĠĠĠĠĠĠĠĠĠĠĠĠĠĠĠĠĠĠĠĠĠĠ}":12534,"Effect":12535,"response)":12536,"logger.info('":12537,"LOCK":12538,"ver.":12539,"div.":12540,"ĠĠĠĠĉa19049":12541,"continu":12542,"ĠĠĠĠĠĠĠĠsuper().__init__(":12543,"notranslate":12544,"KeyĠ":12545,"Grad":12546,"sĠatĠ":12547,"ĉĉĉĉt.":12548,"completeĠ":12549,"3701":12550,"ĠĠĠĠresult":12551,"BUTĠ":12552,"simplyĠ":12553,"Ġ=Ġ{'":12554,"checkedĠ":12555,"ARCH":12556,"\\033":12557,"Minim":12558,"text-align:Ġ":12559,"/bin/":12560,"=2)":12561,"Policy":12562,"ĉĉĠ*":12563,"ThenĠ":12564,"source,Ġ":12565,"0719":12566,"parseĠtreeĠ":12567,"Sphin":12568,"SR":12569,"TOR":12570,"type\":Ġ\"":12571,"option>":12572,"2222":12573,"haveĠtheĠ":12574,"offset,Ġ":12575,"learningĠ":12576,"`_":12577,"re-":12578,"[Required":12579,"fromĠ\"":12580,"ĉĉĉĉĉifĠ(":12581,"VERIF":12582,"fromĠsympyĠimportĠ":12583,"',ĠfunctionĠ(assert)Ġ{":12584,"verte":12585,"\",Ġu\"":12586,".objects.":12587,"eb":12588,"data;":12589,"layout.":12590,"&&Ġ!this.":12591,"ENGTH":12592,"len_":12593,"cv2.im":12594,"SK":12595,"a4":12596,"ĠĠĠĠifĠargs.":12597,"neverĠ":12598,"æµ":12599,"ĠĠĠĠĠĠĠĠassert.equal(moment([2011,Ġ":12600,"èĩ":12601,"ube":12602,"ingĠtoĠtheĠ":12603,"2',":12604,"ĠĠĠĠĉa189":12605,"stylesheet\"Ġhref=\"":12606,"class=\"field-odd":12607,"pybuffernd_":12608,".\",":12609,"MENT":12610,"Atten":12611,"probablyĠ":12612,"you'reĠ":12613,"ĉ<pre><code>":12614,"ĉĠ*Ġ@returnĠ{Date}ĠĠĠĠthis":12615,"Gu":12616,"[0]Ġ":12617,"340":12618,"cache.":12619,"2380":12620,"37011664":12621,"ĠĠĠĠfinal_update":12622,"conf_":12623,"Djang":12624,"Let":12625,"dict.":12626,"ModelĠ":12627,"orientĠ":12628,"_MAX":12629,"UpperCase":12630,"âķĲâķĲ":12631,"StandardĠAtomicĠWeight":12632,"ĠĠĠĠĠĠĠĠĠĠĠĠ.":12633,"Foreign":12634,"ProgrammingĠLanguageĠ::Ġ":12635,"HQ":12636,"etc":12637,"10)Ġ/Ġ":12638,"value=":12639,"storedĠ":12640,"give":12641,"os.path.dirname(":12642,"vc":12643,"]Ġ+=Ġ1":12644,"bottleneck":12645,"2).":12646,"Inser":12647,"AtomicĠNumberĠ=Ġ":12648,"claim":12649,"range.":12650,"status=":12651,"Before":12652,"AUTHOR":12653,"upperĠ":12654,"ned":12655,"Sec":12656,"296":12657,"ĠĠĠĠĉa1933":12658,"bottomĠ":12659,"Sav":12660,"ainĠ":12661,"ĠĠĠĠletĠ":12662,"0.25":12663,"CouldĠ":12664,"55120":12665,"allowsĠ":12666,"uncer":12667,"ĉĉĉg.":12668,"602":12669,"arguments.length":12670,"sĠ=Ġ[\"":12671,"ĠĠĠĠĠĠĠĠassert.equal(start.":12672,"vor":12673,"æ³":12674,"ĠtoĠbeĠ":12675,"<br":12676,"bil":12677,"__pyx_v":12678,"charge":12679,"hub":12680,"FB":12681,"pyn":12682,"ĉĉĉĉ/^":12683,"axis_":12684,"error(\"":12685,"6745":12686,"x:":12687,"2Ġ=Ġ8;":12688,"G,Ġ":12689,"\"Ġtype=\"":12690,"ĠĠĠĠĉa159":12691,"ĠĠĠĠĠĠĠĠĠĠĠĠĠĠĠĠĠĠĠĠĠĠĠĠĠĠĠĠĠĠĠĠĠĠĠĠĠĠĠĠĠĠĠĠĠĠĠĠ":12692,"Buf":12693,"ĠĠĠĠĠĠĠĠproc.set_input_tuple(":12694,"áĢ":12695,"147":12696,"mode,Ġ":12697,"ĠĠĠĠĠĠĠĠĠĠĠĠĠĠĠĠexceptĠ":12698,"argĠ":12699,"%H:%M":12700,"315":12701,"Free":12702,"Oc":12703,"âĢĵâĢĵ":12704,"occ":12705,"Days(":12706,"OSĠ":12707,"pylint:Ġdisable=":12708,"sĠ=":12709,"Referen":12710,"2Ġ=Ġ5;":12711,"parseĠtreeĠproducedĠbyĠ":12712,"ĠĠĠĠĠĠĠĠassert.equal(start.from(":12713,"891926":12714,"ValueError:":12715,"izedĠ":12716,"'.split('_'),":12717,"directorie":12718,"Ġ=ĠCFUNCTYPE(None,ĠGL":12719,"representationĠ":12720,"Observ":12721,"ĠĠĠĠĉa2138":12722,"aĠparseĠtreeĠproducedĠbyĠ":12723,"ĠĠĠĠĠĠĠĠĠĠĠĠĠĠĠĠĠĠĠĠ)":12724,"weak":12725,"map[":12726,"gui.":12727,"figureĠ":12728,"portion":12729,"Andro":12730,"WC":12731,"its":12732,"kernel_size=":12733,"BACK":12734,"hat":12735,"item['":12736,"ssl":12737,"identifierĠ":12738,"moment([2007,Ġ1,Ġ28]).":12739,"ĠĠĠĠĠĠĠĠassert.equal(start.from(moment([2007,Ġ1,Ġ28]).":12740,"=$":12741,"count.":12742,"192":12743,"Parser#":12744,"ary,Ġ":12745,"dec":12746,"sĠ=Ġ_":12747,"rotation":12748,"fake_":12749,"er:Ġ":12750,"?>":12751,"weĠareĠ":12752,"Unicode_":12753,"LDER":12754,"ĠĠĠĠ#defineĠ":12755,"2,Ġ2,Ġ":12756,"ĠĠĠĠĠĠĠĠAĠ":12757,"ĠĠĠĠĠĠĠĠĠĠĠĠĠĠĠĠ(":12758,"fict":12759,"20)":12760,"planes,Ġ":12761,"canvas.":12762,"s_and_":12763,"input[":12764,"ĠĠreturnĠ(__m":12765,"rath":12766,"ĠĠĠĠĠĠconstĠ":12767,"s,ĠtheĠ":12768,"message(":12769,"4))":12770,"Proxy":12771,"ID_":12772,"request(":12773,"center;":12774,"-2.":12775,"ĠĠĠĠĠĠĠĠĠĠĠĠ>>>Ġ":12776,"fontsize=":12777,"extractor":12778,"ĉĠĠĠĠĠĠĠĠ}":12779,"ĠĠĠĠNote":12780,"strĠ":12781,"[0];":12782,"workInProgres":12783,"alphab":12784,"Hours(":12785,"Ġ=Ġpyxb.binding.content.Element":12786,"proce":12787,"Proje":12788,"6Ġ=Ġ4;":12789,"ĠĠĠĠĉa185":12790,"ITY":12791,"ĠĠĠĠresultĠ=Ġ":12792,"obj)Ġ{":12793,"swit":12794,"-p":12795,"1.5":12796,"move_":12797,"æĮ":12798,"=['":12799,"JO":12800,"specified":12801,"req.":12802,"observe":12803,"metadata.":12804,"è¦":12805,"ĠĠĠĠĠĠĠĠĠĠĠĠĠĠĠĠĠĠĠĠcontinue":12806,"goodĠ":12807,"arg_":12808,"className":12809,"format.":12810,"structureĠ":12811,"kca":12812,"IĠwouldĠ":12813,"selecte":12814,"iterate":12815,"-r":12816,"sĠwillĠ":12817,"ĠĠĠĠĉa186":12818,"Los":12819,"prompt":12820,"machine":12821,"Dic":12822,"OnĠ":12823,"row,Ġ":12824,"init_oct(":12825,"[1]Ġ":12826,"ĠĠĠĠĠĠĠĠproc.init_oct(":12827,"ĠĠĠĠĠĠĠĠĠĠĠĠresult":12828,"wardĠ":12829,"txtĠ":12830,"weekdays":12831,"pathĠtoĠ":12832,"Movie":12833,"any_":12834,"confiden":12835,"workspace":12836,"cccc":12837,"FailedĠtoĠ":12838,"va":12839,"æŃ":12840,"mote":12841,"sĠ=Ġ'":12842,"kwargs['":12843,"connectĠ":12844,"6Ġ=Ġ10;":12845,"ĠĠĠĠĠĠĠĠassert.equal(start.from(moment([2007,Ġ1,Ġ28]).add({":12846,"hd":12847,"623637":12848,"ED,Ġ":12849,"s.get(\"":12850,"V1":12851,"serie":12852,"Verilog":12853,"cross":12854,"verifi":12855,"compression":12856,"ĠĠĠĠĠĠĠĠin":12857,"ĠĠĠĠĉa54":12858,"trial":12859,"span='":12860,"k8":12861,"l;":12862,"dit":12863,"et.":12864,"ExceptionĠ":12865,"552445":12866,"cached_":12867,"]):":12868,"sigmo":12869,"matchingĠ":12870,"OrderedDict":12871,"(['":12872,")\">":12873,"importĠpandasĠasĠpd":12874,"waitĠ":12875,"IVE_":12876,"help_":12877,"4>":12878,"argparse.ArgumentParser":12879,"ĠĠuint":12880,"ĉĉĠ*Ġ":12881,"data,":12882,"Geome":12883,"ĠĠĠĠĉa25":12884,"url(":12885,"job.":12886,"enumerate":12887,"SystemĠ":12888,"Syntax**:Ġ`":12889,"cellspacing='0'Ġborder='0'Ġwidth='100%'>":12890,"asĠanĠ":12891,"therĠtheĠ":12892,"row.":12893,"nameĠ+Ġ":12894,"8_":12895,",ĠifĠ":12896,"ĠĠĠĠĉa144":12897,"ĠĠĠĠĠĠĠĠĠĠĠĠĠĠĠĠĠĠĠĠ<imgĠsrc=\"flags/flags-iso/shiny/16/":12898,"ĠĠĠĠĠĠĠĠĠĠĠĠĠĠĠĠĠĠ<imgĠsrc=\"flags/flags-iso/shiny/24/":12899,"Sor":12900,"ij":12901,"ĠĠĠĠĠĠĠĠw":12902,"/\",":12903,"'Ġcellspacing='0'Ġborder='0'Ġwidth='100%'>":12904,"Ġ==Ġ5":12905,"SystemVerilog":12906,"878527":12907,"853878527":12908,"610":12909,"valueĠofĠtheĠ":12910,"ĠĠĠĠP":12911,"6929":12912,"[1],":12913,"classes.":12914,"ClickHouse":12915,"debugg":12916,"linspace":12917,"output_dir":12918,"cython":12919,"ĠĠĠĠy":12920,"user-":12921,"maxĠ=Ġ":12922,"standard":12923,"sĠ!=Ġ":12924,"string}Ġ":12925,"_CL":12926,"areaĠ":12927,"ĠĠĠ*Ġ**Syntax**:Ġ`":12928,"mein":12929,"dian":12930,"3435":12931,"member_":12932,"estim":12933,"cingĠ":12934,"xmlĠ":12935,"Ġ==Ġ8":12936,"ESSĠ":12937,"sBy":12938,"ĠĠĠĠĠĠĠĠĠĠ//Ġ":12939,"ĠĠĠĠĠĠĠĠconstĠ":12940,"69556":12941,"RS":12942,"6955629":12943,"this_":12944,"SetĠtheĠ":12945,"writ":12946,"downĠ":12947,"debug(\"":12948,"vlan":12949,"Ðº":12950,"éĻ":12951,"ing/":12952,"ad_":12953,"Model(":12954,"retrieve":12955,"sĠimportĠ*":12956,"Maxim":12957,"hparams.":12958,"ĠĠĠĠ=Ġ":12959,")ĠtoĠ":12960,"1657":12961,"3534":12962,"anchor_":12963,"kindĠ":12964,"noticeĠ":12965,"750":12966,"ĠĠĠĠĠĠĠĠ//":12967,"phi":12968,"__Ġ=Ġ\"":12969,"riefĠ":12970,"downloadĠ":12971,"Constructor":12972,"U,Ġ":12973,"ĠĠĠĠĠĠĠĠx_":12974,"isĠanĠ":12975,"subplot(":12976,"dict[":12977,"latest":12978,"without":12979,"FP":12980,"cw":12981,"ĠĠĠĠĉa106":12982,"UST":12983,"]])":12984,"esĠtheĠ":12985,",Ġd":12986,"',Ġhelp='":12987,"weights_":12988,"bool:":12989,"}',":12990,"averageĠ":12991,"ĠĠĠĠĠĠĠĠmodelĠ=Ġ":12992,"Spli":12993,"AAAA":12994,"Space":12995,"CB":12996,"ĠĠĠĠnum_":12997,"consi":12998,"charĠ__":12999,"youĠwantĠtoĠ":13000,"LIMITEDĠ":13001,"ĠĠĠĠĠĠĠĠĠĠĠĠĠĠĠĠĠĠĠĠraiseĠ":13002,"asĠtf":13003,"host,Ġ":13004,"screenĠ":13005,"DDDo":13006,"decimal":13007,"OAuth":13008,"s3":13009,"rase":13010,"id:":13011,"BASE_":13012,"tfds.":13013,"modal":13014,"Visi":13015,"<code>":13016,"x)Ġ{":13017,"frag":13018,"implementationĠ":13019,"ShouldĠ":13020,"Dropo":13021,"}]":13022,"requireĠ":13023,"metavar":13024,"Mixin":13025,"notice":13026,"ared":13027,"ĠĠĠĠdefĠenter":13028,"that.":13029,"]ĠLT',":13030,"Cryp":13031,"s:Ġ[":13032,"ĠĠĠĠĠĠĠĠĠĠĠĠĠr'":13033,"bum":13034,"tc":13035,"__Ġ":13036,"Ġ=Ġgetattr(":13037,"VICE_":13038,"tutori":13039,"reach":13040,"edit_":13041,"It'sĠ":13042,"Ġ=Ġfunction()Ġ{":13043,"\",Ġtype=":13044,"UserĠ":13045,"ĠĠĠĠ>>>ĠfromĠsympy.":13046,"DefaultsĠtoĠ":13047,"forward_":13048,"whenĠIĠ":13049,"ing)":13050,"(f)":13051,"project.":13052,"middlewa":13053,"``,Ġ":13054,"(o":13055,"jun":13056,"bytes(":13057,"[:,Ġ:,Ġ":13058,"self)":13059,"beg":13060,"ffic":13061,"executeĠ":13062,"1Ġ:Ġ":13063,"center_":13064,"implementĠ":13065,"charAt(":13066,"Gemein":13067,"<pĠclass=\"":13068,"GH":13069,"yĠ-Ġ":13070,"ĠĠĠĠĉa822":13071,"ĠĠĠĠĠChat.":13072,".h>":13073,"protocol.":13074,"\"Ġcontent=\"":13075,"#ifdefĠ":13076,"GemeindeĠ":13077,"neur":13078,"1Ġ/Ġ":13079,"Fail":13080,"setTimeout":13081,".m":13082,".do":13083,"ĠĠwidth:Ġ":13084,"Ġ==Ġ7":13085,"allowed_":13086,"Execution":13087,"ĉĉ}ĠelseĠ{":13088,"114":13089,"1319":13090,"offsetĠ=Ġ":13091,"ĠĠĠĠĠĠĠĠ{\"name\":Ġ\"GemeindeĠ":13092,"IN_":13093,"8817":13094,"meta.":13095,"CYTHON_USE_":13096,"PUT_":13097,"0],Ġ":13098,"============":13099,"running_":13100,"_C_P":13101,"simple_":13102,"truth":13103,"regularizer":13104,"=-":13105,"p-":13106,"eĠinĠ":13107,"ofĠanĠ":13108,"Box.":13109,"glGet":13110,"member.":13111,"319":13112,"bri":13113,"bitsĠ":13114,"32(":13115,"dayĠ=Ġ":13116,"ĉĉreturnĠthis.":13117,"FIX":13118,"enough":13119,"resume":13120,"ORT_":13121,"attr('":13122,"6Ġ=Ġ5;":13123,"assume":13124,"views.":13125,"console.log(":13126,"1+":13127,"sp.":13128,"prece":13129,"raise_":13130,"(Ġ\"":13131,"ĠĠĠĠĉa1157":13132,"Fixed":13133,"Middleware":13134,"P.":13135,"ĉifĠ(":13136,"c_int":13137,"0ĠorĠ":13138,"fileĠisĠ":13139,"viewcode":13140,"<ul>":13141,"Ð¼":13142,"Decod":13143,"vertice":13144,"Limit":13145,"timeoutĠ":13146,"openmtc/":13147,"mutation":13148,"TE_":13149,"ensureĠ":13150,"s_from_":13151,"fromĠtoontown":13152,"time(":13153,"sĠareĠnotĠ":13154,"61188":13155,"nth":13156,"CheckĠifĠ":13157,"GenerateĠ":13158,"response.status_":13159,"_device":13160,"zoom":13161,"major":13162,"!--Ġ":13163,"252":13164,"100Ġ":13165,"$P.":13166,"proxy":13167,"ĉĠ*Ġ@returnĠ{Boolean}Ġ":13168,"functionsĠ":13169,"linearĠ":13170,"cmd_":13171,"%Y-%":13172,"ĉ</code></pre>":13173,"Ġ&&Ġ((a":13174,"_2":13175,"ASK":13176,"sĠ=Ġlen(":13177,"oneĠofĠtheĠ":13178,"2000":13179,"example.":13180,"WARNING":13181,"#ĠĠĠĠĠhttp://www.apache.org/licenses/LICENSE-2.0":13182,"ĠĠĠĠĠĠĠĠassert.equal(moment([2011,Ġ0,Ġ":13183,"matrix.":13184,"form>":13185,"default:":13186,"ĠĠĠĠĠĠĠĠa":13187,"==Ġ0:":13188,"StringIO":13189,"unicode_":13190,"left,Ġ":13191,"productĠ":13192,"StatusĠ":13193,"handler.":13194,"/vcs/":13195,"]?":13196,"')]":13197,"Ġ*ĠcdefĠ":13198,"label=":13199,"5555":13200,"openmtc-python/":13201,"2545":13202,"label='":13203,"stud":13204,"sĠv2":13205,"chun":13206,"fish":13207,"),Ġ\\":13208,"url_for":13209,"getitem":13210,"ing',":13211,"ĠĠĠĠdata_":13212,"explici":13213,"setup(":13214,"develop":13215,"/XSD":13216,"/vcs/openmtc/":13217,"9)":13218,"whyĠ":13219,"]Ġ=ĠNone":13220,"requests":13221,"Text,Ġ":13222,"tmp/XSD":13223,"kca/vcs/openmtc/":13224,"openmtc-python/tmp/XSD":13225,"sĠv211/":13226,"kca/vcs/openmtc/openmtc-python/tmp/XSD":13227,"kca/vcs/openmtc/openmtc-python/tmp/XSDsĠv211/":13228,"norm(":13229,"decorator":13230,"REGION":13231,"x1_":13232,"çī":13233,"elap":13234,"tools":13235,"255,":13236,"store.":13237,"Book":13238,"__pyx_f":13239,"337":13240,"DDDo'),Ġ'":13241,"ĠĠĠĠĠĠĠĠresponse":13242,"clip_":13243,"binary_":13244,"Software":13245,"ellip":13246,"useĠaĠ":13247,"elev":13248,"application/json":13249,"8x8_tĠ":13250,"</h2>":13251,"dx":13252,"Configur":13253,"onClick":13254,"deleg":13255,"warm":13256,"space_":13257,"band":13258,"setĠ=Ġ":13259,":meth:`":13260,"IPython":13261,"lh":13262,"ONG_":13263,"modified":13264,"spring":13265,"onomy":13266,"<br>":13267,"ĠĠĠĠĉa135":13268,"writingĠ":13269,"template.":13270,"GoogleĠ":13271,"\")ĠasĠ":13272,"Ent":13273,",Ġself).__init__()":13274,"ĠĠĠĠdefĠadd_":13275,"Priv":13276,"importĠargparse":13277,"created_":13278,"lt":13279,"ĠĠĠĠĠĠĠĠyieldĠ":13280,"empty_":13281,"ĠĠĠĠfig":13282,"sĠthisĠ":13283,"sĠ=Ġ\"":13284,"8037":13285,"queryĠ=Ġ":13286,"madeĠ":13287,"laz":13288,"/**Ġ":13289,"ĠĠĠĠp0.":13290,"dark":13291,"_MAJOR_VERSION":13292,"ĠĠ///Ġ":13293,"Exist":13294,"types":13295,"defaultsĠtoĠ":13296,"BY":13297,":Ġ'%dĠ":13298,"detach":13299,"718":13300,"Processor":13301,"350700":13302,"math:`":13303,"synchron":13304,"\"Ġ<<Ġ":13305,"Data(":13306,"encodings.":13307,"assemb":13308,"((int":13309,"INT_":13310,"ĠĠforĠ":13311,"ATEĠ":13312,"script.":13313,"_MOD":13314,"loaded":13315,"was":13316,"thri":13317,"0],Ġ[":13318,"=True),":13319,"info_":13320,"datasets.":13321,"Class('":13322,"number_of_":13323,"0,Ġ0,Ġ1,Ġ":13324,"ĠĠĠĠĠĠ</div>":13325,"session_":13326,"orderĠtoĠ":13327,"ss.":13328,"fromĠtensor":13329,"Dele":13330,"argumentsĠ":13331,"ĠĠĠĠĠĠĠĠifĠnotĠisinstance(":13332,"r)":13333,"yyyy-MM-":13334,"ImageĠ":13335,"Ġ+Ġ'Ġ":13336,"play_":13337,"ease":13338,"l(":13339,";Ġthen":13340,"self_":13341,"length_":13342,"EXT_":13343,"pool_":13344,"threshol":13345,"j_":13346,"bitr":13347,"implementation":13348,"requires":13349,"<?":13350,"Find":13351,"contentĠ=Ġ":13352,"UND":13353,"25638":13354,"Drop":13355,"ĠĠĠĠĠĠĠĠ-------":13356,"_GET_":13357,"ĉĉĉifĠ(!":13358,"trim":13359,"savefig":13360,"helpers.":13361,")\"":13362,"Cursor":13363,"transport":13364,"34225638":13365,"Mi":13366,"Lock":13367,"super().":13368,"lossĠ":13369,"Foo":13370,"915":13371,"ĠĠ*":13372,"ĠĠĠĠĠĠ<divĠclass=\"":13373,"Volume":13374,"6-":13375,"slot":13376,"mast":13377,"number.":13378,"iĠ-Ġ":13379,"reduction":13380,"Pixel":13381,"spri":13382,"CONT":13383,"ĠĠĠĠĉa2013":13384,"Igno":13385,"2e":13386,"ĠĠĠĠĠĠĠĠraiseĠNotImplementedError":13387,"interpre":13388,"minimum":13389,"er(__name__)":13390,"js-":13391,"title,Ġ":13392,"multipli":13393,"_id,":13394,".jpg":13395,":Ġ'[":13396,"Capt":13397,"sp_":13398,"orĠmoreĠ":13399,"None,ĠNone":13400,"A)":13401,"[0x":13402,"ĠĠĠĠu'":13403,",Ġ1)":13404,"state)":13405,"0000000000000000":13406,"tvdb":13407,"Classification":13408,"\\d\\":13409,"pedi":13410,"ĠĠĠĠresponseĠ=Ġ":13411,"is,Ġ":13412,"1062545":13413,"SL":13414,"Wi":13415,"checksum":13416,"valueĠtoĠ":13417,"Lexer":13418,";Ġ__pyx_clineno":13419,"{%ĠendblockĠ%}":13420,"@click.":13421,"Player":13422,"production":13423,"pluginĠ":13424,"(k":13425,"2],":13426,"yes":13427,"ENDĠ":13428,"plot.":13429,"Options":13430,"env/":13431,"Halcon":13432,"ĠĠĠĠĠĠĠĠ</":13433,"writer.":13434,"time.sleep(":13435,"until_":13436,"true,":13437,"b,":13438,"294":13439,"err,Ġ":13440,"':Ġ0,":13441,"findĠtheĠ":13442,"input)Ġ{":13443,"SomeĠ":13444,"`ĠandĠ`":13445,"ename":13446,"boardĠ":13447,"Exit":13448,"IĠdon'tĠ":13449,"ARY":13450,"completion":13451,";Ġ__pyx_lineno":13452,"Ġ=Ġ__LINE__":13453,";Ġ__pyx_clinenoĠ=Ġ__LINE__":13454,"3),":13455,"High":13456,"sĠallĠ":13457,"328":13458,"image:Ġ":13459,"0Ġ&&Ġ":13460,"Leg":13461,"Union[float,Ġ":13462,"android:layout_":13463,"redirect":13464,")Ġ>=Ġ":13465,"('--":13466,"proc:":13467,"LIABILITY,Ġ":13468,"sys_":13469,"n):":13470,"on(":13471,"Tick":13472,"largeĠ":13473,"Registr":13474,"linal":13475,"DEX":13476,"linear_":13477,"sĠintoĠ":13478,"Secur":13479,"boxes":13480,"Domain":13481,",Ġ0.,Ġ0.":13482,"1\",Ġ\"":13483,"ĠĠĠĠwidth:Ġ":13484,"\"Ġ\"":13485,"ĠĠĠĠĠĠĠĠĠĠĠĠĠĠĠĠĠĠĠĠbreak":13486,"Object}Ġ":13487,"sĠforĠeachĠ":13488,".js\"></script>":13489,"æĪĲ":13490,";Ġ__pyx_clinenoĠ=Ġ__LINE__;Ġ":13491,"bc":13492,"Ñĭ":13493,"790Ġ=Ġ":13494,"2893435":13495,"WITHĠ":13496,"ĠĠĠĠĠĠĠĠĠĠĠĠr":13497,"outer":13498,"Ġ=Ġself._get_":13499,"rgb(":13500,",Ġ0)":13501,"plyĠ":13502,"jupy":13503,"ĠĠĠĠĠĠĠĠurl":13504,"PYTHON":13505,"6682380":13506,"Punctuation":13507,"668238058":13508,"ST\",":13509,"186":13510,"228":13511,"ĠĠĠĠdefĠsetUp(self):":13512,"16578037":13513,"Lat":13514,"importĠmatplotlib.pyplotĠasĠplt":13515,"exit_":13516,"11Ġ":13517,"64Ġ":13518,"_mm512":13519,"ingĠonĠ":13520,"Decimal":13521,"require('./":13522,":\",Ġ":13523,"=self._":13524,"ĠĠĠĠĠĠĠĠinput":13525,"ValueError):":13526,"ĠĠĠĠĉa657":13527,"coefficient":13528,"II":13529,"wc":13530,"Ġ=Ġ10":13531,"2067":13532,"ĉĉĉself.":13533,"Moment":13534,"ĠĠĠĠĉa1916":13535,"KEY_":13536,"Traceback":13537,"ĠĠĠĠĠĠĠĠ<spanĠclass=\"glyph-":13538,"anitiz":13539,"ARRAY":13540,"rub":13541,"Config.":13542,"__pyx_filenameĠ=Ġ__pyx_f":13543,"%Y-%m-":13544,"ĠĠĠĠreturnĠ(":13545,"method_":13546,"floor(":13547,"virtualĠ":13548,"ene":13549,"ĠĠĠĠĠĠĠĠĠĠĠĠĠĠĠĠ[":13550,"ĠĠĠĠĠĠĠĠĠĠĠĠt":13551,")Ġ:":13552,"intersection":13553,"long_description":13554,"ĠĠĠĠfilename":13555,"Ð²":13556,"æĸĩä»¶":13557,"Loss":13558,"connectionĠ":13559,"importĠpytest":13560,"ĠĠĠĠ<aĠclass=\"referenceĠinternal\"Ġhref=\"alfred3_interact.element.Chat.":13561,"Push":13562,"performĠ":13563,"csv_":13564,"common_":13565,"ĠĠĠĠdefĠ__str__(self):":13566,"US_":13567,"ĠĠĠĠ['":13568,"ĠĠĠĠĠĠĠĠmax_":13569,"activity":13570,"ĠĠĠĠĠĠĠĠschema":13571,":Ġ\"Ġ+Ġ":13572,"track_":13573,"wrap_":13574,".5":13575,"quality":13576,"[1];":13577,"cryption":13578,"numpy()":13579,"HandleĠ":13580,"_,Ġ":13581,"GCN":13582,"i);":13583,"optionsĠ=Ġ":13584,"remove(":13585,"297":13586,"true_":13587,"uint,ĠGL":13588,"bilityĠ":13589,"Ġ=Ġrequire('./":13590,"PyLong_SHIFT)Ġ{":13591,"hint":13592,"func:`":13593,"Prior":13594,"ĠĠĠĠĠĠĠĠupdate_allowed=True,":13595,"_type,Ġ":13596,"SearchĠ":13597,"(iĠ=Ġ0;ĠiĠ<Ġ":13598,"mount":13599,"20,":13600,"derive":13601,")</td>":13602,"bank":13603,"j)":13604,"predĠ=Ġ":13605,"\"><iĠclass=\"":13606,"Notif":13607,"targetĠ=Ġ":13608,"_detail":13609,"col-md-":13610,"ctypedefĠ":13611,"(x_":13612,"song":13613,"DOWN":13614,"sqlite":13615,"mustĠbeĠaĠ":13616,"ĉtĉfĉfĉfĉfĉfĉf":13617,"cum":13618,"Ġ=Ġ\"\"\"":13619,"unordered_":13620,"__a,Ġ":13621,"special_":13622,"TO_":13623,"\"Ġtype=\"text/css":13624,"ĠĠĠĠĉa840":13625,"++)Ġ{":13626,"YĠOFĠ":13627,"RIGHTĠ":13628,"WID":13629,"ongo":13630,"Altern":13631,"ĠĠĠĠC":13632,"åĪĨ":13633,"START":13634,"__dict__":13635,"ĠĠĠĠĠĠĠĠĠĠĠĠĠĠĠĠĠĠĠĠĠ'":13636,"cifar":13637,"ELE":13638,"uture":13639,"loss(":13640,"memberĠ":13641,"WS":13642,"options)":13643,"assert_calle":13644,"tĠ+Ġ":13645,"os.path.join(self.":13646,":Ġself.":13647,"returnĠaĠ":13648,"Pointer":13649,",Ġ_Ġ=Ġ":13650,":class:`~":13651,"1Ġ=Ġ32Ġ;":13652,"çİ":13653,"sityĠ":13654,"()ĠforĠ":13655,"fetch_":13656,"230":13657,"Jul":13658,"ResNet":13659,")Ġ%Ġ14999)Ġ%Ġ":13660,"idx_":13661,"Ta":13662,"ÑĮ":13663,"wrapper.":13664,"gotoĠ__pyx_L1_error":13665,"hop":13666,"Ġ=Ġ4":13667,"idden":13668,"CHECK":13669,"s=(":13670,"Decor":13671,"communic":13672,"Score":13673,"ĠĠĠĠĠĠĠĠforĠi,Ġ":13674,"tagĠ":13675,"Fragment":13676,"s.items():":13677,"layer(":13678,"rightsĠ":13679,"plane":13680,":%":13681,"your":13682,"Ġ=Ġ0.0":13683,"coor":13684,"peak":13685,"LeftĠ":13686,"commit()":13687,"668477":13688,"Ġ#Ġ":13689,"size,":13690,"Predi":13691,"pull":13692,"erarch":13693,"ĠĠĠĠĠĠĠĠĠĠĠĠdefĠ":13694,"goal":13695,"content)":13696,"Ġ=Ġ_.":13697,"Comment.":13698,"external_":13699,"s']Ġ=Ġ":13700,"ofĠthe":13701,"sorted":13702,"creden":13703,"scopeĠ":13704,"1Ġ=Ġ6;":13705,"max,Ġ":13706,"Ġ+Ġ1":13707,"where(":13708,">::":13709,"ĠĠ-webkit-":13710,"ĠĠĠĠreturnĠ{":13711,"exactlyĠ":13712,"diff_":13713,"transformers.":13714,"typeĠisĠ":13715,"a735614807":13716,"359":13717,"pep":13718,"lower_":13719,"inger":13720,"logo":13721,"velyĠ":13722,"_index,Ġ":13723,"cros":13724,"IAL":13725,"**`":13726,"304449":13727,"NAME_":13728,"Region":13729,"ĠĠĠĠmodelĠ=Ġ":13730,"saf":13731,"unsignedĠlong)digit":13732,"predicate":13733,"colour":13734,"3)Ġ":13735,"SHO":13736,"fewĠ":13737,"previous_":13738,"calc_":13739,"batch_size=":13740,"rotate":13741,"A,":13742,"MENT_":13743,"dateĠ=Ġ":13744,"\",Ġ\"--":13745,"roi":13746,"nĠ-Ġ":13747,"sĠofĠaĠ":13748,"METHOD":13749,"hu":13750,"nb_":13751,"code(":13752,"regularĠ":13753,"WhetherĠtoĠ":13754,"ĠĠĠĠĉa873933":13755,"typesĠ=Ġ[":13756,"cast_":13757,"connect(":13758,"LY":13759,"Sour":13760,"`**Ġ":13761,"s=True":13762,"cuto":13763,"caten":13764,"Dropout":13765,"rdf":13766,"ĠĠĠĠPy_":13767,"WindowsĠ":13768,"386":13769,"indicat":13770,"</span><spanĠclass=\"p\">,":13771,"ToontownGlobals.":13772,"??":13773,"__extension__Ġ({Ġ\\":13774,"Member.":13775,"855":13776,"ĠĠĠĠĠĠĠĠĠĠĠĠinclude('":13777,"type,":13778,"later":13779,"throughĠtheĠ":13780,"cal_":13781,"versionĠofĠ":13782,"dataset,Ġ":13783,"networkĠ":13784,"ATTRS_o_aiĠ":13785,"6:":13786,"ĠĠĠĠĉa1715":13787,"COLOR":13788,",ĠIn":13789,"ERS":13790,"classĠforĠ":13791,"clientĠ=Ġ":13792,"=0.0":13793,"ĠĠĠĠĠĠĠĠĠĠĠĠĠĠĠĠassert.equal(":13794,"el.":13795,"ĠĠĠĠdefĠexit":13796,"async_":13797,"Helper":13798,"])Ġ{":13799,"limite":13800,"pd.DataFrame(":13801,"class=\"field-odd\">":13802,"s':":13803,"options,Ġ":13804,"hg":13805,"x);":13806,"ĉĠĠĠĠĠĠ":13807,"2a":13808,"2,Ġ'":13809,"_VERSION":13810,"nn_":13811,"ĠĠĠĠĠĠ<li><aĠhref=\"":13812,"ĠĠ\\":13813,"inc":13814,"id='":13815,"objectsĠ":13816,"pxĠsolidĠ#":13817,"__m128":13818,"equivalentĠ":13819,"[i,Ġ":13820,"importĠunittest":13821,"3199":13822,"0}":13823,"nameĠ==Ġ'":13824,"useĠstrict';":13825,"couldĠbeĠ":13826,"subplot":13827,"Executor":13828,"ĠĠĠĠpath":13829,"---Ġ":13830,"name)Ġ{":13831,"location.":13832,"Area":13833,"sĠ=ĠTrue":13834,"ClickHouseParser.":13835,"local/":13836,"whitespace":13837,"Children":13838,"intro":13839,"Formatter":13840,"dtype)":13841,"</span></a>":13842,"titleĠ=Ġ":13843,"*>":13844,"{@":13845,"reak":13846,"elĠ":13847,"::-1]":13848,"whichĠtheĠ":13849,"</h3>":13850,"verify_":13851,"å¯¹":13852,"daysĠ":13853,"RNA":13854,"part_":13855,"_ind":13856,"readcr":13857,"days":13858,"typeĠofĠ":13859,"s[i],Ġ":13860,"pkg_":13861,"changeĠtheĠ":13862,"cwd":13863,".ĠInĠ":13864,"Now":13865,"\\u06":13866,")ĠasĠproc:":13867,"network_":13868,"Uniform":13869,"Ġë":13870,"Addition":13871,"InitialĠvalue":13872,"(string":13873,"_set_":13874,"Ġ<<Ġ":13875,"andĠthenĠ":13876,"ast.":13877,"polynomi":13878,"æĶ":13879,"tests/":13880,"shapeĠ=Ġ":13881,"thinkĠ":13882,"1D":13883,"_ID":13884,"y',":13885,"<AĠNAME=":13886,"tensor_":13887,"substring":13888,"weĠdon'tĠ":13889,"6Ġ=Ġ7;":13890,"sys.version_info":13891,"Context):":13892,"register(":13893,"xbm":13894,"ACK_":13895,"webĠ":13896,"lg":13897,"factorĠ":13898,"Ġ=Ġself.__":13899,"dims(":13900,"makedirs(":13901,"along":13902,"grammar":13903,"ĠĠĠĠdisplay:Ġ":13904,"2388":13905,"_SESSION":13906,"pin":13907,"ĠĠĠĠĠĠĠĠĠĠĠĠĠĠĠĠreturn":13908,"cls(":13909,
[...]
